#version: 0.2
t h
th e</w>
i n
a n
e r
e d</w>
a r
t i
r e
e n
o f</w>
i n</w>
o n
o r
an d</w>
o n</w>
e r</w>
s t
a l
r o
a s</w>
i t
in g</w>
a t
t o</w>
e s</w>
o u
i s</w>
i c
a l</w>
a n</w>
a c
i l
o r</w>
e l
i s
a m
c o
a s
c h
a t</w>
u r
w as</w>
a ti
e s
u n
e c
s i
e n</w>
r i
o l
d i
w h
l e
l y</w>
e m
a d
a g
1 9
l o
f or</w>
l i
h e</w>
i r
en t</w>
u s
b y</w>
it h</w>
b e
c on
en t
s e
co m
l e</w>
w ith</w>
p ro
l a
s u
r a
d e
v e</w>
h a
2 0
ati on</w>
h i
v er
n e
n o
p o
i t</w>
f or
' s</w>
er e</w>
c e</w>
th at</w>
b u
s t</w>
a p
er s</w>
th e
a b
f ro
s p
fro m</w>
m a
ou n
h o
m o
t h</w>
ti on</w>
h is</w>
t o
g h
p ar
v i
t s</w>
t ed</w>
e x
it y</w>
o p
on s</w>
u l
a r</w>
l u
c i
q u
d u
p re
t er
t er</w>
b o
at e</w>
t r
m e
c h</w>
w e
at ed</w>
ar e</w>
st r
m e</w>
p e
th er</w>
m an
d s</w>
p er
w or
m ar
s o
t e
f f
in g
w ere</w>
ic h</w>
al l</w>
20 1
a u
v er</w>
d e</w>
b er</w>
s o</w>
d ing</w>
d ed</w>
i m
p l
t a
on e</w>
s er
a f
20 0
re c
wh ich</w>
am e</w>
d o
i r</w>
f i
o o
s e</w>
f ir
w n</w>
a y</w>
b e</w>
ar y</w>
p or
in c
on al</w>
p u
al ly</w>
s h
g e</w>
ag e</w>
i g
l d</w>
es t</w>
th is</w>
e ar
it s</w>
m in
al so</w>
d er</w>
t ur
g i
m ent</w>
ou r
r an
ro u
ha d</w>
f e
t y</w>
h as</w>
v ed</w>
in e</w>
g h</w>
ou t</w>
u m
p la
i es</w>
t w
fir st</w>
com m
g u
g o
d er
for m
i a</w>
e v
p h
k e</w>
gh t</w>
du c
o c
al l
1 8
bu t</w>
the ir</w>
h er</w>
on g</w>
ar d</w>
a d</w>
s ch
af ter</w>
r u
e t</w>
ent s</w>
a v
c oun
h e
ne w</w>
s ec
ti c
j o
a m</w>
i c</w>
no t</w>
em ber</w>
co l
t ing</w>
t e</w>
n ati
c ar
wh o</w>
g re
u s</w>
i d
as t</w>
com p
or e</w>
f in
e l</w>
il l
o ther</w>
s he</w>
d is
b l
the y</w>
k s</w>
lo w
un i
o m
g en
t u
in ter
s hi
es s</w>
ha ve</w>
inc lu
t en
n or
is h
l and</w>
k ing</w>
pre s
pla y
d es
en ce</w>
al i
an d
con t
tw o</w>
ou ld</w>
ic e</w>
c ent
s c
19 9
a y
v el
lo c
b er
g e
ou s</w>
en g
b or
at er</w>
be en</w>
m an</w>
m on
n ed</w>
s y
an t</w>
p i
re n
w i
p ol
at es</w>
ati ons</w>
ac e</w>
k e
st e
b as
p r
n i
ad e</w>
d ur
or y</w>
ti me</w>
t ra
ac k</w>
ic al</w>
d ec
g r
s on</w>
el l</w>
a in
m il
o ff
u p</w>
ab le</w>
b r
it ed</w>
is t</w>
e st
s ou
wh en</w>
s ho
nati onal</w>
is h</w>
sp ec
ti ons</w>
f il
it e</w>
c or
es e</w>
m u
es s
as s
si on</w>
dur ing</w>
0 0</w>
at t
b ec
ou r</w>
c l
el l
a st
al s</w>
st u
w il
an g
w ar
ch ar
e p
s ti
ti es</w>
an ce</w>
k no
th ere</w>
el ec
in to</w>
re e</w>
b ri
19 8
m ore</w>
e d
am er
is i
p ri
oun d</w>
w ay</w>
c re
ser v
f ol
us ed</w>
b ro
be t
c an
a k
s ur
r ic
t on</w>
mo st</w>
ar i
y e
ver s
p s</w>
l an
u e</w>
h ou
il e</w>
o g
oo l</w>
us e</w>
y ear
ac h
re s</w>
ma y</w>
e i
t ri
bu il
us t</w>
th er
u c
sch ool</w>
ing s</w>
en ti
ac h</w>
il y</w>
so ci
on ly</w>
amer ic
an y</w>
shi p</w>
p p
el y</w>
o ver</w>
ol d</w>
an s</w>
j u
u m</w>
f am
a ir
b i
19 7
n ing</w>
s a
l es</w>
ish ed</w>
ic i
o k</w>
or s</w>
po s
year s</w>
wh ere</w>
l ar
m at
pro duc
h el
su b
man y</w>
in s</w>
i d</w>
en c
c ri
in ed</w>
w ould</w>
v ing</w>
r it
i z
st s</w>
ti ve</w>
k ed</w>
ar e
in ce</w>
le as
p en
se as
we en</w>
n am
ye ar</w>
f ac
bet ween</w>
th rou
wor ld</w>
h ar
c ity</w>
at ur
l ater</w>
so me</w>
s s</w>
c ap
d ay</w>
on g
sec on
f u
fol low
c ur
st ar
an n
si g
uni vers
st ate</w>
kno wn</w>
19 6
f er
t or</w>
f t</w>
m i
hi m</w>
c an</w>
m s</w>
wh ile</w>
d ent</w>
at ing</w>
rec or
f a
th en</w>
b ur
l ed</w>
m ade</w>
ab out</w>
tr an
in di
c u
v es</w>
gen er
su ch</w>
n um
c a
b el
wor k</w>
r ed</w>
th ou
re leas
th ree</w>
w s</w>
g ra
c lu
univers ity</w>
isi on</w>
t en</w>
s m
o f
b ar
th an</w>
em ent</w>
un der</w>
po in
t ro
tur e</w>
un ited</w>
g rou
for e</w>
seas on</w>
r y</w>
ti c</w>
go ver
st er</w>
in v
bor n</w>
di rec
par t</w>
v e
s ing
i an</w>
em p
fil m</w>
op er
te am</w>
g er
w ell</w>
ec t</w>
ti m
s k
en d</w>
st or
h ol
str uc
bec ame</w>
str ic
e u
ar m
g ro
r e</w>
americ an</w>
f oo
v o
th ese</w>
i al</w>
be g
19 4
s ol
s el
b le</w>
w in
p ul
f l
b all</w>
am p
pu bl
m is
ap pe
d re
an c
secon d</w>
no v
p e</w>
i l</w>
gover n
throu gh</w>
be ing</w>
wi th
inclu ding</w>
t re
al bu
st ates</w>
d r
la r</w>
f e</w>
de vel
e t
19 5
bo th</w>
w ar</w>
be fore</w>
c c
si de</w>
st ed</w>
ver y</w>
t ly</w>
w rit
pe op
n o</w>
por t</w>
o re
c as
sou th</w>
f ran
m em
l in
d y</w>
a in</w>
w ard</w>
t y
st er
ol og
c all
re gi
ti s
jo h
a z
su p
fam ily</w>
t or
or ig
si c</w>
o b
t ers</w>
or g
peop le</w>
l ine</w>
ho we
ch am
howe ver</w>
n ame</w>
al e</w>
su l
ay s</w>
c er
re l
se ver
ati ve</w>
di stric
ag ain
again st</w>
w est</w>
devel op
ti l</w>
the m</w>
min i
b an
d es</w>
f ic
un til</w>
hi gh
s ince</w>
d ic
am es</w>
ser ies</w>
n er</w>
j un
are a</w>
li c</w>
albu m</w>
m us
r is
e -
c our
o d</w>
j an
0 s</w>
vi e
h er
follow ing</w>
d a
grou p</w>
des ig
se p
play ed</w>
thou gh</w>
ac t</w>
s en
le ag
st re
st ri
v al
con si
1 7
nor th</w>
ch il
un d</w>
hou se</w>
sti tu
pu b
f re
c ro
releas ed</w>
g ar
lo w</w>
d em
comp any</w>
m p
hi gh</w>
19 3
to wn</w>
f oun
pub lic</w>
orig in
mu sic</w>
di ff
distric t</w>
po si
per i
sever al</w>
fi el
comm un
, 0
ac k
v en</w>
num ber</w>
st ory</w>
po pul
f r
pl ac
coun ty</w>
ur y</w>
o se</w>
ar ch
cont in
ch an
comp le
t el
v en
appe ar
call ed</w>
b re
le y</w>
t le</w>
as s</w>
rec ei
leag ue</w>
c lo
com e</w>
o w
d el
su cc
m er
wil l</w>
cham pi
g ame</w>
s ed</w>
in a</w>
tr y</w>
t a</w>
org an
me di
tic al</w>
ma j
pro f
v ari
ac c
b and</w>
ir e</w>
v is
v ic
au g
ear ly</w>
for m</w>
h u
ch ur
am s</w>
i e
f our</w>
a th
foo t
b ers</w>
w on</w>
pres ent
le g
pl ace</w>
at h</w>
il i
govern ment</w>
d en
oo d</w>
le ad
w om
v ill
po w
d o</w>
n s</w>
ta in</w>
re tur
in ing</w>
bas ed</w>
e ach</w>
loc ated</w>
b ack</w>
re as
1 0</w>
y ing</w>
d ge</w>
er ed</w>
e g
su m
li ke</w>
no w</w>
ou t
a ir</w>
v ol
tis h</w>
st ation</w>
as h
s ame</w>
t es</w>
mar ch</w>
s es</w>
l l</w>
pro vi
pre si
di v
clu b</w>
col le
y or
b ru
f un
ser ved</w>
,0 00</w>
sep t
il l</w>
i ti
d on</w>
p an
u ary</w>
b us
di tion</w>
f ound</w>
joh n</w>
sept ember</w>
jun e</w>
re ma
stu di
l it
19 2
f ul
c ul
ic s</w>
p al
th ir
jan uary</w>
1 0
oc to
ti v
ri ver</w>
ju ly</w>
gener al</w>
beg an</w>
m id
p ur
s w
par t
m ember</w>
st an
ab l
u p
ti onal</w>
octo ber</w>
ri l</w>
eu ro
m or
e k</w>
por t
se t</w>
s ci
’ s</w>
sp or
sp on
t t
aug ust</w>
in f
inter national</w>
m ag
s co
ste m</w>
form er</w>
s .</w>
as soci
un der
ap ril</w>
tim es</w>
nam ed</w>
ec ted</w>
colle ge</w>
g a
i f</w>
u ally</w>
fu l</w>
com pe
ther n</w>
ag es</w>
c es</w>
popul ation</w>
m en</w>
1 6
d ra
m ic
chur ch</w>
ho me</w>
c la
di d</w>
d en</w>
tran s
fiel d</w>
form ed</w>
pl an
cur ren
e ast</w>
j e
f ri
li fe</w>
w al
z e</w>
o ver
p at
is m</w>
nov ember</w>
i i</w>
hel d</w>
ap pro
to ok</w>
cent ury</w>
il ity</w>
o s</w>
a use</w>
sy stem</w>
dec ember</w>
v ir
o s
re sul
au str
ro ad</w>
h y
19 1
bec ause</w>
est abl
e duc
on -
ent ly</w>
yor k</w>
c ed</w>
li on</w>
atur e</w>
it al</w>
buil t</w>
h al
ar ound</w>
201 0</w>
diff er
d ents</w>
par ty</w>
is e</w>
r us
si ve</w>
s ong</w>
contin u
t al</w>
ur e</w>
ne w
op en
e ty</w>
s ing</w>
cent r
me d
du e</w>
bri tish</w>
1 5
m al
g l
o m</w>
p ic
c ould</w>
war ds</w>
loc al</w>
u al</w>
sel f</w>
b est</w>
man ag
sho w</w>
sh or
olog y</w>
foot ball</w>
y o
al ong</w>
2 0</w>
pla y</w>
buil ding</w>
e er</w>
an other</w>
cont ro
g er</w>
201 1</w>
li m
ma in</w>
of f</w>
co ver
te ch
r ac
champi on
recei ved</w>
ar ti
de f
vill age</w>
ar t</w>
s al
with in</w>
re g
ec ts</w>
n e</w>
fin al</w>
fe bru
au th
febru ary</w>
m er</w>
en d
o wn</w>
pro c
a k</w>
tr ac
bo ok</w>
c k</w>
e qu
char ac
ro y
e ff
mo ved</w>
r un
serv ice</w>
hi stor
ar ch</w>
mem bers</w>
h or
ad v
ac cor
an a</w>
201 2</w>
ti on
c am
s ha
pro v
presi dent</w>
b ed</w>
fi ed</w>
sp e
f ore
des cri
do wn</w>
s qu
m ents</w>
m ul
ou s
es si
maj or</w>
ri ed</w>
col l
wom en</w>
t -
der ed</w>
v il
b a
gr ad
or der</w>
al though</w>
e y</w>
spec ies</w>
1 8</w>
k en</w>
inclu de</w>
re spon
j ect</w>
y s
g ames</w>
k er</w>
ir ed</w>
200 9</w>
200 8</w>
v el</w>
f ur
chil dre
he ad</w>
l ong</w>
le ft</w>
organ iz
childre n</w>
sm all</w>
a ff
re si
1 2</w>
p ass
di ed</w>
publ ished</w>
s an
w ater</w>
fi ve</w>
201 3</w>
posi tion</w>
e f
l y
201 4</w>
wh at</w>
lar ge</w>
g ran
us ing</w>
ci p
y oun
re qu
ev en</w>
sa id</w>
on om
la w</w>
de pen
a di
b att
con struc
re f
l ast</w>
for d</w>
tic s</w>
p er</w>
b al
thir d</w>
b en
l on
th ose</w>
m a</w>
z ed</w>
sing le</w>
ic es</w>
gh ts</w>
200 6</w>
is ed</w>
par k</w>
re se
ig n</w>
ra il
w ing</w>
m oun
ec tion</w>
k o
re present
h on
pol i
1 5</w>
h un
accor ding</w>
201 5</w>
19 0
200 7</w>
c at
vel y</w>
m un
l a</w>
off ici
3 0</w>
sti ll</w>
inclu ded</w>
w a
div ision</w>
bus in
de ath</w>
s our
wil li
pos ed</w>
as si
m ent
hi story</w>
arm y</w>
we ster
th ers</w>
fa ther</w>
ch es</w>
f ren
eng l
so me
t an
elec ted</w>
ma in
n a
ali an</w>
is su
at ely</w>
b s</w>
sig ned</w>
ra di
to w
k et</w>
at ten
at or</w>
ge or
ar ly</w>
k es</w>
d on
coun try</w>
g o</w>
bo ard</w>
s ite</w>
ad a</w>
r ing</w>
b ra
c y
spec i
origin al</w>
t our
se qu
do c
m c
centr al</w>
u res</w>
g ed</w>
to p</w>
in stitu
am ong</w>
201 6</w>
u .
l ate</w>
k a</w>
of ten</w>
inc reas
ic k</w>
re ad
l l
as e</w>
w e</w>
c ast
elec tion</w>
en s</w>
re por
mini str
wester n</w>
w at
y s</w>
ing ton</w>
ati c</w>
c ep
al ity</w>
d a</w>
d ers</w>
j ust</w>
d ro
ber t</w>
develop ment</w>
ne y</w>
fren ch</w>
li ght</w>
c ra
j ap
ch ang
c le
b ir
n a</w>
di st
wor ks</w>
in es</w>
ast er
commun ity</w>
engl ish</w>
shi ps</w>
pow er</w>
1 1</w>
mil lion</w>
i m</w>
con n
d in
differ ent</w>
in du
l ess</w>
2 5</w>
ci al</w>
st y
an t
18 9
ag ain</w>
or ed</w>
ne ar</w>
i st
mu ch</w>
plac ed</w>
cour t</w>
par ti
gre at</w>
in iti
enc es</w>
tech n
s em
ne x
cent er</w>
ne t
c al
pr in
re li
t ors</w>
car eer</w>
ac ti
p lo
ke y</w>
in e
at s</w>
h am
ad em
lan gu
d -
it ary</w>
h en
poin t</w>
u. s.</w>
s it
d ar
i e</w>
w ent</w>
em s</w>
ci l</w>
per s
af ric
t ex
h um
vie w</w>
h an
establ ished</w>
form ation</w>
ann oun
fi c</w>
s il
fe der
1 6</w>
he ad
ha m</w>
bo o
pre vi
st at
lon don</w>
er ing</w>
th em
coun cil</w>
wh ite</w>
1 4</w>
ger man</w>
a il
f el
play er</w>
pro b
stre et</w>
stu dents</w>
g et</w>
t al
ous ly</w>
or i
qu ar
recor d</w>
st o
ex ten
rese arch</w>
tel ev
1 2
f em
on ed</w>
m y</w>
p a
ha ving</w>
star ted</w>
d ence</w>
p ed</w>
succ ess
ti tle</w>
c ame</w>
qu e</w>
201 7</w>
is land</w>
mar y</w>
an ti
educ ation</w>
is o
lan ds</w>
1 3</w>
regi on</w>
fr on
h in
yo u</w>
on y</w>
an ts</w>
de part
do m</w>
d ri
gi ven</w>
ol s</w>
sup port</w>
at a</w>
ma ke</w>
a ward</w>
l ong
c amp
w in</w>
ri ght</w>
produc ed</w>
m b
c up</w>
g est</w>
p ho
im port
comm it
l ist</w>
ac adem
nex t</w>
1 4
b ran
mo der
qu e
si x</w>
18 8
inv ol
ec onom
ap poin
al low
gra m</w>
peri od</w>
th s</w>
ta ke</w>
se e</w>
mil itary</w>
d ou
c en
for ce</w>
vari ous</w>
y -
f our
n al</w>
comm is
uni on</w>
1 7</w>
bro ad
ver sion</w>
ic k
ro le</w>
200 5</w>
si ble</w>
c e
l ing</w>
be come</w>
telev ision</w>
enc y</w>
to tal</w>
mar ried</w>
5 0</w>
pro mo
t t</w>
ch e
e p</w>
c el
writ ten</w>
st on</w>
prof essi
d ays</w>
produc tion</w>
l at
si mil
n ia</w>
off ice</w>
al ia</w>
1 3
c r
pro gr
rus si
ch ed</w>
f lo
direc tor</w>
n ess</w>
re fer
pro t
th ing</w>
le vel</w>
eng land</w>
am a</w>
t ar
associ ation</w>
ec u
busin ess</w>
jo ined</w>
champion ship</w>
a ver
bl ack</w>
gh ter</w>
x im
pro gram</w>
n on-
h ear
wor ked</w>
poli tical</w>
compe ti
al th</w>
em ents</w>
di tional</w>
s ong
vi de
cre ated</w>
on es</w>
de fe
k ill
c ali
z e
ph il
j our
w ro
cl ass</w>
in depen
2 4</w>
to ge
or ity</w>
18 6
ter min
foun ded</w>
toge ther</w>
w ays</w>
grad u
c ir
youn g</w>
sch o
t able</w>
r a</w>
ach ed</w>
de l</w>
depart ment</w>
par tic
c o</w>
fe w</w>
publ ic
continu ed</w>
th re
announ ced</w>
pres ent</w>
t ation</w>
su s</w>
gro und</w>
i ght</w>
d ate</w>
n av
er y</w>
ep iso
sup por
retur ned</w>
with out</w>
1 .
com b
wro te</w>
euro pe
el s</w>
p ain
st and
200 4</w>
fe atur
m ur
c .</w>
pl ic
for man
chan ge</w>
descri bed</w>
v al</w>
i or</w>
si ons</w>
l er</w>
y a</w>
con cer
ri bu
ac tion</w>
soci ety</w>
d au
m el
in tro
radi o</w>
ag ed</w>
k ar
ru n</w>
aster n</w>
roy al</w>
per forman
w ood</w>
18 7
con ta
ni ght</w>
200 0</w>
2 1</w>
il ed</w>
m en
we e
ne l</w>
l ou
c k
vi du
li ve</w>
pr is
re co
ad ministr
indi vidu
p t</w>
tur al</w>
d ings</w>
s an</w>
lo st</w>
in ten
ro und</w>
soci al</w>
open ed</w>
e very</w>
p le</w>
th -
appear ed</w>
o -
1 9</w>
nor thern</w>
willi am</w>
ar ds</w>
al ist</w>
n er
pro ject</w>
ab ility</w>
serv ices</w>
indi a</w>
f es
do w
amp le</w>
an i
s un
fur ther</w>
st -
vi a</w>
b lu
europe an</w>
us es</w>
bri dge</w>
ma king</w>
li es</w>
se tt
sum mer</w>
austr alia</w>
1 00</w>
su per
st ing</w>
a h</w>
ch ie
an g</w>
ro ss</w>
duc ed</w>
m it
att emp
fran ce</w>
mun ici
b b
h all</w>
op en</w>
b il
recor ded</w>
emp lo
g ol
cali for
str y</w>
k in
com ing</w>
f ace</w>
on ce</w>
professi onal</w>
sou thern</w>
wor king</w>
vil le</w>
sec re
contro l</w>
s po
t ory</w>
bo dy</w>
consi dered</w>
v an
off ic
at ures</w>
cas e</w>
tr ack</w>
pri v
d y
comm on</w>
k ing
n '
vi l</w>
2 2</w>
mat ch</w>
americ a</w>
g ir
d am
la ke</w>
ev ent
o l</w>
langu age</w>
desig n</w>
import ant</w>
califor nia</w>
a e</w>
th om
rel ati
ac i
con stitu
a w
i re
m y
t v</w>
co -
anc es</w>
b it
def en
inf lu
r ace</w>
j ames</w>
n' t</w>
og ra
hi m
mus e
p hi
t em
da vi
curren tly</w>
rail way</w>
st .</w>
0 .
cla im
r .</w>
f ar
b is
develop ed</w>
cover ed</w>
mul ti
wi fe</w>
i de
ul t</w>
ati onal</w>
geor ge</w>
f le
po pu
im p
vide o</w>
ab o
f o
ol y
i gh
ag re
spec ial</w>
play ing</w>
construc tion</w>
2 3</w>
ti n</w>
l or
popu lar</w>
ab ly</w>
s we
f ree</w>
se a</w>
wi de</w>
h ard</w>
g es</w>
o thers</w>
200 3</w>
pp ed</w>
appoin ted</w>
an im
hal f</w>
c ast</w>
ev ent</w>
aver age</w>
do es</w>
ro ck</w>
are as</w>
u tion</w>
simil ar</w>
can ada</w>
batt le</w>
s am
2 .
av ail
k u
li ving</w>
l s</w>
shor t</w>
k en
su ff
ho w</w>
ell s</w>
sh ar
fes tiv
is l
la un
ti an</w>
a way</w>
m ac
ou gh</w>
s or
recor ds</w>
b a</w>
t un
te e</w>
re -
f f</w>
mini ster</w>
ph y</w>
ter m</w>
a u</w>
con tr
ag o</w>
le ad</w>
ou th</w>
origin ally</w>
mo ther</w>
a war
g y</w>
m as
sty le</w>
st one</w>
for ces</w>
ex ample</w>
n ers</w>
nati ve</w>
bel ie
releas e</w>
sci ence</w>
fun c
o t</w>
k ers</w>
ad dition</w>
ni fic
de st
hou se
id enti
ap p
ex ecu
wh e
2 8</w>
oc cu
mid d
tri es</w>
pres s</w>
ser ve</w>
b lo
k h
ch r
pol ice</w>
su g
him self</w>
te ams</w>
me th
lit tle</w>
throu gh
ac qu
ar ri
resul t</w>
ch ris
re ti
lit er
up on</w>
le t</w>
2 6</w>
song s</w>
poin ts</w>
st ra
moder n</w>
b ly</w>
j er
m ad
ne ver</w>
g ood</w>
ish ing</w>
s la
de but</w>
f -
200 2</w>
d i</w>
mo v
n ar
scho ols</w>
ta ken</w>
es ti
2 7</w>
mar k</w>
le t
de gre
b on
pro per
enti al</w>
p ap
parti cip
e astern</w>
fir e</w>
lo ve</w>
ex p
pu t</w>
ch in
camp a
mat er
al -
y ed</w>
through out</w>
fi f
ar s</w>
200 1</w>
avail able</w>
u k</w>
c ar</w>
c ou
hum an</w>
curren t</w>
r ul
muse um</w>
tu res</w>
chie f</w>
o k
n y</w>
sig nific
reco g
g a</w>
b y
i ded</w>
he av
sur e</w>
cra ft</w>
des p
v ent
for t</w>
st age</w>
s us
ty pe</w>
ev ents</w>
ger many</w>
st ar</w>
i p
ill s</w>
m ed</w>
tra ining</w>
sec tion</w>
in formation</w>
se par
the at
mag az
f oc
medi a</w>
he alth</w>
as i
com man
offici al</w>
rou te</w>
ste ad</w>
ac ross</w>
b at
w ash
sp ace</w>
austr alian</w>
cont ribu
ent al</w>
ph ys
ro man
form s</w>
l and
o w</w>
indi an</w>
t our</w>
prov ince</w>
p es</w>
s ent</w>
ran ge</w>
olog ical</w>
dau ghter</w>
ho sp
comm er
v a</w>
desig ned</w>
m ing</w>
cl ass
low er</w>
event ually</w>
iz ed</w>
s old</w>
commit tee</w>
fron t</w>
dem oc
sh ire</w>
. .
fer ence</w>
sp an
b our
ti t
n atur
u r</w>
ess or</w>
ac hi
lo s</w>
desp ite</w>
play ers</w>
u la
o t
.. .</w>
r am
se ven</w>
ta ined</w>
reli gi
bur g</w>
2 9</w>
sy st
sh ould</w>
con gre
s -
arch it
g s</w>
ch o
le av
ex peri
in j
ro un
davi d</w>
pp er</w>
k an
4 0</w>
st ant</w>
s ain
festiv al</w>
en ded</w>
cen sus</w>
fam il
fin ished</w>
co ach</w>
tour nam
oly mp
se en</w>
l in</w>
charac ter</w>
me t
ga ve</w>
ac tive</w>
s ar
cent re</w>
us ually</w>
qu ali
en ds</w>
s a</w>
lar gest</w>
ang el
li am
per formed</w>
a h
follow ed</w>
lead ing</w>
par liam
e th
pl at
p it
e ded</w>
c le</w>
pl es</w>
mon ths</w>
pre mi
re st
net work</w>
institu te</w>
co p
euro pe</w>
co lu
ch ina</w>
v an</w>
li ber
il s</w>
li gh
min u
ref er</w>
sub sequ
st ers</w>
fe atures</w>
j ects</w>
th us</w>
ar ts</w>
b an</w>
sc en
fic ation</w>
stu dy</w>
p au
ri ghts</w>
e ver</w>
an ese</w>
w oo
ban k</w>
performan ce</w>
m ex
elec tr
sc ri
bu l
proc ess</w>
hel p</w>
sco t
prob le
episo de</w>
18 5
sec ur
es p
bro ther</w>
form ula
retur n</w>
all s</w>
mex ic
th ol
u lar</w>
inclu des</w>
famil ies</w>
vi ol
comple ted</w>
gu lar</w>
boo ks</w>
ver s</w>
our s</w>
ma y
sa w</w>
at ors</w>
c ent</w>
con duc
rema ined</w>
u k
all er</w>
pol ic
cro s
le ar
an al
formula _
h ill</w>
in st
ach ing</w>
ful l</w>
can adi
w ed</w>
fran c
199 9</w>
a i
featur ed</w>
d or
success ful</w>
li ed</w>
g lo
h and
a i</w>
grou ps</w>
man u
o x
m ust</w>
repor ted</w>
direc ted</w>
e ts</w>
e ds</w>
sy n
in ning</w>
n ic
ful ly</w>
0 ,000</w>
priv ate</w>
h ere</w>
p ra
l ic
ke t
t ting</w>
thom as</w>
in stead</w>
academ y</w>
ear li
re spec
ro bert</w>
si mp
to day</w>
di tions</w>
wash ington</w>
r on</w>
spor ts</w>
ho p</w>
de fin
li sted</w>
ent ary</w>
foun d
g al
g in
ass em
be l</w>
b ack
mar ket</w>
so on</w>
3 1</w>
c a</w>
ci vil</w>
spor t</w>
com es</w>
f av
ec tive</w>
as h</w>
magaz ine</w>
ic ally</w>
gre en</w>
201 8</w>
enc ed</w>
feder al</w>
ur al</w>
ar tic
ber g</w>
studi es</w>
a -
it ing</w>
com pu
air craft</w>
me an
reg ul
ro w</w>
no min
col on
a wards</w>
competi tion</w>
appro xim
lin es</w>
1 ,
struc ture</w>
ne ws</w>
en vir
k i
li br
pau l</w>
organiz ation</w>
m es</w>
sur vi
writ er</w>
bas e</w>
oper ation</w>
in o</w>
s h</w>
pro te
invol ved</w>
la bor
m ig
char les</w>
ol e</w>
ei ther</w>
mis sion</w>
ei ght</w>
g old</w>
ch ap
indepen dent</w>
er a</w>
est er</w>
t ary</w>
y l
clo se</w>
writ ing</w>
199 8</w>
envir on
g an</w>
mic ha
e m</w>
er ous</w>
sc re
ther e
par ts</w>
pos sible</w>
recog ni
3 .
mo del</w>
re st</w>
ri st
ad ded</w>
au to
histor ic</w>
coun tries</w>
ac tiv
p un
tournam ent</w>
democ r
y er</w>
al ter
p on
cap ital</w>
n es
awar ded</w>
m ir
ch ic
con ference</w>
nati on
studi o</w>
we ek</w>
king dom</w>
w id
b rou
sy l
h us
four th</w>
w an
campa ign</w>
en er
st af
la w
h a</w>
syst ems</w>
win ning</w>
provi ded</w>
do min
ex pan
all -
canadi an</w>
in -
sit u
abo ve</w>
si x
midd le</w>
mov ement</w>
cep t</w>
bi g</w>
degre e</w>
t ou
previ ous</w>
su pp
ro om</w>
med ical</w>
russi an</w>
techn ology</w>
ca thol
acc ep
jap anese</w>
n u
nor th
ra ther</w>
lo o
rel ated</w>
re vol
di stri
d ance</w>
kill ed</w>
an o</w>
jap an</w>
b loc
go ing</w>
re placed</w>
i -
m ol
att ack</w>
co ast</w>
n ec
l eng
gr and</w>
distri bu
si ze</w>
199 6</w>
po st</w>
hol ds</w>
c y</w>
ath le
fil ms</w>
di g
ex per
play s</w>
r an</w>
la b
on ic</w>
pho to
s af
ac y</w>
vel s</w>
al most</w>
ili ties</w>
progr am
j us
en a</w>
d ol
h old</w>
chin ese</w>
manag ement</w>
com par
199 7</w>
indu stry</w>
air s</w>
b ay</w>
du ce</w>
em er
in dic
w ell
ent er
le a
sho ws</w>
stan ding</w>
g un
tr u
ter rit
me as
ec h</w>
prof essor</w>
in ation</w>
e vi
fem ale</w>
bu d
n ation</w>
p il
18 4
me t</w>
read y</w>
g am
st ated</w>
intro duced</w>
micha el</w>
hin d</w>
str ong</w>
val ley</w>
chang ed</w>
at ory</w>
natur al</w>
mo vi
d ata</w>
ow ned</w>
l ad
le ast</w>
ti ce</w>
succ ess</w>
tow n
approxim ately</w>
ac coun
g ri
es sion</w>
beg inning</w>
t s
re ached</w>
vie ws</w>
con serv
hosp ital</w>
ex c
per son</w>
st oc
doc um
o d
r y
sen ior</w>
e ver
b ou
le -
dec ided</w>
te l</w>
al es</w>
z a</w>
i ally</w>
sour ces</w>
ne t</w>
comp an
ma ster</w>
ent ed</w>
pri mary</w>
tre at
provi de</w>
att ac
ne igh
fre qu
op h
theat re</w>
ex hi
previ ously</w>
commun ic
re gular</w>
au di
ta king</w>
g ation</w>
w el
u es</w>
can di
wom an</w>
c li
be hind</w>
pal ity</w>
re al</w>
mi x
re public</w>
199 5</w>
star t</w>
tur ed</w>
ho od</w>
to o</w>
as ed</w>
out side</w>
or ial</w>
leg al</w>
sc ored</w>
cor por
ta in
some times</w>
hen ry</w>
ment al</w>
mo ve</w>
chil d</w>
e y
afric a</w>
cour se</w>
on a</w>
we b
se y</w>
op s</w>
lead er</w>
wh ose</w>
b ol
sm ith</w>
en s
b ility</w>
d ary</w>
1 st</w>
in t</w>
pur ch
g or
it al
re ve
k er
199 4</w>
ph ili
c us
un its</w>
199 2</w>
id a</w>
it alian</w>
buil dings</w>
pri or</w>
lim ited</w>
f ar</w>
ch i
wor d</w>
brou ght</w>
pi ec
atten ded</w>
eng ine
squ are</w>
hi t</w>
g ing</w>
v oc
d an
econom ic</w>
span ish</w>
oper ations</w>
leg isl
fl or
d ru
m ach
ch rist
ti vely</w>
sci enti
sp ir
oc cur
im pro
defe ated</w>
a .</w>
chan nel</w>
coll ection</w>
s lo
esp ec
ell ing</w>
regi onal</w>
champion ships</w>
it or</w>
pr acti
de termin
munici pality</w>
0 -
fu ture</w>
i on</w>
tu al</w>
sch ol
govern or</w>
r i</w>
ire land</w>
stand ard</w>
ex pres
inv esti
al d</w>
indu stri
espec ially</w>
ti al</w>
b al</w>
bro wn</w>
inter est</w>
high er</w>
ro man</w>
ch em
pe ter</w>
nov el</w>
gener ally</w>
ari an</w>
ic a</w>
bo w
offic er</w>
an -
run s</w>
b ac
tex as</w>
arti st</w>
ain ed</w>
go al</w>
vic tor
sour ce</w>
chris tian</w>
ver se</w>
bel ow</w>
co ver</w>
i de</w>
tr ade</w>
staf f</w>
manu fac
contr act</w>
li ved</w>
j a
joh n
relati on
un it</w>
ric ul
in te
cel e
k i</w>
signific ant</w>
i o</w>
ener gy</w>
re ad</w>
tra ditional</w>
commis sion</w>
it self</w>
is ra
inc or
ne ar
6 0</w>
mon ey</w>
ch all
bis hop</w>
dow n
gu it
or ies</w>
plac es</w>
t emp
st ly</w>
g oo
ati c
199 3</w>
d un
k o</w>
re gar
loc ation</w>
g ers</w>
afric an</w>
del i
199 1</w>
am ed</w>
stu dent</w>
br it
199 0</w>
to m</w>
ex ist
sh e
p sy
ar gu
p h</w>
in k</w>
initi ally</w>
allow ed</w>
ad es</w>
e .</w>
an th
fore ign</w>
foo d</w>
fin an
tw o-
fri end</w>
al ex
ch air
nav y</w>
cathol ic</w>
v ar
run ning</w>
cast le</w>
t ch</w>
sk y</w>
to wards</w>
k ore
acti vi
pen n
cul ture</w>
med al</w>
y m
c ru
found ation</w>
ess es</w>
k y</w>
ex am
in come</w>
h ic
f all</w>
ter y</w>
compan ies</w>
en ed</w>
parliam ent</w>
4 .
2 5
represent ed</w>
b ill</w>
for ced</w>
p ical</w>
comm and</w>
u t
pl ant</w>
pl an</w>
sou th
clo sed</w>
k m</w>
fam ous</w>
d .</w>
h and</w>
blu e</w>
comple te</w>
ha pp
te en</w>
commis si
ap plic
se x
1 –
al ed</w>
u g
b es</w>
ann ual</w>
ra y</w>
qu es
t est</w>
m es
libr ary</w>
w it
par is</w>
m ass
assem bly</w>
wh om</w>
d ly</w>
proper ty</w>
ad s</w>
g ate</w>
l es
sp ent</w>
se at</w>
n ature</w>
me ans</w>
num erous</w>
al and</w>
di vi
commer cial</w>
t on
pre par
or din
air port</w>
ju d
so vi
requ ired</w>
new sp
earli er</w>
secur ity</w>
manag er</w>
h ur
arti sts</w>
open ing</w>
fin d</w>
s on
f y</w>
lor d</w>
no ted</w>
ric hard</w>
newsp ap
st ance</w>
th y</w>
individu al</w>
or ing</w>
moun tain</w>
b in
high way</w>
k a
2 –
leng th</w>
pu s</w>
s ound</w>
ol der</w>
mid -
pers on
bu s</w>
associ ated</w>
6 5</w>
serv ing</w>
laun ched</w>
tri c</w>
ad ditional</w>
en ing</w>
cl ar
ay ing</w>
i b
cap tain</w>
po st
ali zed</w>
cer tain</w>
e an</w>
s in
fin ally</w>
vir gin
practi ce</w>
h i</w>
anc ed</w>
fi g
por ary</w>
appear ance</w>
198 9</w>
er -
ch ing</w>
acc ess</w>
st adi
e f</w>
o ds</w>
r ad
sovi et</w>
sug ge
fer red</w>
mus ical</w>
b c</w>
p ast</w>
r ate</w>
a vi
incor por
am oun
de v
kno w
li e</w>
cele br
c are</w>
ad op
on to</w>
execu tive</w>
e as
reg im
k el
w ish</w>
vic tory</w>
chic ago</w>
re port</w>
form ing</w>
the ast</w>
i ous</w>
ti z
sk i</w>
auth or</w>
syl van
n d</w>
d an</w>
b un
j ac
claim ed</w>
di es</w>
conta ins</w>
bet ter</w>
chang es</w>
sol di
ent ered</w>
po se</w>
issu es</w>
c in
k y
t am
t in
mar ine</w>
198 8</w>
fac t</w>
b ig
ve hic
cre d
ta ins</w>
tra vel
jour n
18 3
l am
ol i
e dition</w>
w r
al ready</w>
pass ed</w>
ati s
ze aland</w>
f er</w>
diff ic
f low
gu n</w>
high est</w>
im medi
finan cial</w>
cro ss</w>
lo ss</w>
j am
sylvan ia</w>
pp ing</w>
progr ams</w>
s en</w>
is tic</w>
pers onal</w>
mar ri
b oun
go t</w>
religi ous</w>
str at
ati ves</w>
s ac
fre e
secre tary</w>
que en</w>
subsequ ently</w>
n ine</w>
sho t</w>
polic y</w>
ing u
oc cas
le ment</w>
p tion</w>
partic ul
gi ve</w>
ital y</w>
virgin ia</w>
bas ket
studi ed</w>
n at
r ural</w>
prin cip
m .</w>
at lan
mon th</w>
a c</w>
maj ority</w>
ha bit
j a</w>
eng ine</w>
ke ts</w>
p aci
3 –
p ing</w>
o gi
issu e</w>
re r</w>
oper ated</w>
trans l
re view</w>
ali z
w all</w>
au ght</w>
d ates</w>
charac ters</w>
hu man
ci an</w>
basket ball</w>
pol iti
emp ire</w>
i sts</w>
cul tural</w>
increas ed</w>
sur roun
comple x</w>
m al</w>
o p</w>
y outh</w>
k il
c ab
in str
no table</w>
6 .
e ting</w>
pr ac
mexic o</w>
administr ation</w>
h ours</w>
thou ght</w>
j uni
gran d
gr ade</w>
c lim
ter ms</w>
s elected</w>
se x</w>
activi ties</w>
histor ical</w>
angel es</w>
si r</w>
car ol
pro gre
7 .
gra ph
dec lar
5 00</w>
sel f-
nam es</w>
be coming</w>
particul arly</w>
hou ses</w>
198 7</w>
mic ro
anti -
fi gh
re p
fe ature</w>
a king</w>
mo stly</w>
ist an</w>
stadi um</w>
es tim
enti re</w>
t as
star ting</w>
and re
an e</w>
gen us</w>
sw it
g as</w>
6 –
an ci
s and
go als</w>
198 6</w>
est s</w>
ar g
reti red</w>
penn sylvania</w>
2 nd</w>
r d</w>
ho st</w>
an y
l en
star s</w>
movi e</w>
e e</w>
tur n</w>
mat ches</w>
de b
ca used</w>
8 0</w>
ver si
gu e</w>
bra z
fri ends</w>
por tra
gre ek</w>
ac tor</w>
g .</w>
ci tiz
s ity</w>
al low</w>
j ack
p lu
is lands</w>
rema ins</w>
go d</w>
ta kes</w>
m ill
on d</w>
inv est
recor ding</w>
ad el
wee k
archit ec
w ol
sc ore</w>
198 4</w>
suppor ted</w>
i ed</w>
vari ety</w>
cre ate</w>
d est</w>
d ential</w>
ach es</w>
gre at
hus band</w>
so f
de t
we ight</w>
z er
sel ves</w>
fore st</w>
ec ting</w>
20 0</w>
it ation</w>
win do
isi ons</w>
trac ks</w>
be au
me eting</w>
inte gr
con ver
resul ts</w>
a x
olymp ics</w>
sing er</w>
j .</w>
w a</w>
y u
cat eg
cap e</w>
partic ular</w>
the ory</w>
ag ricul
g all
198 5</w>
par ents</w>
fi ght</w>
si m
p ass</w>
ar ies</w>
uni ties</w>
congre ss</w>
cas es</w>
ch ester</w>
le e</w>
dest roy
it a</w>
t ol
ne ed</w>
char t</w>
col labor
serv es</w>
evi dence</w>
know le
mater ial</w>
sy m
la u
no .</w>
tion ally</w>
4 –
al a</w>
ad o</w>
198 0</w>
flor ida</w>
gi an</w>
om s</w>
li k
democr atic</w>
st ations</w>
rec ent</w>
proc e
2 -
1 -
f arm
sho wn</w>
si ster</w>
can c
pro min
p as
do or</w>
b it</w>
av en
charac ter
l ati
me chan
ever y
par ish</w>
cu st
over all</w>
r on
ma r</w>
tra in</w>
spe ed</w>
town ship</w>
dec ision</w>
de ta
3 0
o is</w>
dis cus
di e</w>
refer red</w>
ir ish</w>
ell a</w>
paci fic</w>
f as
f la
lar ger</w>
relation ship</w>
sp i
al ways</w>
cont em
o v
bo m
ci ties</w>
wee ks</w>
de al</w>
leav ing</w>
ne u
minu tes</w>
pr ince</w>
der i
u pper</w>
in ci
z z
ra ised</w>
sp r
ex plo
chair man</w>
sep h</w>
5 .
con clu
wal es</w>
con v
jo seph</w>
4 5</w>
le v
po ten
ad ap
p al</w>
individu als</w>
u t</w>
bu t
tur ned</w>
y ard</w>
sp ring</w>
me dic
wh it
f al
cam p</w>
dis h</w>
o ts</w>
them selves</w>
com posed</w>
mb ia</w>
re public
tu ally</w>
appear s</w>
speci fic</w>
8 .
phi c</w>
stat us</w>
organ is
jus tice</w>
nati ons</w>
ear ned</w>
ac tions</w>
bur y</w>
wor th</w>
il lu
f c</w>
temp le</w>
hear t</w>
s av
198 3</w>
is on</w>
af ter
d one</w>
l -
ak er</w>
id es</w>
4 -
con ven
present ed</w>
fa iled</w>
ur ban</w>
m ale</w>
c ric
d u</w>
p -
dr .</w>
sur face</w>
ear th</w>
provi des</w>
hel ped</w>
ru g
increas e</w>
r ich</w>
belie ved</w>
ing ly</w>
fel low</w>
long er</w>
off ered</w>
elec tions</w>
tro ops</w>
al ism</w>
construc ted</w>
198 2</w>
co st</w>
a ur
experi ence</w>
f lu
ell ed</w>
al e
win ter</w>
seas ons</w>
er ship</w>
main ly</w>
sain t</w>
pri me</w>
ch er</w>
p ati
achi e
o '
ne arly</w>
mo del
t i</w>
mo ving</w>
en ding</w>
a e
sing les</w>
consi sts</w>
engine ering</w>
z i
eff ect</w>
juni or</w>
g en</w>
ar ran
there fore</w>
7 0</w>
car ri
wor kers</w>
y n
p ak
compe ted</w>
b ar</w>
bo y</w>
bas e
cre ek</w>
f ish</w>
s s
co lo
broad cast</w>
separ ate</w>
phil os
sub ject</w>
anci ent</w>
ro ll
o me
s oun
produc er</w>
b ad
dist inc
as p
ke ep
wor ds</w>
i ii</w>
o il</w>
197 9</w>
bl ack
wat er
marri age</w>
br on
on e-
fif th</w>
9 0</w>
je wish</w>
car ried</w>
mil es</w>
russi a</w>
bo x</w>
lou is</w>
194 5</w>
197 2</w>
cri min
sp ain</w>
lik ely</w>
produc ts</w>
s ons</w>
rema ining</w>
issu ed</w>
mar tin</w>
tem per
pol y
ster ed</w>
head quar
ur ed</w>
tre ss</w>
sil ver</w>
f it
se e
r is</w>
m m</w>
de dic
heav y</w>
ed y</w>
nec ess
se ts</w>
pol and</w>
k al
cl in
assi stant</w>
mal es</w>
9 .
proble ms</w>
base ball</w>
bran ch</w>
tr a</w>
ad vis
5 –
gre ater</w>
ric k</w>
gro w
sur ve
gro un
5 0
exper im
ec tions</w>
ap ol
th es
as ia</w>
wor l
bor der</w>
brit ain</w>
clo s
posi tions</w>
en ough</w>
champi on</w>
gi a</w>
ad ed</w>
equ i
vo te</w>
near by</w>
acqu ired</w>
colu m
u n</w>
pl ans</w>
n uc
197 6</w>
id ae</w>
lat ter</w>
j i</w>
mean ing</w>
ul a</w>
pri mar
18 0
197 4</w>
198 1</w>
3 -
broad cast
y et</w>
s ent
em per
ac her</w>
tow er</w>
attemp t</w>
respon sible</w>
compu ter</w>
fem ales</w>
198 0s</w>
divi ded</w>
ter ed</w>
dis covered</w>
consi der
fl ic
ho c
li ves</w>
administr ative</w>
l led</w>
bl es</w>
tic ally</w>
pass eng
franc is
t ari
bro thers</w>
pro posed</w>
com pos
3 rd</w>
mi ght</w>
s as</w>
min or</w>
co de</w>
house holds</w>
ac ts</w>
196 8</w>
ei gh
and a</w>
thre e-
influ ence</w>
197 8</w>
t old</w>
197 0</w>
gradu ated</w>
th or
succ e
st a</w>
fin als</w>
ex pla
multi ple</w>
wan ted</w>
manag ed</w>
an der</w>
ho tel</w>
197 5</w>
promo ted</w>
qu ick
territ ory</w>
pre -
c all</w>
regim ent</w>
whe ther</w>
artic le</w>
dr ama</w>
g il
o ta</w>
squ ad
e .
ag ing</w>
k -
ac ting</w>
duc tion</w>
ide a</w>
bri g
tran si
ed ward</w>
in t
direc t</w>
stor ies</w>
cu t</w>
har d
sol ution</w>
dig ital</w>
j i
inst all
da ily</w>
auth ority</w>
ma kes</w>
cor ps</w>
bre ak</w>
char ge</w>
medi an</w>
h an</w>
a be
gradu ate</w>
albu ms</w>
s at
ar t
lea ve</w>
cam pus</w>
st and</w>
desig n
respon se</w>
ty pes</w>
bo ys</w>
mus ici
con ditions</w>
as ked</w>
k at
is s</w>
neigh bor
at trac
cle ar</w>
ca use</w>
7 –
appe ar</w>
jour nal</w>
ac e
il ing</w>
f light</w>
d ney</w>
ann a</w>
in side</w>
3 5</w>
hoc key</w>
organiz ed</w>
la bel</w>
primar ily</w>
may or</w>
resi dents</w>
amoun t</w>
re pe
rac es</w>
pri ze</w>
num bers</w>
197 3</w>
197 0s</w>
le vels</w>
politi cian</w>
19 th</w>
hou sing</w>
scen e</w>
wh ole</w>
man n</w>
defen se</w>
val ue</w>
au stri
y p
tel e
ru le</w>
197 7</w>
el ements</w>
d am</w>
n on
mit ted</w>
arri ved</w>
as ian</w>
we st
occas i
du tch</w>
carol ina</w>
re fl
k ir
exten ded</w>
0 –
n it
s mo
ys is</w>
b ell</w>
ha w
pro duce</w>
2 ,
newspap er</w>
rec ently</w>
ex tre
dem on
ben ef
offic ers</w>
de ad</w>
gre en
gir l</w>
s ses</w>
co m</w>
r o</w>
197 1</w>
sto p</w>
n as
b ill
p ay
qu ality</w>
. c.</w>
j es
s ad
por tu
for ts</w>
direc tly</w>
li t</w>
po or</w>
emper or</w>
ex clu
y el
func tion</w>
c amer
con fir
psy ch
comman der</w>
al li
er ly</w>
ol a</w>
po ol</w>
l ec
agre ement</w>
tra ff
196 9</w>
grow th</w>
air ed</w>
em e
us a</w>
gir ls</w>
offici ally</w>
enter tain
bo t
c tion</w>
secon dary</w>
sec u
ro b
er o
n is</w>
che str
tw ent
ministr y</w>
al le
ner ship</w>
est ate</w>
lati n</w>
or chestr
ur ies</w>
r ated</w>
pos si
ad dre
si a</w>
phys ical</w>
ar a</w>
pro jects</w>
corpor ation</w>
high ly</w>
nuc le
phili pp
pap er</w>
s aying</w>
mon d</w>
tech ni
we ap
m it</w>
lic en
pic ally</w>
ho t</w>
immedi ately</w>
4 th</w>
soldi ers</w>
ul ty</w>
shor tly</w>
car s</w>
scot land</w>
a b</w>
stre am</w>
c um
gi ving</w>
w an</w>
pe ace</w>
gu ard</w>
dar k</w>
academ ic</w>
w er</w>
bor ough</w>
j ack</w>
cl assi
196 7</w>
appear ances</w>
d d
cap ac
wor k
glo bal</w>
contem porary</w>
sig n
z o
tit led</w>
mic hi
on line</w>
occu p
o hi
de pu
rug by</w>
re stor
ag u
gen ce</w>
j ones</w>
p a</w>
ed itor</w>
al i</w>
form erly</w>
ty pically</w>
pow er
foot b
er e
l ack</w>
mil e</w>
ta x
buil d</w>
6 4</w>
ro c
m enti
demon str
es h</w>
per cent</w>
vol un
republic an</w>
be ach</w>
gre w</w>
am e
op port
cir cu
c av
me tal</w>
mar i
ish ment</w>
trans ferred</w>
di a</w>
let ter</w>
promin ent</w>
5 -
y our</w>
p in
quick ly</w>
w is
contin ue</w>
hun g
bo ston</w>
kan sas</w>
ti l
dist ance</w>
vo ice</w>
o id</w>
f ying</w>
be ha
high -
ev ol
cro w
st ore</w>
199 0s</w>
tr ue</w>
is ing</w>
instr um
en em
sm aller</w>
lo t</w>
d '
f ted</w>
ing ham</w>
d av
ig n
to m
196 0s</w>
f l</w>
ohi o</w>
win ner</w>
mo d
196 4</w>
sen ate</w>
w rest
comm only</w>
7 5</w>
ren amed</w>
th r
k m
for ward</w>
liter ature</w>
con flic
am i</w>
an try</w>
al one</w>
j or
bur gh</w>
inten ded</w>
su n</w>
d al
industri al</w>
incorpor ated</w>
sit es</w>
activ ity</w>
m ess
ti ves</w>
posi tive</w>
17 9
or dered</w>
mon t
i ans</w>
bas is</w>
20 th</w>
it es</w>
elec tric</w>
th ro
sett lement</w>
ma xim
francis co</w>
ke ep</w>
ar ms</w>
h it
ó n</w>
pre v
re serve</w>
michi gan</w>
initi al</w>
ch os
particip ated</w>
ro r</w>
jer sey</w>
nav al</w>
cover s</w>
prob ably</w>
clu bs</w>
n es</w>
p .</w>
design ated</w>
pur su
b .</w>
reve aled</w>
ent h</w>
candi date</w>
sti c</w>
to -
a p</w>
sof tw
s ell</w>
st ren
moun t</w>
j az
sum ed</w>
v ision</w>
in i</w>
web site</w>
al ing</w>
ju dge</w>
al ong
ogra phy</w>
aven ue</w>
eff ects</w>
f ou
dri ve</w>
tran sport</w>
oper ating</w>
treat ment</w>
per man
t ab
ci es</w>
her it
gu ar
s ay</w>
dedic ated</w>
196 5</w>
su pre
ess ed</w>
al o
pro mis
cre w</w>
p y
ol ogi
foun der</w>
po p</w>
4 4</w>
exhi bi
plan ned</w>
uk ra
in tel
ogra ph
i x</w>
ph one</w>
follow s</w>
well -
st ro
bb c</w>
el d</w>
mo b
hi p</w>
far m</w>
isra el</w>
196 6</w>
foc us</w>
ori ties</w>
di tionally</w>
jo in</w>
fiel ds</w>
piec e</w>
i .
softw are</w>
lar g
k ings</w>
am m
ar ab
bel ong
an i</w>
ro se</w>
t ree</w>
me et</w>
fle et</w>
philos oph
oper a</w>
mus li
jo b</w>
sc ul
er al</w>
sig n</w>
pos s
v .</w>
m atic</w>
along side</w>
conduc ted</w>
capac ity</w>
al ty</w>
w ings</w>
mis s
l ac
produc t</w>
fac ilities</w>
willi ams</w>
194 4</w>
sp ar
exp ected</w>
menti oned</w>
pr inc
re ly</w>
john son</w>
beha vi
stren g
pat ter
colu mbia</w>
el ev
featur ing</w>
ste in</w>
ste ph
pris on</w>
m ass</w>
lead ers</w>
ta x</w>
entertain ment</w>
loc k</w>
be y
ac com
te acher</w>
tran sm
ag ency</w>
sc ale</w>
intel li
fir m</w>
196 0</w>
e ding</w>
adv anced</w>
re moved</w>
f ru
re n</w>
off ers</w>
aff airs</w>
re d
3 2</w>
mem orial</w>
met res</w>
mix ed</w>
z one</w>
rul es</w>
p el
ne eded</w>
comb ined</w>
re ach</w>
e ase</w>
agre ed</w>
footb aller</w>
ali sts</w>
est ed</w>
w ise</w>
direc tion</w>
ef forts</w>
rac ing</w>
d ani
purch ased</w>
squad ron</w>
scot tish</w>
hy dro
lead ership</w>
el iz
6 -
knowle dge</w>
se vent
l un
in struc
li eu
b ab
j an</w>
scienti fic</w>
regi ster</w>
s le
ur a</w>
flo or</w>
dra w</w>
figh ting</w>
i als</w>
sup er</w>
f air
batt ali
kno w</w>
mar ked</w>
du ke</w>
langu ages</w>
wid ely</w>
destroy ed</w>
as signed</w>
se l</w>
b o</w>
ex t
n y
ma them
blo od</w>
no w
on er</w>
y ards</w>
equ ip
ex cept</w>
tion ary</w>
ir an</w>
x i
year -
tran spor
bloc k</w>
fir st-
ti s</w>
le ment
atten tion</w>
poten tial</w>
s in</w>
inf antry</w>
st a
lieu ten
ne g
ex change</w>
re plac
leav es</w>
read ing</w>
im per
ap par
bo at</w>
pa id</w>
dou ble</w>
tri al</w>
meth od</w>
ir on</w>
me tro
alex ander</w>
fig ure</w>
ar re
dr um
mor ning</w>
l i</w>
defe at</w>
ann e</w>
equip ment</w>
ast er</w>
larg ely</w>
g ained</w>
gro wing</w>
cri tical</w>
mal ay
headquar ters</w>
com edy</w>
stoc k</w>
anal ysis</w>
aff ili
geor gia</w>
ac ci
al u
long -
guit ar</w>
m as</w>
comm unities</w>
den sity</w>
compar ed</w>
adop ted</w>
ge ts</w>
sh er
gener ation</w>
environ ment</w>
in de
t ac
ac tually</w>
di c</w>
f ell</w>
sol o</w>
ap e</w>
a ks</w>
con cept</w>
por tion</w>
o v</w>
prot ection</w>
8 –
pres sure</w>
cer em
form at</w>
ro me</w>
b le
ve -
l o</w>
rail road</w>
estim ated</w>
ar c
in sp
episo des</w>
abe th</w>
s ab
no te</w>
th ings</w>
an tly</w>
pol ish</w>
b es
k es
cer ti
ris e</w>
p le
pres sion</w>
cap tured</w>
fran k</w>
t led</w>
techn ical</w>
z y
a qu
mo di
im mig
ad ver
mob ile</w>
accep ted</w>
appro ach</w>
hor se</w>
vol u
lin e
me tr
vo ted</w>
ac ted</w>
ad ing</w>
go es</w>
c ell</w>
196 3</w>
us h
el im
re views</w>
1 1
it an</w>
tra vel</w>
sco tt</w>
identi fied</w>
gu il
f a</w>
re ment</w>
w y
j ected</w>
196 2</w>
ill in
recogni zed</w>
princip al</w>
cri tics</w>
pi ed</w>
declar ed</w>
bo x
distribu tion</w>
si an</w>
ni e</w>
rel ations</w>
ow ner</w>
fe et</w>
app lied</w>
gol den</w>
ho sted</w>
jo int</w>
ab and
ran ked</w>
g le</w>
woo d
plan ts</w>
col or</w>
tex t</w>
situ ated</w>
194 2</w>
dist ingu
iz ation</w>
respec tively</w>
p ay</w>
con sul
g in</w>
proble m</w>
enc our
bir th</w>
ro les</w>
col or
5 th</w>
cor respon
po e
s li
supre me</w>
ra il</w>
sy dney</w>
p ag
au t
di an</w>
4 0
194 8</w>
f ast</w>
plat form</w>
tit les</w>
we a
sal es</w>
diffic ult</w>
n ig
feder ation</w>
u te</w>
d h
anc y</w>
un ity</w>
ac tress</w>
illin ois</w>
conn ected</w>
organiz ations</w>
as sic</w>
model s</w>
inter pre
ar th
on ia</w>
it ors</w>
sh el
t .</w>
sc oring</w>
dr ag
suff ered</w>
victor ia</w>
ish es</w>
fi x
nomin ated</w>
champi ons</w>
continu es</w>
ar ing</w>
commissi oned</w>
pur pose</w>
h ong</w>
d ated</w>
j ur
ing er</w>
lo ok</w>
indepen dence</w>
t aught</w>
rema in</w>
premi er</w>
con centr
accoun t</w>
a .
h at
f ill
r ation</w>
p age</w>
g ul
m p</w>
doc tor</w>
lo y
defin ed</w>
an n</w>
fel t</w>
la ws</w>
ro ck
traff ic</w>
ali ties</w>
ma d</w>
h our</w>
occur red</w>
arm ed</w>
ber lin</w>
lad y</w>
par ties</w>
g n
194 0</w>
moun tains</w>
v on</w>
th u
ph as
chall eng
the ater</w>
mem ber
sex ual</w>
ric h
saf ety</w>
four -
m r.</w>
sp read</w>
194 1</w>
jun ction</w>
de pic
pres ence</w>
c ore</w>
org an</w>
de ep</w>
re y</w>
concer t</w>
r at
ti tu
ar ity</w>
resul ted</w>
tur ing</w>
ru p
scul p
arg ent
kin d</w>
olymp ic</w>
expan ded</w>
ren ce</w>
bour ne</w>
3 3</w>
fol k</w>
196 1</w>
re sc
sh are</w>
dra ft</w>
9 –
nor th-
allow s</w>
be comes</w>
house hold</w>
in ian</w>
ir a
c eme
cric ket</w>
str ong
si des</w>
cont ent</w>
vi et
depu ty</w>
mach ine</w>
bu re
t ells</w>
tro pical</w>
off er</w>
con trac
t te</w>
t rou
distric ts</w>
coun ter
ta il</w>
tw el
atlan tic</w>
uni que</w>
p ath
provi ding</w>
ici ent</w>
qu es</w>
w .</w>
n az
ra p
195 6</w>
t ely</w>
us et
194 6</w>
emplo ye
fi gu
te aching</w>
architec ture</w>
bi o
b ang
insp ired</w>
cre ation</w>
po st-
194 3</w>
re sources</w>
ri c</w>
claim s</w>
an ge</w>
f ine</w>
ach uset
liber al</w>
dam age</w>
ful l-
s ays</w>
h em
tw ice</w>
le gen
k ong</w>
gar den</w>
vie wed</w>
some thing</w>
comp ani
str ug
lo sing</w>
mass achuset
hon or</w>
ar i</w>
li ghts</w>
f alls</w>
tion ed</w>
jaz z</w>
y ers</w>
gran t</w>
windo ws</w>
d ale</w>
youn ger</w>
simp ly</w>
ex pl
c d</w>
s is</w>
el e
si vely</w>
f m</w>
b on</w>
ri t</w>
6 th</w>
s sed</w>
lear ning</w>
bur ied</w>
worl d
we alth</w>
volu me</w>
h ag
massachuset ts</w>
b i</w>
no tes</w>
class es</w>
pr ice</w>
fac ility</w>
im age</w>
ke pt</w>
bas ic</w>
gi ves</w>
sci ences</w>
d v
sem i-
l ined</w>
do mes
fran k
off en
n ings</w>
193 9</w>
3 6</w>
sho p</w>
k ol
exist ing</w>
en -
h .</w>
n am</w>
lo g
vo tes</w>
k ins</w>
w ill
ch e</w>
ci a</w>
repor ts</w>
f is
di plo
e z
jo e</w>
surroun ding</w>
pain ting</w>
re duced</w>
k in</w>
revol ution</w>
for c
min im
lan e</w>
w o
per forming</w>
dre w</w>
op position</w>
195 0</w>
retur ning</w>
195 8</w>
la y</w>
ro ads</w>
comp on
represent atives</w>
necess ary</w>
fri end
r ati
ju li
resul ting</w>
y an</w>
b ad</w>
pu r</w>
u ment</w>
195 9</w>
devel op</w>
coun t</w>
j r.</w>
con te
gran ted</w>
re comm
mon t</w>
educ ational</w>
no t
speci fic
tra ins</w>
performan ces</w>
194 7</w>
san ta</w>
man i
ran k</w>
sp lit</w>
bi an</w>
bey ond</w>
cy cl
i ds</w>
imp act</w>
ex pe
herit age</w>
n el
lab our</w>
pak istan</w>
prac tic
new ly</w>
7 th</w>
six th</w>
cou ple</w>
investi g
k r
tra dition</w>
s .
f red</w>
poli tics</w>
n ick
attac ks</w>
to p
minu te</w>
medic ine</w>
d anc
mil l</w>
fic tion</w>
recei ve</w>
regi ons</w>
tri ed</w>
ver sions</w>
en e</w>
munici pal</w>
j um
ent ry</w>
8 -
ak ed</w>
nor mal</w>
sho wed</w>
represent ative</w>
adv ant
k ur
phi a</w>
illu str
v it
eff ective</w>
7 -
b la
or ders</w>
gen e</w>
be at</w>
can not</w>
brig ade</w>
f s</w>
dis ease</w>
gen e
v in
beg ins</w>
constitu tion</w>
offici als</w>
ent er</w>
gi c</w>
po t
chris ti
as tic</w>
eliz abeth</w>
re stric
success fully</w>
si mul
l is
communic ations</w>
stor m</w>
en jo
th o
free dom</w>
on tari
re ven
sugge sted</w>
t ren
195 7</w>
s l
li fe
imp lement
et te</w>
gh t
them e</w>
re vi
ti mat
di t</w>
ed ul
u el</w>
el ess</w>
lieuten ant</w>
comple tely</w>
ro y</w>
quar ter
phil adel
ri a</w>
volun te
rest aur
y ment</w>
ch or
ic h
ef fort</w>
ag ent</w>
ontari o</w>
op pos
tur k
fin ish</w>
c z
fac ed</w>
jack son</w>
foo t</w>
writ ers</w>
occu pied</w>
h il
b en</w>
tor onto</w>
d ay
sch edul
mar sh
on ally</w>
swe dish</w>
f all
ob tained</w>
c ris
3 4</w>
confir med</w>
tr ust</w>
let ters</w>
ex pen
b ach
br ing</w>
di oc
emplo yed</w>
ne ther
bro ke</w>
de par
f ans</w>
y e</w>
ceme tery</w>
ay ed</w>
anal y
st op
iz e</w>
bre ak
achi ev
c ard</w>
chr on
chos en</w>
te ach
la p
br and</w>
mo tor
pal ace</w>
allow ing</w>
att le</w>
mathem atic
3 8</w>
fac tory</w>
f ly</w>
v ice</w>
in sur
braz il</w>
plan ning</w>
b ay
conserv ative</w>
north west</w>
inter view</w>
inter net</w>
a id</w>
195 2</w>
n ur
g on
achie ved</w>
k am
br ad
c ells</w>
sen se</w>
le w
a im
n i</w>
mater ials</w>
philadel phia</w>
pres ents</w>
s burg</w>
ob serv
l ers</w>
min e</w>
pre c
ly ric
environ mental</w>
it able</w>
kore a</w>
supp ly</w>
tor al</w>
cla im</w>
cin em
adv oc
195 5</w>
cri tic
succe eded</w>
cl assic</w>
comb at</w>
frequ ently</w>
class ical</w>
auth orities</w>
cri me</w>
er n
cust om
j en
imper ial</w>
se ats</w>
s and</w>
ho me
metro pol
pi er
figu res</w>
al leg
subsequ ent</w>
c us</w>
s atur
pat ri
f ame</w>
dec or
is es</w>
ex cep
orchestr a</w>
canc er</w>
scre en</w>
dra wn</w>
fun ding</w>
lab or</w>
re al
en ge</w>
ak a</w>
anim als</w>
s y</w>
vis it</w>
st ood</w>
arth ur</w>
ste el</w>
u d</w>
th i
mi ke</w>
sett led</w>
econom y</w>
alter native</w>
pi on
194 9</w>
relati vely</w>
star ring</w>
reas on</w>
citiz ens</w>
s k</w>
ol dest</w>
op posed</w>
gl ass</w>
k it
situ ation</w>
ir a</w>
conven tion</w>
ul timat
vill ages</w>
p ack
har v
mur der</w>
adver tis
fil e</w>
secre t</w>
ent ran
enti tled</w>
cho ice</w>
195 4</w>
sou theast</w>
audi ence</w>
b ited</w>
n an
3 ,
refer ence</w>
s or</w>
commun ist</w>
fas hi
bil lion</w>
b ing</w>
in sul
oc ean</w>
17 8
pro pos
pe ak</w>
mem ory</w>
un known</w>
simp le</w>
on ist</w>
battali on</w>
co ast
g ab
d ang
orig in</w>
195 3</w>
bron ze</w>
ris k</w>
v a
4 2</w>
bo y
un able</w>
tri bu
m o</w>
inj ury</w>
chall enge</w>
ta ining</w>
n ag
v ac
bou ght</w>
for tun
pow ers</w>
sou th-
har b
bir ds</w>
v i</w>
program me</w>
4 8</w>
ri f
s elling</w>
ro oms</w>
s i</w>
gra phy</w>
st atis
ul l</w>
dy nam
ra in</w>
b -
ec tor</w>
gu est</w>
sch em
trans fer</w>
cre ating</w>
w ant</w>
nucle ar</w>
h amp
fo x</w>
ch i</w>
se arch</w>
bri d
gall ery</w>
promo tion</w>
da e</w>
195 0s</w>
wil son</w>
perman ent</w>
in ity</w>
e ag
8 th</w>
ris on</w>
hol ding</w>
ger man
nether lands</w>
der son</w>
mar ke
en cies</w>
inv asi
ban ds</w>
we d
un like</w>
3 7</w>
vis ited</w>
fac ulty</w>
mar y
st am
ref used</w>
cred ited</w>
cor rec
fl ying</w>
con c
fa il
n in
year- old</w>
le ts</w>
ch er
appro ved</w>
arch i
su st
world wide</w>
part ner</w>
- up</w>
artic les</w>
k ill</w>
bill board</w>
el a</w>
ag gre
m ap
loo king</w>
chr is</w>
th an
ha y
liter ary</w>
yel low</w>
thre at
ed ge</w>
mis s</w>
rese arch
un g</w>
cop ies</w>
f are</w>
co ordin
se g
f und</w>
ec e</w>
legisl ative</w>
public ation</w>
m r
b ag
t an</w>
e ast
ultimat ely</w>
z es</w>
so cc
sho o
docum entary</w>
attemp ts</w>
s n
photo graph
g on</w>
cro wn</w>
sus pen
per form</w>
han ds</w>
intelli gence</w>
ph ase</w>
be at
foun ding</w>
h is
cy cle</w>
gr am
hol y</w>
fou ght</w>
ici al</w>
s au
win d</w>
quali fied</w>
b all
ta yl
exten sive</w>
clim ate</w>
195 1</w>
arre sted</w>
re fu
3 00</w>
tou ch
tre es</w>
li st
5 5</w>
tow ns</w>
ox ford</w>
dru g</w>
bo b</w>
er t</w>
h l</w>
bur n</w>
ay a</w>
power ful</w>
m i</w>
piec es</w>
ess ing</w>
191 8</w>
e. g.</w>
ne go
x -
adv ent
wh ere
sequ ence</w>
st ay</w>
suppor ting</w>
swe den</w>
sp ac
meth ods</w>
ak es</w>
alli ance</w>
ti er</w>
ta i
ri es</w>
ari z
et c.</w>
sus p
9 th</w>
att or
categ ory</w>
ch air</w>
eu r</w>
gun s</w>
on ers</w>
g -
jo ining</w>
attac ked</w>
el i</w>
se tting</w>
ligh tly</w>
kore an</w>
groun ds</w>
conflic t</w>
dr am
vic ti
presi dential</w>
enem y</w>
nor theast</w>
exhibi tion</w>
determin ed</w>
am at
squ ad</w>
andre w</w>
socc er</w>
v es
vehic les</w>
tayl or</w>
ra m</w>
applic ation</w>
d red</w>
a us
cri ti
dou b
institu tions</w>
maxim um</w>
mer ged</w>
h ills</w>
mat ter</w>
nego ti
f low</w>
i um</w>
ne eds</w>
dani el</w>
k on
rec ep
some one</w>
n on</w>
dro pped</w>
4 1</w>
americ ans</w>
us ual</w>
uni versi
cl er
pil ot</w>
pass ing</w>
bir d</w>
t ations</w>
ste ve</w>
prev ent</w>
form al</w>
193 6</w>
193 8</w>
vehic le</w>
re mo
di ag
w w
prov in
def ence</w>
car e
b ound</w>
ca the
gen cy</w>
isl am
agricul tural</w>
de an</w>
an ian</w>
expan sion</w>
4 00</w>
n -
g y
is s
n ic</w>
4 7</w>
provin cial</w>
inc .</w>
attemp ted</w>
th in
c ad
quar ter</w>
ty -
poe try</w>
inter ior</w>
po pe</w>
i ties</w>
n ast
o ther
wr ite</w>
do ing</w>
pro to
p ad
ex ter
hol der</w>
i us</w>
bas s</w>
increas ing</w>
p ast
week ly</w>
don ald</w>
tre as
j im</w>
stand ards</w>
an ia</w>
dr al</w>
min d</w>
olog ist</w>
exam ples</w>
l ess
laun ch</w>
ro ll</w>
exist ence</w>
j ar
i. e.</w>
elim in
recei ving</w>
philosoph y</w>
ad ult</w>
m ou
ke y
t ar</w>
chem ical</w>
fa ir</w>
contro lled</w>
conta ining</w>
s r</w>
dis pu
b ap
great est</w>
consi sted</w>
respon si
an ni
ch en</w>
sur name</w>
a o</w>
a f</w>
3 9</w>
bro w
off ices</w>
192 0</w>
ba h
wil d
proper ties</w>
influ enced</w>
sec tor</w>
0 0
anim al</w>
sor t</w>
f on
inter nal</w>
b ia</w>
bow l</w>
studi os</w>
deri ved</w>
religi on</w>
rec ru
m on</w>
requ ire
shar ed</w>
dav is</w>
ri d
bure au</w>
w alls</w>
s u</w>
j im
r hy
deli ver
il a</w>
m outh</w>
br un
ti li
o es</w>
foc used</w>
fi re
can al</w>
al an</w>
v isi
sh ore</w>
scri p
specific ally</w>
sun day</w>
km ²</w>
treat y</w>
ar m</w>
j as
w oun
struc tures</w>
sw im
conver ted</w>
cont act</w>
j on
us ers</w>
ve ter
ob j
ad mir
nor we
loc ations</w>
ph y
le gi
ex press</w>
p leas
cover ing</w>
develop ing</w>
ri an</w>
wil d</w>
franc is</w>
metropol itan</w>
educ ated</w>
communic ation</w>
in habit
broadcast ing</w>
domes tic</w>
t ings</w>
u -
mar ia</w>
w all
me ant</w>
a str
establ ishment</w>
produc ing</w>
k ni
é e</w>
4 9</w>
schedul ed</w>
ant on
f ab
ban ks</w>
reti rement</w>
archit ect</w>
193 7</w>
re bel
south west</w>
re present</w>
beg in</w>
ll ery</w>
w ers</w>
lyric s</w>
att ribu
t ment</w>
car r
hear d</w>
s elec
th ink</w>
low -
f ts</w>
de plo
b and
9 5</w>
vi c</w>
ref ers</w>
ques tion</w>
conn ection</w>
in don
ro ber
func tions</w>
indon es
plu s</w>
fun ds</w>
reas ons</w>
dis ci
represent ing</w>
head ed</w>
char ged</w>
contribu ted</w>
t us</w>
em phas
con dition</w>
9 -
s lightly</w>
d ry</w>
j o</w>
weap ons</w>
fin ds</w>
belie ve</w>
mis sed</w>
so ft</w>
es cape</w>
lin k</w>
c -
in ary</w>
spe ech</w>
l as</w>
p m</w>
op pon
colon el</w>
dis co
aliz ation</w>
ill a</w>
comp ris
eng in
bri ef
p air</w>
bl ed</w>
4 6</w>
crimin al</w>
l .</w>
con f
bro ken</w>
de bu
t z</w>
per f
kh an</w>
f an</w>
identi ty</w>
progre s
compos er</w>
g al</w>
bach el
em o
com o
4 3</w>
ken ne
eg o</w>
wh y</w>
cont est</w>
circu it</w>
191 9</w>
nast y</w>
val ent</w>
electr onic</w>
regar ding</w>
que ens
d ying</w>
publ ishing</w>
ro s
qu ite</w>
auth or
multi -
bo dies</w>
aw are</w>
no thing</w>
cent uries</w>
ch en
e z</w>
mo sco
min nes
conta ined</w>
r are</w>
193 0</w>
inv ited</w>
191 7</w>
pr ise</w>
w ic
chap el</w>
mel bourne</w>
chur ches</w>
scen es</w>
5 2</w>
pro ved</w>
ex er
ca a</w>
plan e</w>
occur s</w>
dem an
arch ae
cor ner</w>
ma x</w>
pres sed</w>
strat e
6 6</w>
aband oned</w>
tra ined</w>
engin eer</w>
z ing</w>
constitu ency</w>
de -
v o</w>
program ming</w>
r ho
norwe gian</w>
steph en</w>
tar get</w>
cathe dral</w>
d al</w>
bu ff
lew is</w>
a er
ab ol
pre dic
athle tic</w>
193 5</w>
8 5</w>
p ac
te enth</w>
ser ious</w>
musli m</w>
rou gh
mo tion</w>
con secu
ci vil
he ight</w>
d at
thes is</w>
sub si
l as
ly wood</w>
investi gation</w>
essi ons</w>
c it
minnes ota</w>
spe aking</w>
em an</w>
er ia</w>
in et</w>
institu tion</w>
soun d
prof it</w>
il le</w>
z er</w>
car ry</w>
neg ative</w>
twel ve</w>
di men
i res</w>
bri an</w>
h as
mexic an</w>
pass es</w>
sour i</w>
bud get</w>
fran ch
w ins</w>
la id</w>
re aching</w>
do g</w>
con sum
fu el</w>
oper ate</w>
ch ec
dis play</w>
dioc ese</w>
mis souri</w>
fin ishing</w>
to ward</w>
entran ce</w>
y an
in nov
k or
f .</w>
con qu
ty pical</w>
temper ature</w>
nor way</w>
pi ano</w>
her self</w>
portu gu
ey e</w>
po et</w>
lo como
re in
he at</w>
ha z
hun dred</w>
w ay
stra ight</w>
cour ses</w>
com ic</w>
regi stered</w>
tr ying</w>
ber n
organis ation</w>
ex ist</w>
g es
wa ve</w>
pati ents</w>
sha pe</w>
viol ence</w>
wis con
wea ther</w>
re ally</w>
s ale</w>
surve y</w>
d river</w>
sou ght</w>
main tained</w>
la m</w>
d p</w>
ab ilities</w>
op in
man chester</w>
cam bridge</w>
h its</w>
tim ate</w>
n fl</w>
occu r</w>
heav ily</w>
mosco w</w>
k ent
our ed</w>
re ar</w>
san ds</w>
lo ad</w>
journ alist</w>
p ir
ell er</w>
17 7
be c</w>
5 1</w>
passeng er</w>
fre der
191 4</w>
t ony</w>
f ant
sa x
spo t</w>
193 3</w>
ha ps</w>
je ws</w>
har ry</w>
christ mas</w>
expres sed</w>
y pt</w>
indi ana</w>
defin i
colon ial</w>
ell o</w>
l an</w>
th- century</w>
cor n
ho pe</w>
applic ations</w>
su d
dy nasty</w>
it er
teach ers</w>
lin col
fail ure</w>
v in</w>
consi st
k id
ro t
opport unity</w>
sec tions</w>
u a</w>
inhabit ants</w>
arti llery</w>
s na
rus h
sig nal</w>
us er</w>
fav or
ast ro
bl in</w>
192 9</w>
dec ades</w>
i g</w>
á n</w>
recogni tion</w>
cham ber</w>
fol low</w>
wrest ling</w>
adv ance</w>
ide as</w>
appro pri
ten nes
be y</w>
consecu tive</w>
candi dates</w>
dv d</w>
comm on
bachel or</w>
mo tor</w>
re form</w>
equ al</w>
prot ect</w>
per haps</w>
ro of</w>
vis ual</w>
pos es</w>
ing ing</w>
call s</w>
regar ded</w>
resi dence</w>
establ ish</w>
tur key</w>
invest ment</w>
ear l</w>
ge tting</w>
l t
v as
ho mes</w>
mar ks</w>
sk ills</w>
s election</w>
193 4</w>
18 th</w>
por ts</w>
mill er</w>
on ing</w>
th a</w>
resi stance</w>
ri dge</w>
co al</w>
sto res</w>
in si
at e
l ag
r ating</w>
con stan
land sc
import ance</w>
cerem ony</w>
revol u
re pu
ly n
possi bly</w>
ten nis</w>
il ian</w>
employe es</w>
n ap
- based</w>
t ant</w>
transpor tation</w>
po ver
fac tor</w>
eng aged</w>
t ton</w>
invasi on</w>
ul ts</w>
queens land</w>
192 8</w>
g ain</w>
in aug
sa ve</w>
uc k</w>
fashi on</w>
stan ds</w>
promo te</w>
hon or
as ka</w>
head s</w>
tennes see</w>
sub stan
star ts</w>
s ist</w>
philipp ines</w>
s car
st able</w>
pat rick</w>
portugu ese</w>
hal f-
s ri</w>
su it</w>
co ld</w>
qu i
u de</w>
viet nam</w>
av oid</w>
w right</w>
h ired</w>
s ession</w>
ph en
5 4</w>
pr o</w>
prote in</w>
enti rely</w>
impro ved</w>
val u
is tics</w>
al bert</w>
tra il</w>
clos ely</w>
intro duction</w>
i v</w>
prin t</w>
distingu ished</w>
le y
turk ish</w>
sy mp
val ues</w>
6 2</w>
pic ture</w>
vers ary</w>
down town</w>
ch oo
w ag
n caa</w>
install ed</w>
me ters</w>
d ent
sing ing</w>
ha r</w>
tal k</w>
histor ian</w>
kill ing</w>
ti e</w>
re serv
del eg
color ado</w>
al p
de p
inci dent</w>
con sol
min ing</w>
attor ney</w>
consi sting</w>
con cep
not ably</w>
ch ain</w>
har mon
s am</w>
n or</w>
aff ected</w>
lu c
al y
ti le</w>
person nel</w>
i j
4 ,
s op
agricul ture</w>
stat ement</w>
ev al</w>
an sw
stre ets</w>
streng th</w>
ar ia</w>
sevent h</w>
mary land</w>
coll ected</w>
part nership</w>
y st
ow a</w>
criti ci
193 2</w>
exten sion</w>
st ating</w>
sh ad
in er</w>
c s</w>
du ty</w>
disci pl
human s</w>
con vic
impro ve</w>
ore gon</w>
wal ter</w>
chil d
en coun
op her</w>
emplo yment</w>
em ed</w>
y l</w>
us e
ac cur
rul ed</w>
si on
fe el
mi x</w>
ã o</w>
spi rit</w>
ham il
pe ter
6 3</w>
192 4</w>
gar den
t ag
pi d</w>
re signed</w>
tas k</w>
distribu ted</w>
g ain
im ag
cre dit</w>
ev ening</w>
el em
li ons</w>
neighbor hood</w>
universi ties</w>
exc ell
cre te</w>
mo th</w>
or a</w>
argu ed</w>
d ul
sub ur
bo ar
5 6</w>
conn ec
g au
com position</w>
eng ines</w>
he al
b its</w>
ste p</w>
eff ec
compe te</w>
secon ds</w>
div isions</w>
in ner</w>
ap pre
exer c
b ach</w>
c au
p ath</w>
ar ena</w>
ca using</w>
w on
sing ap
9 9</w>
ar ily</w>
6 7</w>
star red</w>
gra ph</w>
ob served</w>
produc tions</w>
comb ination</w>
ot to
192 2</w>
im prov
n ad
sat ell
de ep
we b</w>
d c</w>
e du
ad ditionally</w>
wiscon sin</w>
ra bb
e th</w>
al ab
advant age</w>
regul arly</w>
5 3</w>
singap ore</w>
6 1</w>
spon s
eas ily</w>
st an</w>
fla g</w>
te dly</w>
descri bes</w>
tr um
192 7</w>
me an</w>
rac ial</w>
sha ped</w>
swit zer
sol ved</w>
193 1</w>
extre m
nor m
ac tors</w>
fr ame</w>
and -
6 0
bus h</w>
st ages</w>
b ak
sw iss</w>
g ur
arran g
and y</w>
er ies</w>
y ou
ca uses</w>
switzer land</w>
shi p
fill ed</w>
co sts</w>
chap ter</w>
se ems</w>
a head</w>
pain tings</w>
back ground</w>
ch ance</w>
musici ans</w>
ma h
pain ted</w>
ow ners</w>
r ag
i v
voc als</w>
g one</w>
brief ly</w>
ob jects</w>
5 8</w>
eg ypt</w>
ariz ona</w>
mo on</w>
or tho
ho ward</w>
my ster
wat ers</w>
lo an</w>
bot tom</w>
en ni
191 2</w>
uc ky</w>
a j
re ality</w>
ev a</w>
t ap
call ing</w>
addre ss</w>
car din
arm en
anni versary</w>
a w</w>
6 8</w>
stri ke</w>
ad jac
7 2</w>
techni ques</w>
a ult</w>
chr ist</w>
r ice</w>
lead s</w>
ro w
ga ther
wal k</w>
aw a</w>
plo t</w>
li qu
r um
beau ti
e ve</w>
bel i
strat eg
o ch
193 0s</w>
ir ing</w>
192 1</w>
purch ase</w>
ti a</w>
is si
eth nic</w>
ri vers</w>
direc tors</w>
gra phic</w>
nation ally</w>
dem and</w>
b eng
bo s
su mp
cro ati
war s</w>
dec reas
win ners</w>
cont ex
tan e
cour ts</w>
ther ap
w are</w>
adjac ent</w>
b ic
a a</w>
sh ir
coun c
g an
b by</w>
si onal</w>
comp il
islam ic</w>
je an</w>
d it
kent ucky</w>
fa ith</w>
8 6</w>
oper ates</w>
d son</w>
dec ade</w>
is ol
ne i
fac es</w>
d ency</w>
ch ose</w>
192 5</w>
al ber
s anc
ac tual</w>
sim on</w>
p av
cris is</w>
cab inet</w>
5 7</w>
vis ed</w>
au gu
conclu ded</w>
bu ll
sy mb
survi ved</w>
ter r
192 3</w>
particip ate</w>
min a</w>
tan k</w>
191 5</w>
d d</w>
cap it
char ges</w>
ev es</w>
b au
cal cul
parliam entary</w>
goo ds</w>
ang le</w>
191 6</w>
re duce</w>
6 9</w>
m -
inter ests</w>
num ber
ri o</w>
19 10</w>
under standing</w>
tu be</w>
g ary</w>
ici an</w>
ri e</w>
qu o
the astern</w>
rec re
s atis
expe dition</w>
an ch
al co
earli est</w>
pover ty</w>
dev ice</w>
pers ons</w>
st al
d ating</w>
im ages</w>
gen der</w>
resi dential</w>
20 s</w>
ab or
mis sions</w>
192 6</w>
k az
cir cum
ch el
5 ,000</w>
g as
austri a</w>
desig ns</w>
re duc
it ems</w>
mean while</w>
common wealth</w>
sub stitu
neigh bour
r as
univers al</w>
busin esses</w>
gi e</w>
con tain</w>
form ula</w>
h o</w>
5 9</w>
t at
jes us</w>
pp i</w>
sp here</w>
spir it
or ange</w>
nic hol
out standing</w>
tu rer</w>
fin ance</w>
r ates</w>
di am
c c</w>
fi ghter</w>
coun ties</w>
progre ss</w>
s z
di ego</w>
scri pt</w>
dau gh
tri p</w>
pic tures</w>
hamil ton</w>
bo mb
ro o
pal est
ran t</w>
h ang
under ground</w>
amat eur</w>
8 8</w>
bri ef</w>
en h
ho ma</w>
inj ured</w>
pra ised</w>
degre es</w>
w av
ho sts</w>
ir s</w>
cros sing</w>
deta ils</w>
re ci
dri ving</w>
st e</w>
z en</w>
ma p</w>
be d
pe ar
i vo
s c</w>
pri est</w>
ap art</w>
mon aster
y n</w>
z o</w>
al lied</w>
public ations</w>
hou ston</w>
ma ke
ou l
coast al</w>
ar ab</w>
su peri
19 00</w>
fir ed</w>
do x</w>
gre ece</w>
schol ars</w>
oppos ite</w>
gre g
le g</w>
i sted</w>
conserv ation</w>
musici an</w>
es cap
titu de</w>
ran ts</w>
acc used</w>
cap ture</w>
hol lywood</w>
a ke</w>
moun ted</w>
att ached</w>
wat ch</w>
bro ok
bap ti
leag ues</w>
debu ted</w>
mar t
isra eli</w>
ey es</w>
experi enced</w>
tor ate</w>
emer gency</w>
bra in</w>
ad am</w>
sho ps</w>
fl at</w>
li p
disco very</w>
thou sands</w>
ak i</w>
fac tors</w>
ag a</w>
rou tes</w>
h r
offen sive</w>
gre y</w>
main tain</w>
2 7
form ally</w>
sub -
member ship</w>
tre ated</w>
er ic</w>
lan ding</w>
premi ered</w>
in spec
all en</w>
sol u
ish -
ab ad</w>
ba by</w>
re action</w>
ir o</w>
assi stance</w>
shoo ting</w>
tro phy</w>
- in-
pri x</w>
k ev
associ ate</w>
le on
appe al</w>
lou isi
atten d</w>
big gest</w>
col lap
am bas
lincol n</w>
dam aged</w>
gol d
phili p</w>
= "
ri gh
b in</w>
ri d</w>
tur ns</w>
dou gl
c m</w>
com ics</w>
commit ted</w>
h ire</w>
di ary</w>
o on</w>
prot ected</w>
bl ing</w>
elec toral</w>
n s
recor dings</w>
us s</w>
h -
passeng ers</w>
um b
ap art
termin al</w>
extrem ely</w>
h ad
na vi
ear th
n ate</w>
i er</w>
meas ures</w>
ex tra</w>
in n</w>
sen ator</w>
car ds</w>
requ est</w>
re nov
an derson</w>
ru s</w>
wh il
under -
schem e</w>
sing le-
the ore
mar kets</w>
de tro
ac compani
contr ast</w>
campa ig
. a.</w>
ambas sad
other wise</w>
den o
vic es</w>
ici de</w>
pan ic</w>
gi um</w>
clar k</w>
defen sive</w>
je ff
accompani ed</w>
y i
her o</w>
woun ded</w>
docum ents</w>
commun e</w>
flow ers</w>
pan ts</w>
um es</w>
i owa</w>
col ony</w>
re presents</w>
distinc t</w>
9 6</w>
gen ous</w>
re jected</w>
miss issi
of -
ob ject</w>
af gh
bo ats</w>
sain t-
co ali
prin ted</w>
prin ci
insur ance</w>
mis sing</w>
vi en
ha wa
u l</w>
o dy</w>
sam uel</w>
elem entary</w>
t ell</w>
i k
sho wing</w>
p ush
econom ics</w>
freder ick</w>
medi eval</w>
ra y
c aught</w>
respec t</w>
us h</w>
stoc k
win d
li ga</w>
sho w
e ch
f it</w>
br ick</w>
ic ity</w>
ma il</w>
k im</w>
pain ter</w>
requ ire</w>
8 0
ha i</w>
cir cle</w>
f at
mon tre
8 2</w>
cre ative</w>
17 th</w>
191 3</w>
191 1</w>
schol ar
pur poses</w>
i .</w>
ger y</w>
com pla
whil st</w>
ó w</w>
g ang</w>
am bi
. com</w>
anth ro
louisi ana</w>
sou l</w>
meas ure</w>
manufac turing</w>
lear ned</w>
guit ar
after wards</w>
is sion</w>
9 2</w>
inter ested</w>
um s</w>
anth ony</w>
í a</w>
re place</w>
que bec</w>
pu er
re solution</w>
deliver ed</w>
detro it</w>
ira q</w>
re ign</w>
pow ered</w>
mag ne
phys ics</w>
athle tics</w>
determin e</w>
mathematic s</w>
mag ic</w>
appoin tment</w>
collabor ation</w>
pat ro
ou ts</w>
acci dent</w>
ok la
gol f</w>
char ts</w>
te en
m att
responsi bility</w>
hy po
appear ing</w>
k ra
satur day</w>
ma ur
sub jects</w>
pu p
retur ns</w>
alab ama</w>
transl ated</w>
e ge</w>
carr ying</w>
br a</w>
plan et</w>
rough ly</w>
beauti ful</w>
he im</w>
ent ation</w>
mar gar
gu ide</w>
cl ou
separ ated</w>
fr ag
popul arity</w>
re tained</w>
der ing</w>
er son</w>
th ic</w>
or al</w>
ch anc
c ous
behavi or</w>
as sumed</w>
gor don</w>
k .</w>
pen insul
9 8</w>
sig ning</w>
v ul
contro versi
ad mitted</w>
li ver
differ ence</w>
8 1</w>
restaur ant</w>
sym ph
dougl as</w>
argent ina</w>
every thing</w>
er r
at o</w>
cr yst
arran ged</w>
8 4</w>
contribu tions</w>
bir th
restor ed</w>
u tili
cav al
cz ech</w>
twent y-
mo re
equi valent</w>
prepar ed</w>
dan ish</w>
ju an</w>
sever e</w>
ke e</w>
con sequ
ly n</w>
se as</w>
daugh ters</w>
de struc
be ar</w>
mar k
g ay</w>
lin ked</w>
okla homa</w>
signific antly</w>
ve ge
bre aking</w>
com e
secon d-
re sem
w ick</w>
bro ad</w>
du ties</w>
in her
al ties</w>
twent y</w>
princ ess</w>
mississi ppi</w>
g az
190 8</w>
w ine</w>
m ers</w>
peninsul a</w>
ac id</w>
happ y</w>
mat the
f ast
e x</w>
war ri
ig h</w>
vo ivo
reli ef</w>
8 3</w>
blu es</w>
gro wn</w>
7 7</w>
e ur
mo de</w>
re leg
auth ors</w>
adap ted</w>
b ren
strateg y</w>
9 7</w>
x i</w>
stre ss</w>
arri val</w>
ch ant</w>
fe el</w>
hung arian</w>
og y</w>
sto l</w>
depen ding</w>
vi ć</w>
chang ing</w>
busin ess
8 7</w>
1 /
pe t</w>
7 1</w>
ran king</w>
jour ney</w>
f ishing</w>
ul ation</w>
coali tion</w>
law yer</w>
s tic
windo w</w>
occup ation</w>
ortho dox</w>
keep ing</w>
fre sh
al ban
e k
saf e</w>
he l</w>
de vices</w>
te sting</w>
fi ve-
am ing</w>
lo sses</w>
oun ds</w>
anton io</w>
legisl ation</w>
po t</w>
re ver
asp ects</w>
b ell
ev alu
arti stic</w>
rel ative</w>
pr on
e ties</w>
elec tro
ma c</w>
sugge sts</w>
k shire</w>
f ra
nar r
ow nership</w>
avi ation</w>
constitu tional</w>
fin ding</w>
stop ped</w>
li sts</w>
bo ards</w>
g ar</w>
patter n</w>
z h
vis itors</w>
s low</w>
l ying</w>
harv ard</w>
mo ore</w>
8 9</w>
7 6</w>
16 th</w>
ab les</w>
techni que</w>
pe tro
puer to</w>
dre am</w>
classi fied</w>
flow s</w>
marke ting</w>
ukra inian</w>
am az
pl ate</w>
contin ental</w>
ques tions</w>
er o</w>
se t
bo l</w>
pe ti
9 3</w>
du blin</w>
vie wers</w>
invol ving</w>
7 8</w>
instrum ents</w>
transl ation</w>
differ ences</w>
polic ies</w>
tiv ity</w>
no vels</w>
si sters</w>
tr ic
defe ating</w>
wal ker</w>
bel gium</w>
. d.</w>
sk in</w>
li v
net t</w>
diag no
n one</w>
atic ally</w>
stor age</w>
de al
so il</w>
announ c
cap able</w>
goo d
ed in
k un
in nings</w>
on ian</w>
fl ag
ati on
alle l</w>
for d
conduc t</w>
off s</w>
par allel</w>
st ayed</w>
div or
scri ption</w>
as y</w>
soci alist</w>
lu m</w>
ed ited</w>
dra wing</w>
o th</w>
critici zed</w>
we ar</w>
br inging</w>
char ter</w>
c able</w>
6 ,
la h</w>
v is</w>
re new
continu ing</w>
d all
des c
gro w</w>
a po
ad ding</w>
jur is
ag ue</w>
part ners</w>
k u</w>
mi ami</w>
z ar
g ent</w>
sk y
ed it
ste am</w>
iss ance</w>
franch ise</w>
n ick</w>
den mark</w>
war t</w>
ham mad</w>
15 0</w>
hu ge</w>
ce o</w>
inter ven
eigh th</w>
un cle</w>
hung ary</w>
montre al</w>
9 4</w>
guitar ist</w>
em or
l '
scre en
ma ker</w>
el ig
roll ing</w>
fic ations</w>
ry an</w>
pro hi
ordin ary</w>
ath s</w>
connec tic
ti ed</w>
quali fying</w>
expres sion</w>
n ish</w>
ha ir</w>
$ 3
practic es</w>
fore sts</w>
tre at</w>
ma sters</w>
ame ter</w>
ho mo
te sts</w>
con fi
be an</w>
gul f</w>
voivo des
sal v
sem i
camer a</w>
otto man</w>
9 1</w>
dis c</w>
6 00</w>
hol id
w er
f os
satell ite</w>
connectic ut</w>
b y-
m ir</w>
mess age</w>
off ering</w>
s ic
rac y</w>
requ ires</w>
pap ers</w>
resc ue</w>
el even</w>
braz ilian</w>
co ff
s as
lim it</w>
gu id
indi genous</w>
keep er</w>
e o</w>
un a</w>
ab c</w>
h ill
spec tive</w>
ky o</w>
voivodes hip</w>
$ 2
tion ing</w>
d na</w>
ei ved</w>
car to
be t</w>
el le</w>
inc es</w>
net works</w>
industri es</w>
critic ism</w>
cou ples</w>
occasi onally</w>
d r</w>
lu x
success or</w>
k night</w>
alex and
revolu tionary</w>
require ments</w>
commissi oner</w>
k ent</w>
cri tic</w>
deb ate</w>
con stant</w>
garden s</w>
j av
thre at</w>
the tic</w>
en sure</w>
190 5</w>
w ich</w>
ing -
man us
sh i</w>
hur ric
equi pped</w>
el ement</w>
bo t</w>
friend ly</w>
hun dre
con sci
7 4</w>
ukra ine</w>
u ation</w>
pit ts
jo s
tu m</w>
1 ,000</w>
spo ken</w>
some what</w>
vel and</w>
ent ering</w>
coll ections</w>
dro p</w>
tem porary</w>
eg yp
ar n
inst ance</w>
caval ry</w>
inf ra
ta h</w>
where as</w>
replac ement</w>
e u</w>
ban k
7 3</w>
me ets</w>
tam il</w>
concer ns</w>
y le</w>
ligh t
se es</w>
neu ro
tri be</w>
bud dh
consi der</w>
eas y</w>
dri ven</w>
neu tr
sound track</w>
b one</w>
ba i</w>
expla ined</w>
con feder
dr a</w>
ra ise</w>
consider able</w>
ser i
aut onom
5 ,
al o</w>
sal t</w>
k an</w>
competi tions</w>
190 6</w>
bo w</w>
pa ul
s end</w>
manus cri
fix ed</w>
la y
ul ated</w>
ogra phic</w>
di al
broad way</w>
ro ots</w>
7 9</w>
legisl ature</w>
edin burgh</w>
mon ument</w>
sh ell</w>
boun dary</w>
12 th</w>
bal ti
am ong
compon ents</w>
st ances</w>
sur ren
woo den</w>
th m</w>
kev in</w>
recog n
accom pl
swim ming</w>
s low
metr o</w>
influ ential</w>
at om
see ing</w>
spe aker</w>
pris oners</w>
honor ary</w>
do gs</w>
su m</w>
elig i
is ation</w>
ve y</w>
ob li
il er</w>
ass ass
uni verse</w>
h es
t all</w>
: 00</w>
child hood</w>
ann ually</w>
sh u
victi ms</w>
threat ened</w>
sur gery</w>
opin ion</w>
increas ingly</w>
vis iting</w>
cinem a</w>
fil ed</w>
labor atory</w>
par ks</w>
m ate</w>
190 7</w>
law rence</w>
chem i
scho ol
e a</w>
bl in
t ine</w>
ri ver
atlan ta</w>
sk i
b id
ad ults</w>
celebr ated</w>
lear n</w>
k ar</w>
o me</w>
portu gal</w>
co ol
austri an</w>
fu sion</w>
f en
ro ger</w>
por ted</w>
frequ ency</w>
o ir</w>
repu tation</w>
among st</w>
vi an</w>
integr ated</w>
pro per</w>
am big
comm emor
fil med</w>
- day</w>
ab sor
d in</w>
ch ann
d t</w>
el i
tr ading</w>
do main</w>
corpor ate</w>
f ear
le ments</w>
cl es</w>
tun nel</w>
car di
im pris
le f
margar et</w>
cle veland</w>
po em</w>
nar row</w>
190 9</w>
modi fied</w>
d .c.</w>
gl as
ri de</w>
spons ored</w>
th ur
p .
strate gic</w>
to x
k as
ch a
em bar
m ills</w>
liver pool</w>
habit at</w>
benef it</w>
ph e
it o</w>
te es</w>
n ba</w>
r al
achie ve</w>
sump tion</w>
fac ing</w>
pe aked</w>
cent ers</w>
contex t</w>
op er</w>
accoun ts</w>
all ed</w>
in duc
chemi stry</w>
any thing</w>
struc k</w>
me et
dic tion</w>
cover age</w>
audi o</w>
spe ak</w>
ab bey</w>
ra pid</w>
kel ly</w>
est er
ell i</w>
p son</w>
revi val</w>
initi ative</w>
tru th</w>
lo v
me ter</w>
wel sh</w>
v ity</w>
sol ar</w>
vien na</w>
ne ver
sty les</w>
at mo
kenne dy</w>
d ak
ris ing</w>
re l</w>
co w
malay sia</w>
defini tion</w>
proc esses</w>
e ing</w>
13 th</w>
whe el</w>
thou se</w>
to kyo</w>
int ell
suff icient</w>
ex isted</w>
is her</w>
bran ches</w>
dep th</w>
m organ</w>
hor ses</w>
t ack
or d
de pression</w>
ambassad or</w>
med als</w>
voc al</w>
sec ure</w>
anc ing</w>
jor dan</w>
k l
han ded</w>
ad or</w>
do ors</w>
strong ly</w>
ab led</w>
qu anti
c ited</w>
10 .
hel ping</w>
c at</w>
r ar
t ons</w>
ten ance</w>
indic ated</w>
nei ther</w>
s /
h att
dec lined</w>
at i</w>
con crete</w>
ul es</w>
newspap ers</w>
bu ck
to t
col our</w>
jan e</w>
be et
movi es</w>
har ris</w>
v ess
surroun ded</w>
ologi es</w>
rap id
am end
enc ing</w>
fem in
se attle</w>
da ve</w>
bor ne</w>
8 00</w>
ch ess</w>
hosp it
li a</w>
10 ,000</w>
bas in</w>
char ity</w>
g mina</w>
bon d</w>
bl an
pe t
is er</w>
co o
ho u</w>
f ish
compe ting</w>
territ ories</w>
re m
spr ings</w>
ro bin
mas sive</w>
190 4</w>
st ones</w>
stor y
sig ns</w>
pro mp
sing h</w>
chron ic
ch -
co .</w>
se u
19 20s</w>
ber ry</w>
bi e</w>
monaster y</w>
fe ed</w>
hundre ds</w>
norm ally</w>
replac ing</w>
in der</w>
pre f
happ ened</w>
comple tion</w>
cle ar
terr or
appro val</w>
appar ently</w>
legen d</w>
j e</w>
balti more</w>
admir al</w>
v inc
we igh
su icide</w>
fun ded</w>
main tenance</w>
c al</w>
medi um</w>
ver sus</w>
parti ci
ale x</w>
g ym
restor ation</w>
pre vent
perf ect</w>
str ing</w>
desig ner</w>
classi fication</w>
bru ce</w>
ti m</w>
vess els</w>
man ner</w>
t ech</w>
sc and
cir cul
ac re</w>
fil l</w>
contro vers
tur ning</w>
at us</w>
' m</w>
hol e</w>
controvers y</w>
ma ine</w>
col leg
ri val</w>
resi dent</w>
indones ia</w>
survi ving</w>
w ast
naz i</w>
190 2</w>
be ars</w>
sp an</w>
propos al</w>
to ols</w>
10 th</w>
make up</w>
or i</w>
commer ce</w>
produc ers</w>
m am
as ser
mo ment</w>
ste ps</w>
nomin ation</w>
7 0
auto m
wid es
architec tural</w>
sen si
rel ation</w>
jos é</w>
r ical</w>
tal ent</w>
v ement</w>
bar on</w>
el and</w>
la sted</w>
bil ly</w>
every one</w>
car bon</w>
tr act</w>
hon our</w>
in spir
progres sive</w>
pitts burgh</w>
190 1</w>
ther ine</w>
ba i
roman ia</w>
c .
tr e</w>
i o
whe el
g i</w>
electr ical</w>
dr in
transm it
sar ah</w>
m ingham</w>
controversi al</w>
j ay</w>
experi ences</w>
gu ine
la kes</w>
rus sell</w>
colum n</w>
sol id</w>
compil ation</w>
superi or</w>
eff ici
mis sion
s er</w>
est ing</w>
colleg es</w>
gen re</w>
do cu
vo ting</w>
appropri ate</w>
experim ental</w>
fru it</w>
v als</w>
mat t</w>
stu dying</w>
po ems</w>
cred its</w>
gradu ating</w>
thou sand</w>
15 th</w>
landsc ape</w>
sum mit</w>
infra structure</w>
sha w</w>
al ign
dem ol
mov ements</w>
proc essing</w>
p an</w>
en ess</w>
advertis ing</w>
pro -
ag ents</w>
des ert</w>
pol e</w>
pati ent</w>
190 3</w>
vic e-
go al
ves sel</w>
sk a</w>
' re</w>
car l</w>
elev ation</w>
occasi ons</w>
ph arm
go sla
gover nor
p seu
dis ney</w>
song writer</w>
pre served</w>
exter nal</w>
il legal</w>
effec tively</w>
bro ok</w>
lo se</w>
l us
ri ding</w>
out put</w>
ad ams</w>
ser ver</w>
f lan
ric o</w>
ad ju
pan el</w>
aus tin</w>
ou gh
shar es</w>
el e</w>
ü r
affili ated</w>
visi ble</w>
n g</w>
s son</w>
spirit ual</w>
represent ation</w>
thom pson</w>
bar a</w>
meet ings</w>
op tion</w>
comm ent
frank lin</w>
alo gue</w>
gi ant</w>
h ence</w>
gra ve</w>
o sc
n bc</w>
his panic</w>
conv enti
we ak
suppor ters</w>
pre gn
yu gosla
extre me</w>
f ting</w>
s wi
ou ter</w>
ad o
ab s
hy per
desc end
un usual</w>
bi ography</w>
ur s</w>
oper ational</w>
gra y</w>
nel son</w>
jim my</w>
c ran
c bs</w>
elimin ated</w>
in ts</w>
dec line</w>
sust ain
ak ers</w>
bir mingham</w>
hor iz
dra fted</w>
dow ns</w>
cul tiv
shor t-
zer o</w>
so -
week end</w>
concer ts</w>
minim um</w>
reven ue</w>
no vel
particip ation</w>
grad es</w>
domin ated</w>
simil arly</w>
pic k</w>
roun ds</w>
k new</w>
la p</w>
cy lin
di um</w>
14 th</w>
d il
jo bs</w>
concer ned</w>
den ied</w>
i stan
matt ers</w>
mechan ical</w>
le ban
bang lad
bloc ks</w>
t es
ar kansas</w>
bor ders</w>
cla y</w>
pro j
accep t</w>
licen se</w>
execu ted</w>
ste wart</w>
farm ers</w>
p ent
attrac ted</w>
touch down</w>
im pres
fig ur
nor man</w>
fel low
indi ans</w>
competi tive</w>
q i</w>
n an</w>
portra yed</w>
mer chant</w>
acc la
fin land</w>
claim ing</w>
ad ol
rapid ly</w>
z y</w>
p c</w>
v anc
le ton</w>
ass ault</w>
docu ment</w>
sch edu
bro o
pr us
tour ing</w>
inde x</w>
great ly</w>
invol vement</w>
on ym
grad ually</w>
s now</w>
acc essi
com pre
go d
t esti
tis m</w>
ex -
o b</w>
go w</w>
intell ec
cor ru
il li
fur ther
schedu le</w>
ri x</w>
sug ar</w>
bac ter
transi t</w>
fil m
pre ad</w>
pla in</w>
p it</w>
concer n</w>
bar ri
apol is</w>
engine ers</w>
statis tics</w>
tem por
r in
per cent
e tr
wides pread</w>
bi d</w>
pen alty</w>
th ly</w>
mar ie</w>
li thu
f i</w>
d ged</w>
tra ditionally</w>
scholar ship</w>
av o
mo squ
there after</w>
ca ve</w>
schol ar</w>
cous in</w>
11 th</w>
s essions</w>
ch a</w>
fav or</w>
d ant</w>
princi ples</w>
d le</w>
un t</w>
mur ray</w>
cros s-
excep tion</w>
h r</w>
br is
end or
licen sed</w>
soldi er</w>
robin son</w>
oc k</w>
beau ty</w>
fe ar</w>
recomm ended</w>
be gun</w>
solu tions</w>
bat tery</w>
nin th</w>
an o
ag encies</w>
travel ed</w>
ro lled</w>
cu t
alleg ed</w>
ex ists</w>
il it
wit n
ta g</w>
pass age</w>
e co
in qu
christ opher</w>
partici pants</w>
gu y</w>
t ted</w>
w .
descri be</w>
m s
g ates</w>
dall as</w>
popul ations</w>
organ ised</w>
custom ers</w>
domin ant</w>
vide os</w>
mol ecu
ali ze</w>
gener ated</w>
lar s</w>
rati o</w>
ran ean</w>
e pi
stri p</w>
bis ho
shor t
hel ic
wor n</w>
scienti sts</w>
research ers</w>
le ans</w>
stan ley</w>
astr onom
- to-
har t</w>
camp bell</w>
clin ical</w>
govern ments</w>
z am
them es</w>
th eless</w>
is a</w>
k h</w>
do s</w>
instrum ental</w>
never theless</w>
sain ts</w>
ox y
e vil</w>
commer ci
vic tor</w>
10 00</w>
char lo
ti ous</w>
wed ding</w>
ni ght
frequ ent</w>
i th
la bel
emer ged</w>
supp lies</w>
con vers
tai wan</w>
i ghts</w>
ang er</w>
la in</w>
nov a</w>
en dem
t um
don ated</w>
po sted</w>
fun dam
w ants</w>
john ny</w>
cas h</w>
t z
vol can
g ical</w>
se ed</w>
des cent</w>
hear ing</w>
bal ance</w>
car ter</w>
mar ath
histor ically</w>
encour aged</w>
fiel der</w>
inter section</w>
iz ing</w>
victor ian</w>
ven ez
m id</w>
fer n
p ig
prov inces</w>
pre dec
en forc
ass ist</w>
no tic
we al
opport unities</w>
su e</w>
fi es</w>
sun g</w>
ver e
m r</w>
conte sted</w>
marsh all</w>
du o</w>
inc t</w>
mit ch
u re
ag o
189 8</w>
suff ering</w>
m um
ten d</w>
compre hen
transi tion</w>
mor t
hun ter</w>
sp ending</w>
harb or</w>
k s
ic ed</w>
at -
si ege</w>
dru gs</w>
sub marine</w>
fre sh</w>
transm ission</w>
writ es</w>
w ing
ap ple</w>
d s
es sive</w>
c i</w>
min es</w>
bu y</w>
di r
anim ated</w>
resi ding</w>
bom b</w>
suppor ts</w>
destruc tion</w>
ven ue</w>
p o</w>
figh ters</w>
tour ism</w>
gu ards</w>
ho l</w>
di ameter</w>
chann els</w>
ch y</w>
inj uries</w>
du m</w>
symph ony</w>
a g</w>
in fl
hun t</w>
depar ture</w>
han g</w>
h ull</w>
ab road</w>
rema inder</w>
rus h</w>
bl ast</w>
substan tial</w>
kil ome
ex tra
san g</w>
see king</w>
u tah</w>
tri bes</w>
acqu isi
grand father</w>
ed -
rail ways</w>
phen om
y on</w>
9 0
al fred</w>
ge -
al g
tour ed</w>
st akes</w>
ograph ical</w>
ran ks</w>
fic tional</w>
k ic
a than</w>
á n
l en</w>
se ek</w>
crow d</w>
i ding</w>
ch ro
h s</w>
ob tain</w>
ai de</w>
benef its</w>
fri ed
fac ts</w>
techn ologies</w>
d ad</w>
th ail
dou bles</w>
f lower</w>
g ang
us al
contro ll
pic ked</w>
ing en</w>
simul tane
instr ument</w>
produc es</w>
bi ble</w>
co ok</w>
8 ,
immedi ate</w>
attribu ted</w>
peri ods</w>
ace ae</w>
jud ges</w>
re lev
p ain</w>
v or
bel t</w>
o ak
youn gest</w>
f an
ra in
ab er
gro ve</w>
brook lyn</w>
conventi onal</w>
bri ght</w>
six -
sem in
ch and
189 0</w>
woo ds</w>
" s</w>
contribu tion</w>
way ne</w>
med iter
fant asy</w>
achiev ement</w>
ex ce
b aker</w>
j ury</w>
refu ge
or leans</w>
wild life</w>
athle tes</w>
tw in</w>
adap tation</w>
compon ent</w>
categ ories</w>
p s
it z</w>
publ isher</w>
line ar</w>
br y
com plic
er ected</w>
um ents</w>
strug gle</w>
rul ing</w>
wa iting</w>
choo se</w>
arch bishop</w>
thail and</w>
ge ome
jas on</w>
conv inc
char lie</w>
matthe w</w>
y am
pier re</w>
id en
relation ships</w>
" -
g li
gra ham</w>
gr ace</w>
ra id</w>
is a
/ km²</w>
glas gow</w>
full- time</w>
t one</w>
regi me</w>
ar rest</w>
de ad
gene tic</w>
arc tic</w>
in ha
o ak</w>
person ality</w>
righ t-
g ent
endem ic</w>
spo ke</w>
enjo yed</w>
app ly</w>
thr one</w>
character istics</w>
je ff</w>
op tim
d den</w>
z i</w>
civil ian</w>
deta iled</w>
ma kers</w>
cr ash</w>
c ked</w>
ext ent</w>
bar on
evol ution</w>
tur n
n ine
ko v</w>
dis t</w>
rich mond</w>
189 9</w>
roc ks</w>
any one</w>
w ells</w>
use ful</w>
drum s</w>
do m
lin ks</w>
l ingu
stat ue</w>
over seas</w>
german s</w>
defen ding</w>
r h
in ations</w>
leg s</w>
fif a</w>
abs ence</w>
e str
repor tedly</w>
st ev
rob in</w>
es cor
the -
re tail</w>
su itable</w>
sp in
ess ential</w>
well- known</w>
k le
percent age</w>
electr icity</w>
7 ,
inde ed</w>
pho sp
k ne
ex po
enti ally</w>
az er
y ang</w>
egyp tian</w>
hamp shire</w>
cl an</w>
a ar
j ay
demol ished</w>
prac tical</w>
z ation</w>
ho o
comman ded</w>
yor kshire</w>
phil li
eligi ble</w>
car los</w>
bel gian</w>
gr ass</w>
t elling</w>
reci pi
ra f</w>
fall ing</w>
port land</w>
ne v
al lies</w>
k ha
hurric ane</w>
vanc ou
el der</w>
spec im
chanc ell
premi ere</w>
pro file</w>
vill a</w>
et ary</w>
sculp ture</w>
ma x
n hl</w>
r &
la di
2 50</w>
tr in
mat h</w>
ac res</w>
pho en
gl en
ash es</w>
l é
sh ed</w>
am p</w>
con fron
pl as
te sted</w>
ent re
sym bol</w>
t ul
ho m
manag ing</w>
des ire</w>
releas es</w>
mediter ranean</w>
col ors</w>
ti ally</w>
ro ws</w>
i ons</w>
viol ent</w>
tic a</w>
vo ters</w>
ban e</w>
d é
jer usal
seg ment</w>
tri als</w>
loo ked</w>
i k</w>
ma ster
and /
suspen ded</w>
poss ession</w>
indic ate</w>
stro ke</w>
er ra</w>
mor ris</w>
l er
fin nish</w>
ic o</w>
cer tain
wal king</w>
regul ations</w>
ang el</w>
intro duc
189 6</w>
sett lers</w>
descri ption</w>
g ru
d as</w>
gi es</w>
co s</w>
survi v
st ab
al lo
k om
st ol
n ’
belie f</w>
lea f</w>
ben e
re built</w>
as ks</w>
par tly</w>
character ized</w>
ben jam
venez u
expen sive</w>
possi bility</w>
en zy
advent ure</w>
helic op
el se
al ice</w>
manu el</w>
t v
slo ven
g lu
at t</w>
,0 0
m all</w>
vol umes</w>
1. 5</w>
no on</w>
189 5</w>
drum mer</w>
s ak
sho pping</w>
plat forms</w>
ef a</w>
lim its</w>
hun ting</w>
ra j
sp er
ser ge
jerusal em</w>
a im</w>
atten ding</w>
se arch
patro l</w>
on e
co operation</w>
br ac
drag on</w>
soun ds</w>
k ö
fri day</w>
cle arly</w>
bes ides</w>
fil es</w>
ag e
arab ic</w>
photo graphy</w>
under stand</w>
fit ted</w>
el ite</w>
inter medi
vir gin</w>
bi ological</w>
vancou ver</w>
c af
es is</w>
vo y
house holder</w>
ga p</w>
tru ste
m ack
termin us</w>
be half</w>
deplo yed</w>
min ority</w>
wol f</w>
ff s</w>
assi sted</w>
symb ol
ten ure</w>
in door</w>
ul ties</w>
r he
c ed
off -
do w</w>
n’ t</w>
afgh an
aim ed</w>
air e</w>
ser bian</w>
r as</w>
ali ve</w>
pres ti
is lam</w>
princip le</w>
ass ess
and/ or</w>
del hi</w>
z u
aliz ing</w>
augu st
clos er</w>
is ms</w>
spr ing
sh all</w>
mor ph
w es
in sec
pr ad
í n</w>
further more</w>
mo ves</w>
prot est</w>
dri vers</w>
roman ized</w>
as sets</w>
munici p
im mun
sti mul
for um</w>
y ar
tab les</w>
war ner</w>
ra d</w>
afghan istan</w>
dis crimin
mini sters</w>
pion e
2 ,000</w>
christi an
n .</w>
de aths</w>
r il
ex posed</w>
eff icient</w>
loc ally</w>
n apol
12 .
s —
f us
roman tic</w>
comp ens
189 7</w>
d ag
car ib
n ell</w>
vent ure</w>
public ly</w>
continu ous</w>
0 8</w>
0 9</w>
se -
loo p</w>
re covered</w>
identi fy</w>
am y</w>
c rit
rel l</w>
e o
au x</w>
em ig
z en
el se</w>
mon thly</w>
syst em
exc av
benjam in</w>
po d</w>
en sem
dram atic</w>
car go</w>
f li
re located</w>
expl or
wa it</w>
w ang</w>
in ch</w>
psych ology</w>
establ ishing</w>
l ang
de pos
ab use</w>
volunte er</w>
magne tic</w>
se ven
ran gers</w>
k im
birth day</w>
gu s</w>
der by</w>
s at</w>
but ter
pro pag
per c
m .
concentr ation</w>
or ph
m é
bri stol</w>
war ren</w>
ce ased</w>
be ij
bi ology</w>
co sta</w>
mor al</w>
lat ino</w>
weap on</w>
immig rants</w>
organ ic</w>
man or</w>
k ap
el li
as es</w>
v ary</w>
buff alo</w>
dec ides</w>
ex ac
fer ry</w>
adv ice</w>
lan ka</w>
sol e</w>
banglad esh</w>
accessi ble</w>
parti ally</w>
u efa</w>
pro secu
festiv als</w>
ari o</w>
tt i</w>
certi fied</w>
sent enced</w>
dang erous</w>
pre ne
loc k
tri bun
carri er</w>
consol id
fac ilit
t u</w>
pit ch</w>
portra it</w>
3 d</w>
ear ning</w>
st ati
f .c.</w>
conn ecting</w>
ran ging</w>
ch ile</w>
ann y</w>
ch ase</w>
188 9</w>
pun k</w>
si ght</w>
div isi
volunte ers</w>
promis e</w>
ki ds</w>
ash ed</w>
roman ian</w>
carib bean</w>
fr ame
b bed</w>
hol ders</w>
arrang ement</w>
democ racy</w>
apart ment</w>
ph r
la yer</w>
dic k</w>
earth qu
ali d</w>
therap y</w>
m ates</w>
restric ted</w>
first- class</w>
vers ity</w>
p ages</w>
oppon ents</w>
ad d</w>
to s</w>
subur b</w>
azer bai
189 3</w>
mr s.</w>
comm ented</w>
gri ff
fal se</w>
peop les</w>
subsi diary</w>
c on</w>
tr y
mitch ell</w>
municip alities</w>
ic on</w>
rep air</w>
to ms</w>
grad ed</w>
reve als</w>
pion eer</w>
secur ed</w>
har t
gab ri
al ph
nichol as</w>
fil ming</w>
' ve</w>
and ers</w>
e v</w>
belong ed</w>
clo sing</w>
man hatt
dro me</w>
inter nationally</w>
oun ced</w>
189 2</w>
business man</w>
sc ra
ca p</w>
di verse</w>
dat ab
ast s</w>
colle gi
pre ce
per sian</w>
def end
thin king</w>
implement ed</w>
par ent</w>
repor ter</w>
mad rid</w>
ens is</w>
oc e
tex ts</w>
ser bia</w>
sent ence</w>
gh ton</w>
dis played</w>
s sing</w>
z hou</w>
go t
entre prene
el er
al ised</w>
else where</w>
bus es</w>
shi ft</w>
musli ms</w>
f led</w>
ag er</w>
her o
per su
clin ton</w>
enter prise</w>
dr o</w>
ab sol
z im
g g
188 5</w>
ad i</w>
mach ines</w>
initi ated</w>
k g</w>
appar ent</w>
189 4</w>
9 ,
ch al
un k</w>
har rison</w>
tar ge
oper ator</w>
consist ent</w>
auto matic</w>
mar ines</w>
ti ll</w>
gi b
occas ion</w>
ev angel
mil an</w>
je an-
t to</w>
ven ess</w>
beij ing</w>
long est</w>
we aring</w>
bu ll</w>
j acqu
discus sed</w>
bar ry</w>
tour s</w>
inaug ural</w>
sh an
194 0s</w>
m cc
hor n</w>
r é
rif le</w>
survi ve</w>
re duction</w>
arch y</w>
st y</w>
sen s
invol ves</w>
coll ec
186 5</w>
respon ded</w>
co aching</w>
ex trac
cop y</w>
tr inity</w>
cle an
brid ges</w>
swe et</w>
e i</w>
man s</w>
bre w</w>
be st-
a il</w>
ed a</w>
ur ing</w>
d or</w>
guil ty</w>
holid ay</w>
fit z
certi fic
s now
sett lements</w>
n is
cat s</w>
par ker</w>
ak h
electr on
cas u
inter cep
manhatt an</w>
orig ins</w>
sha h</w>
dec isions</w>
e ditions</w>
tra ditions</w>
pl ed</w>
ass es</w>
y m</w>
n em
lo -
fam ili
spec tr
in ess</w>
spac es</w>
me l</w>
cri mes</w>
sol ve</w>
x on</w>
fo ster</w>
un successful</w>
mu hammad</w>
b li
lo aded</w>
hawa ii</w>
mo tiv
exclu sively</w>
tri g
189 1</w>
et a</w>
cros sed</w>
citiz en</w>
amend ment</w>
e on</w>
pursu e</w>
un incorporated</w>
jam a
tribu te</w>
su me</w>
be ating</w>
mar ry</w>
al um
c attle</w>
no ble</w>
exp ec
meth o
hor ror</w>
ev ans</w>
advis ory</w>
h ir
di es
men tion</w>
aggre s
increas es</w>
es c
alg ori
main stream</w>
fi a</w>
t ape</w>
du al</w>
10 -
comple ting</w>
l loy
to p-
locomo tives</w>
circum stances</w>
186 4</w>
ro ad
cer am
sta ke</w>
w en
archae ological</w>
hou sed</w>
ho mel
v ast</w>
ac le</w>
strug g
it i</w>
play offs</w>
o g</w>
proce dur
flo o
harb our</w>
tan ks</w>
fe e</w>
out door</w>
re move</w>
p ine</w>
cle an</w>
ed o</w>
respec tive</w>
ta il
danc ing</w>
diam ond</w>
aff air</w>
repe ated</w>
188 8</w>
a is</w>
s al</w>
activ ated</w>
0 7</w>
re sort</w>
mer ger</w>
charlo tte</w>
number ed</w>
um a</w>
j on</w>
j et</w>
gu ests</w>
sh r
es -
n ab
by z
dispu te</w>
ra ising</w>
di versity</w>
ti gers</w>
manufac tured</w>
magaz ines</w>
concer ning</w>
isol ated</w>
rad ical</w>
co aches</w>
clo sure</w>
patter ns</w>
hin du</w>
o h</w>
tr aded</w>
guar an
ru b
quali fy</w>
mil it
co le</w>
quali fication</w>
sa iled</w>
mil iti
belong ing</w>
1 20</w>
par am
inc umb
ac knowle
foc uses</w>
ag ement</w>
rar ely</w>
ar do</w>
n un
lu s</w>
ev ac
sy ria</w>
e au</w>
clo thing</w>
so- called</w>
pl ying</w>
fran ç
oppon ent</w>
kar l</w>
cal end
shi eld</w>
ste ad
go sp
ke ys</w>
l on</w>
el dest</w>
ann er</w>
w ig
jum p</w>
er ie</w>
dar ies</w>
co oper</w>
lan ded</w>
implement ation</w>
fif teen</w>
co tton</w>
consum er</w>
conn ect</w>
tri ple</w>
histor ians</w>
si zed</w>
c inc
a ero
beli eves</w>
on going</w>
gl aci
ati vely</w>
refer ences</w>
c lock</w>
188 0</w>
lu m
cho ir</w>
ci ans</w>
sa il
for ti
0 5</w>
dec k</w>
exper t</w>
bour g</w>
juris diction</w>
de z</w>
b u</w>
re di
form ers</w>
k ho
demonstr ated</w>
con version</w>
ti me
k is
deli very</w>
statis tical</w>
enforc ement</w>
professi on
d j</w>
lor ds</w>
tim ber</w>
m und</w>
uni form</w>
enni al</w>
comprehen sive</w>
186 1</w>
dynam ic</w>
excell ent</w>
i ff</w>
sac red</w>
hi dden</w>
chancell or</w>
to ol</w>
th in</w>
run ner
nec k</w>
conn ections</w>
d ar</w>
bur n
arri ving</w>
boun daries</w>
st ad
win ds</w>
186 2</w>
relev ant</w>
b .
stan ts</w>
my th
spor ting</w>
te a</w>
micro soft</w>
si e</w>
i op
mic hel
sug gest</w>
sub mitted</w>
p in</w>
correc t</w>
ant ine</w>
i di
mechan ism</w>
cerem on
depart ments</w>
ul timate</w>
inv ent
y a
discus sion</w>
beat en</w>
pur e</w>
pris ing</w>
b ath
nig eria</w>
tr am
bar bara</w>
tur ner</w>
promo ting</w>
har a</w>
tr ad
ren t</w>
w as
ö r
h tt
alber ta</w>
temper atures</w>
dis missed</w>
th row</w>
substitu te</w>
jon athan</w>
acc eler
jer ry</w>
rec ur
de voted</w>
mar gin</w>
gi ants</w>
deb t</w>
bac ks</w>
life time</w>
186 3</w>
rebel lion</w>
5 0,000</w>
2 1st</w>
origin ated</w>
hol m</w>
negoti ations</w>
o a</w>
and o</w>
188 7</w>
ch u
ep is
than ks</w>
bapti st</w>
conclu sion</w>
del ta</w>
so vere
mac ed
beet le</w>
fol d</w>
pro p
eag le</w>
eg gs</w>
sy rian</w>
photograph s</w>
north western</w>
for th</w>
des er
10 0
b av
pr ices</w>
qu ad
sco res</w>
cu ba</w>
mar t</w>
comm ons</w>
exclu sive</w>
sp her
lat est</w>
weal thy</w>
l ing
ch es
tor pe
thir ty</w>
manufac turer</w>
indic ates</w>
7 00</w>
fer ences</w>
wast e</w>
bul g
tr uck</w>
hy bri
sch e</w>
exerc ise</w>
p ic</w>
repor ting</w>
air lines</w>
co at</w>
por tions</w>
us age</w>
bas es</w>
l ington</w>
reco very</w>
ess ors</w>
i eld</w>
on i</w>
hon ors</w>
boo k
coll ective</w>
interpre tation</w>
ill ness</w>
favor ite</w>
f icial</w>
lu d
reg ard</w>
li ft</w>
ic an</w>
e colo
co st
f lights</w>
fu n</w>
h ec
sh ang
sk ir
dre ss</w>
liber ty</w>
hu dson</w>
al tar</w>
sco pe</w>
187 0</w>
ha u
map s</w>
adel aide</w>
onym ous</w>
ter ing</w>
des cen
th en-
kin son</w>
acquisi tion</w>
expo sure</w>
fun eral</w>
p ts</w>
speci alized</w>
fac tion</w>
b at</w>
collegi ate</w>
co pper</w>
1 1.
mer chan
se em</w>
pup ils</w>
coll ins</w>
c ks</w>
per mission</w>
c p
farm ing</w>
inter state</w>
r s</w>
g el
remo te</w>
feel ing</w>
dru m</w>
sla ves</w>
o u</w>
loo ks</w>
to b
al aska</w>
requ ested</w>
sil ent</w>
m in</w>
- e</w>
ligh ting</w>
oper ative</w>
shi pping</w>
ir anian</w>
w rec
cric ke
co l</w>
recogn ised</w>
ath ens</w>
thu si
ad equ
bre eding</w>
phoen ix</w>
exten sively</w>
dis ambig
low est</w>
an- american</w>
ko v
ad mini
amp ton</w>
slo v
spe akers</w>
bris bane</w>
ra w</w>
a es
ge on</w>
depen dent</w>
un less</w>
present -day</w>
selec t</w>
ag an</w>
co g
man age</w>
th um
guine a</w>
dol lars</w>
c un
poin ted</w>
inten tion</w>
d ently</w>
phi l</w>
ban ded</w>
travel led</w>
lin d
ri g
ho sti
co ck
anim ation</w>
campaig ns</w>
h u</w>
activ ist</w>
shar ing</w>
188 6</w>
bar cel
re aches</w>
wor ker</w>
immig ration</w>
te amm
ra inf
tol er
with drew</w>
abo ard</w>
ban ned</w>
batt les</w>
st own</w>
b ath</w>
top ics</w>
guar dian</w>
congre gation</w>
vol ley
disambig uation</w>
pre domin
athle te</w>
sho ot</w>
frame work</w>
k ow
til ity</w>
dest roy</w>
iden tical</w>
t ance</w>
en thusi
w al</w>
contribu ting</w>
bal let</w>
p es
so mer
stre t
w au
co tt
ne phe
cu sto
regul ation</w>
sa ved</w>
distinc tion</w>
h at</w>
congre s
evol ved</w>
s ket
vir tual</w>
10 0,000</w>
sup posed</w>
cros s
influ ences</w>
pre ferred</w>
ak ia</w>
ess entially</w>
188 1</w>
ori ented</w>
k re
volley ball</w>
gro ws</w>
rad ar</w>
bec k</w>
oli ver</w>
inter views</w>
prad esh</w>
sh in
jud g
correspon ding</w>
i p</w>
democr at</w>
m ic</w>
ir y</w>
re min
particip ating</w>
fa x</w>
cap ita</w>
ca therine</w>
str ation</w>
wa ke</w>
sul tan</w>
aut um
he in
alco hol</w>
m ons</w>
thir d-
exp and</w>
ten der</w>
descri bing</w>
wr ong</w>
mo bil
qu an
lloy d</w>
pat ent</w>
188 4</w>
p ink</w>
improv ement</w>
democr ats</w>
ver tical</w>
her oes</w>
es co</w>
awar eness</w>
ro ot</w>
valu able</w>
alter nate</w>
vo y</w>
ten ed</w>
s ati
ro s</w>
fav our</w>
13 .
hel ps</w>
cam ps</w>
v au
dis eas
om a</w>
a post
jo se
n ée</w>
in hi
ur i</w>
canc elled</w>
box ing</w>
ot ta
nor folk</w>
slow ly</w>
fin ed</w>
plac ing</w>
0 6</w>
ok ie</w>
ed ic
parti al</w>
simultane ously</w>
s man</w>
tour ist</w>
tou ch</w>
gradu ation</w>
tax es</w>
th ick</w>
sh oul
h n</w>
ex plic
vir us</w>
nic ol
incumb ent</w>
3 ,000</w>
confeder ate</w>
nat i</w>
um -
scienti st</w>
depar ted</w>
n ered</w>
dis aster</w>
prepar ation</w>
wor st</w>
defen ded</w>
vie wer</w>
ni k
sla ve</w>
cryst al</w>
cinc in
wor ship</w>
pro of</w>
s ample</w>
per u</w>
prin ting</w>
tin y</w>
answ er</w>
me tric</w>
epis cop
bern ard</w>
desig nation</w>
jus ti
/ /
or -
rock y</w>
reserv oir</w>
air ing</w>
be e</w>
sit ting</w>
lo dge</w>
r ons</w>
play off</w>
mun ich</w>
con dem
philipp ine</w>
hu gh</w>
ter ry</w>
jac ob</w>
a z</w>
signific ance</w>
shar p</w>
le x
attemp ting</w>
grand son</w>
al b
ar sen
mil k</w>
bu l</w>
e ton</w>
o tic</w>
as k</w>
doc tr
rober ts</w>
def end</w>
he brew</w>
ent ers</w>
tri o</w>
tele phone</w>
prote ins</w>
mari time</w>
inspir ation</w>
diplo matic</w>
le eds</w>
pre d
hel m</w>
illustr ated</w>
exhi bited</w>
gain ing</w>
in fin
st ore
belong s</w>
$ 4
alp ha
po sts</w>
jud icial</w>
c ket</w>
nu tri
sp end</w>
phr ase</w>
ne il</w>
corru ption</w>
dec ide</w>
cra w
gi o</w>
pe ace
ib n</w>
m ati
app ing</w>
colo mbia</w>
war m</w>
appro ached</w>
me at</w>
ph al
0 4</w>
promis ed</w>
meas ured</w>
territ orial</w>
mem bran
g at
ti de</w>
ma har
ti ll
s ville</w>
out break</w>
dak ota</w>
sou theastern</w>
bon us</w>
cardin al</w>
0 1</w>
pro ve</w>
en rolled</w>
decor ated</w>
gl ing</w>
writ ings</w>
argu ment</w>
ab str
g la
dist ur
ol ds</w>
barcel ona</w>
co ck</w>
vie wing</w>
m ps</w>
calend ar</w>
im possible</w>
188 2</w>
gi ft</w>
or ia</w>
pref ec
nev ada</w>
ologi sts</w>
em en</w>
re sig
armen ian</w>
l p</w>
pro spec
do ck</w>
h ms</w>
inher ited</w>
he ights</w>
sh am
min ster</w>
in formed</w>
accur ate</w>
vir tu
intellec tual</w>
b ilities</w>
mon it
miss ile</w>
ab ra
ren a
func tional</w>
sch u
ter ies</w>
character istic</w>
autum n</w>
n au
st o</w>
read s</w>
tur ers</w>
christian ity</w>
buddh ist</w>
co inci
co s
convic ted</w>
ograph er</w>
n g
ash a</w>
gu es</w>
fa ult</w>
2. 5</w>
cincin nati</w>
prote sts</w>
it arian</w>
t ale</w>
pi an
go thic</w>
super vis
recomm end
gram mar</w>
cu tting</w>
con figur
ob ama</w>
gre n
ro gers</w>
distinc tive</w>
vinc ent</w>
ex act</w>
exam ination</w>
a j</w>
mar tial</w>
warri ors</w>
ici ans</w>
k ath
g m</w>
re t
her bert</w>
y u</w>
fle w</w>
veter an</w>
plac ement</w>
doub le-
: //
ill ed</w>
cros ses</w>
in no
compu ters</w>
flo od</w>
we ak</w>
wi der</w>
tr ag
li on
celebr ation</w>
syn dic
expla ins</w>
gau ge</w>
ac he</w>
mad ison</w>
ne br
re viewed</w>
er i</w>
em bas
ni k</w>
diseas es</w>
ic als</w>
bo bby</w>
p am
si l</w>
emphas is</w>
ke ith</w>
sc at
s ap
colum ns</w>
narr ative</w>
aliz es</w>
restaur ants</w>
atten dance</w>
war ning</w>
es a</w>
ex it</w>
pol l</w>
i i
journ alism</w>
vis its</w>
de emed</w>
d .
c dp</w>
challeng es</w>
re now
integr ation</w>
carri es</w>
h ul
2 4
diffic ulties</w>
per spective</w>
phys ician</w>
ensem ble</w>
is le</w>
tournam ents</w>
h en</w>
ge ar</w>
renow ned</w>
t age</w>
friend ship</w>
reduc ing</w>
intermedi ate</w>
coff ee</w>
d ental</w>
main land</w>
atmo sphere</w>
clou d</w>
ach ment</w>
ash i</w>
al ge
locomo tive</w>
releg ated</w>
as sign
re ed</w>
voc alist</w>
sm all
enem ies</w>
per si
20 ,000</w>
tow ers</w>
exac tly</w>
under graduate</w>
st en
eag les</w>
n ol
exten d</w>
assess ment</w>
g host</w>
op tions</w>
ho p
pre serv
wel fare</w>
ne pal</w>
t enth</w>
bur ned</w>
ann i</w>
t ty</w>
el -
ob vi
ax is</w>
docum ented</w>
christi ans</w>
lu is</w>
wav es</w>
enc er</w>
aff ect</w>
u ality</w>
im plic
gr o</w>
186 0</w>
è re</w>
d ges</w>
u x</w>
op ol
glo be</w>
de e</w>
per ry</w>
mat ure</w>
obj ective</w>
struc tural</w>
u d
induc ted</w>
lu ke</w>
fav our
188 3</w>
archit ects</w>
liber ation</w>
per mitted</w>
ep ing</w>
haw ks</w>
w o</w>
depic ted</w>
ear n</w>
the ology</w>
autonom ous</w>
re member
ang lo-
eth iop
symp toms</w>
r ally</w>
roc ket</w>
bo tan
am ster
w ire</w>
experim ents</w>
be ver
recei ves</w>
pharm ac
long- term</w>
sequ el</w>
jeff erson</w>
sh ut
cur ricul
ran ges</w>
d less</w>
bul gar
b am
ph d</w>
ste am
tic ket</w>
compris es</w>
w u</w>
non- families</w>
se emed</w>
pit ched</w>
anc est
h ell
mem or
y es</w>
collabor ated</w>
supp lied</w>
comm enced</w>
r at</w>
e ter
lar ry</w>
bar s</w>
r age</w>
you tube</w>
be er</w>
re source</w>
vari ant</w>
g em
escap ed</w>
ha ven</w>
beng al</w>
pp ers</w>
en comp
mar s</w>
co ached</w>
experim ent</w>
t ang
ang lic
ri ders</w>
prote stant</w>
k ay
be am</w>
187 6</w>
spo ts</w>
equ ality</w>
187 8</w>
rul er</w>
f u</w>
fundam ental</w>
cop y
inaug ur
execu tion</w>
ford shire</w>
rup ted</w>
ig nor
resig nation</w>
mor oc
thir teen</w>
emo tional</w>
187 1</w>
en su
congres sional</w>
deman ds</w>
improv ements</w>
bo ss</w>
r ing
counc ill
ve gas</w>
14 .
12 -
ed ly</w>
al titude</w>
pul led</w>
m at</w>
en co
ai res</w>
ken ya</w>
n ou
gi ous</w>
2 /
o tt</w>
inter -
pre serve</w>
inc ar
se eds</w>
effici ency</w>
ba il
metr e</w>
te ach</w>
molecu lar</w>
op hy
asi de</w>
he ar</w>
g astro
defen der</w>
e en</w>
comp ound</w>
remo val</w>
tra vels</w>
veter ans</w>
croati an</w>
t all
acti vely</w>
us $
ver te
tar gets</w>
lin ing</w>
hu gh
nebr aska</w>
ta ke
ag onist</w>
el ine</w>
amoun ts</w>
peter sburg</w>
th es</w>
procedur e</w>
advoc ate</w>
advent ures</w>
p airs</w>
id ers</w>
nam ely</w>
mel o
de vo
p en</w>
m ü
appre ci
do -
ar k</w>
pear l</w>
e h</w>
tal ks</w>
instruc tion</w>
gon z
c ker</w>
croati a</w>
v -
et ta</w>
cra ig</w>
vari able</w>
par king</w>
rabb i</w>
s ar</w>
bre aks</w>
but ler</w>
nephe w</w>
id en</w>
co pe</w>
comple x
li er</w>
be aring</w>
k ab
ap h
war saw</w>
fortun e</w>
m its</w>
f ed</w>
conn ects</w>
ma z
w ra
contro ls</w>
argent ine</w>
liter ally</w>
si erra</w>
rat ings</w>
ous ness</w>
s ão</w>
par k
fall en</w>
victi m</w>
lo go</w>
program mes</w>
ex emp
re sumed</w>
cro ps</w>
p y</w>
read ers</w>
pl astic</w>
bac ked</w>
be ar
h ann
amster dam</w>
admini stered</w>
ch o</w>
te -
y ale</w>
c air
ag ree</w>
po d
ban king</w>
hel en</w>
kni ghts</w>
for tress</w>
re tro
b ills</w>
f ate</w>
mur phy</w>
colon ies</w>
liter acy</w>
compar ison</w>
diffic ulty</w>
re plic
hit ler</w>
refer ring</w>
can ton</w>
obj ec
appro aches</w>
predec essor</w>
man sion</w>
mur dered</w>
exhibi tions</w>
convinc ed</w>
la b</w>
tal es</w>
par aly
u z
rec alled</w>
0 3</w>
travel ing</w>
dis banded</w>
organis ations</w>
ed wards</w>
descend ants</w>
soci eties</w>
ser ial</w>
r -
den ver</w>
sa ur
lt d</w>
no ise</w>
comp iled</w>
le man</w>
sh ut</w>
co ins</w>
pe dro</w>
n ash
sho ts</w>
kel ey</w>
sign als</w>
s ag
trou ble</w>
man ia</w>
e c</w>
hospit als</w>
te t</w>
lo ts</w>
swit ched</w>
tribu tary</w>
ac ks</w>
un fortun
bulg arian</w>
186 7</w>
coun t
l u</w>
h ans</w>
affili ate</w>
ide al</w>
the ories</w>
m c</w>
ac ou
cul t</w>
c n
assi sts</w>
hon ours</w>
azerbai jan</w>
shad ow</w>
blin d</w>
bin ding</w>
ph er
will ing</w>
wi dow</w>
sher iff</w>
dies el</w>
har old</w>
mat rix</w>
en to</w>
200 0s</w>
flo rence</w>
vel t</w>
par ade</w>
lu ci
wh at
den nis</w>
manuscri pt</w>
go s</w>
con sist</w>
sha kes
er ror</w>
t us
bou lev
elev ated</w>
pro ph
chi at
ish ers</w>
gl y
s word</w>
new castle</w>
del aware</w>
p p</w>
e at
con ce
inter esting</w>
o th
forc ing</w>
187 9</w>
farm er</w>
ti les</w>
pres by
arti ficial</w>
gover ning</w>
c ester</w>
pay ment</w>
dor f</w>
ger ald</w>
li van</w>
187 5</w>
ven ice</w>
land mark</w>
declar ation</w>
g ad
ul ate</w>
187 2</w>
th ai</w>
swit ch</w>
le o</w>
re vised</w>
bulgar ia</w>
re serves</w>
otta wa</w>
m l
y i</w>
auth ored</w>
h ell</w>
quarter back</w>
shakes pe
wit ness</w>
kilome ters</w>
tan g</w>
sh eff
contrac ts</w>
rebel s</w>
as er</w>
pil ots</w>
el abor
p i</w>
drin king</w>
fir ing</w>
inha bited</w>
recipi ent</w>
di ver
air line</w>
ext inct</w>
manufac turers</w>
im ed</w>
psy chiat
con spir
k ick</w>
pain t</w>
succ ession</w>
m tv</w>
rena issance</w>
ent e</w>
author ized</w>
collap se</w>
ja b</w>
radi ation</w>
accom mo
mon day</w>
sud den
p ack</w>
foun ders</w>
pu tting</w>
stu art</w>
wid th</w>
di alogue</w>
al ger
ly -
cul tures</w>
mid fielder</w>
sec ution</w>
install ation</w>
kr ish
ex plan
re v
y weight</w>
gr ass
i do
ci vic</w>
ten tion</w>
ha v
st ops</w>
acc um
re forms</w>
hard ware</w>
h all
' d</w>
after noon</w>
pri vil
wa i
graph ics</w>
refl ect</w>
hag en</w>
el ic</w>
famili ar</w>
cu ts</w>
ox ide</w>
ch ev
tel s</w>
attac king</w>
under stood</w>
wor thy</w>
gosp el</w>
bur ning</w>
fa iling</w>
sau di</w>
pol lu
b t</w>
gal ax
datab ase</w>
presi dency</w>
comp ati
con sumption</w>
phenom en
in um</w>
leban on</w>
expla in</w>
c ze
d dy</w>
profession als</w>
pu ts</w>
asp ect</w>
0 2</w>
186 8</w>
ang ered</w>
st even</w>
exhi bit</w>
nick name</w>
bisho ps</w>
mo ham
militi a</w>
v ladi
cricke ter</w>
hamp ton</w>
sul livan</w>
nation alist</w>
bic y
ch t</w>
ri val
tempor arily</w>
ot to</w>
ja il</w>
hand le</w>
ran dom</w>
recep tion</w>
del ayed</w>
com positions</w>
wo ol
ab un
push ed</w>
n ak
gir l
trum p</w>
cast er</w>
liqu id</w>
187 4</w>
ill er</w>
f t
p ec
du s</w>
boar ding</w>
fac e
ed die</w>
bomb ing</w>
186 6</w>
mathematic al</w>
k it</w>
cou p</w>
sus an</w>
nor theastern</w>
curren cy</w>
recru ited</w>
dar k
dis solved</w>
roo se
ral ph</w>
broadcast s</w>
there by</w>
earthqu ake</w>
pra yer</w>
leg ally</w>
gather ed</w>
s mi
in ser
vari ations</w>
ti ger</w>
th al</w>
fre ight</w>
war fare</w>
l il
man d
deri v
enzy me</w>
fair ly</w>
st ap
challeng ed</w>
hal f
gil bert</w>
and ro
ex ile</w>
go mer
phy si
myster y</w>
sem inary</w>
lef t-
mo z
sing ers</w>
m w</w>
ra ft</w>
groun d
wh ol
ter ri
187 3</w>
we l</w>
es i
p at</w>
spe ed
speci alist</w>
enc lo
neighbor ing</w>
ag ers</w>
vari ation</w>
psych ological</w>
mar qu
th am</w>
cat ch</w>
alph a</w>
aim s</w>
ci v
thre w</w>
mer cur
kil o
pre mis
innov ation</w>
man ual</w>
preserv ation</w>
hi er
concep ts</w>
li min
arri ves</w>
c iting</w>
feel ings</w>
gran ts</w>
ha us
doc tors</w>
sur prise</w>
bre vi
dang er</w>
et t</w>
hol land</w>
jac ob
l ton</w>
de pot</w>
om ing</w>
consequ ently</w>
der -
re z</w>
h l
mosqu e</w>
cat al
peri o
inter action</w>
en os</w>
wh el
ab u</w>
in put</w>
six teen</w>
g ig
sp l
j ak
roose velt</w>
ili ans</w>
casu alties</w>
archi ves</w>
emp ty</w>
o ber
fr ac
gam e
m ere</w>
2– 1</w>
1 :
whit e
s lu
ro e</w>
boulev ard</w>
th al
sheff ield</w>
up dated</w>
acou stic</w>
greg ory</w>
far ms</w>
ber keley</w>
pal m</w>
de ut
two- year</w>
abol ished</w>
accom mod
lt d.</w>
s field</w>
ww w.
e ter</w>
mont ana</w>
horiz on
cent res</w>
comman ding</w>
mach in
sor ship</w>
inter face</w>
qu ick</w>
ar c</w>
amp a</w>
e at</w>
edit orial</w>
sudden ly</w>
fu r</w>
pl ates</w>
ar bit
indic ating</w>
tom my</w>
n us</w>
c rus
hugh es</w>
equ ation</w>
presti gious</w>
deta il</w>
dimen sional</w>
re treat</w>
f aster</w>
f ay
exper ts</w>
cylin der</w>
bre w
play -
recre ation</w>
fellow ship</w>
str ange</w>
ori um</w>
suspen sion</w>
am in
journ alists</w>
sho ck</w>
ill o</w>
ben ch</w>
fil ip
li me
mas on</w>
as king</w>
re con
j in</w>
dro ve</w>
eng agement</w>
sle ep</w>
re mark
dest ination</w>
a x</w>
al is</w>
cust oms</w>
non- profit</w>
r al</w>
no tice</w>
predomin antly</w>
mont gomer
ter -
est ates</w>
ai ds</w>
s ley</w>
conf used</w>
on au
15 .
uni ons</w>
da w
ob a</w>
ti p</w>
j ag
south western</w>
as ing</w>
gener ate</w>
vul ner
shang hai</w>
oxy gen</w>
cust om</w>
rel ess</w>
certific ate</w>
v s.</w>
y o</w>
nation wide</w>
v s</w>
em ma</w>
well ington</w>
byz antine</w>
kno ck
co ol</w>
surren der</w>
r .
187 7</w>
smo oth</w>
di er</w>
plan es</w>
exten ding</w>
aggre gate</w>
ro b</w>
embas sy</w>
fre est
pro li
n est</w>
jo in
gar rison</w>
ach t</w>
main taining</w>
ke tt</w>
ev ing</w>
refuge es</w>
leg acy</w>
ro d</w>
near est</w>
re construction</w>
ri sts</w>
tal king</w>
arri ve</w>
pla za</w>
gener ations</w>
it ali
fr ing
fac tor
moder ate</w>
pla ins</w>
foot age</w>
perc eived</w>
citiz en
and r
deno min
comm ents</w>
amp hi
do me</w>
me tal
gen es</w>
nash ville</w>
j .
theat rical</w>
col ored</w>
lin er</w>
curricul um</w>
reven ge</w>
ch ers</w>
pe p
shor ter</w>
cel tic</w>
mol lus
tr uc
tr il
episcop al</w>
excell ence</w>
four teen</w>
per cep
associ ations</w>
spo kes
ni ghts</w>
sp ell</w>
re sur
s ony</w>
heav en</w>
mission ary</w>
c ec
pris oner</w>
run ner</w>
so ap</w>
emer ging</w>
south- east</w>
vi i</w>
184 8</w>
head ing</w>
sc out</w>
foc using</w>
inter n
go v
repe at
kill er</w>
de vil</w>
politi cians</w>
alter ed</w>
' ll</w>
metho dist</w>
ac o</w>
pack age</w>
discus s</w>
ver mont</w>
roman ce</w>
h ate</w>
20 -
de ter
observ ation</w>
consider ing</w>
stan ford</w>
impris oned</w>
du bbed</w>
co tt</w>
cli ents</w>
construc t</w>
read er</w>
inter change</w>
prepar e</w>
2 3
deli ber
mu tual</w>
reti ring</w>
b or</w>
argu es</w>
ach i</w>
fe wer</w>
an te</w>
conduc tor</w>
bat ting</w>
d anny</w>
an t-
ho ods</w>
sig nature</w>
sust ained</w>
186 9</w>
gr y</w>
ken ny</w>
sa iling</w>
mc car
mani pul
rel ating</w>
h ali
eng age</w>
mix ture</w>
situ ations</w>
advis or</w>
b b</w>
inten se</w>
lan der</w>
wor e</w>
produc tive</w>
so m
wall ace</w>
ang els</w>
iz es</w>
regar dless</w>
re ha
do mini
re verse</w>
kit chen</w>
g w
accommo date</w>
present ation</w>
remember ed</w>
div ine</w>
spectr um</w>
por ter</w>
an ism</w>
m t</w>
y ak
pre limin
pho to</w>
ven ues</w>
re alized</w>
refer en
18 50</w>
pit cher</w>
victor ies</w>
e is
employe e</w>
refl ected</w>
mer ely</w>
z -
venezu ela</w>
electron ics</w>
g ated</w>
de aling</w>
ear s</w>
dis continued</w>
f lies</w>
d well
develop ments</w>
ir on
she et</w>
se al</w>
stat ements</w>
kar a</w>
philli ps</w>
tom b</w>
j ec
pl ing</w>
bor o</w>
marath on</w>
no -
yugosla via</w>
speci fied</w>
ici ous</w>
bel ong</w>
fi res</w>
re lay</w>
hand ling</w>
exten ds</w>
whe els</w>
less er</w>
as a</w>
all- star</w>
so m</w>
cul min
go dd
inv ented</w>
cor on
re formed</w>
cont ra
re vers
au ck
arn old</w>
acc o</w>
k ad
dec isi
ro okie</w>
bran ded</w>
v ine</w>
sas kat
viet nam
anthro pol
d g
s ay
f ing
t land</w>
dis plays</w>
chie fs</w>
reas on
r& b</w>
i van</w>
chor us</w>
ain s</w>
col leagues</w>
en ne</w>
h man</w>
bor g</w>
z a
ro ster</w>
libr aries</w>
en o
ac on</w>
mar vel</w>
ur u
jo se</w>
ph ones</w>
pe as
sam ples</w>
sk ill</w>
survi val</w>
bac king</w>
indepen dently</w>
cla u
addre ssed</w>
prevent ed</w>
sh a</w>
fel d</w>
r hin
gre g</w>
goo gle</w>
av a</w>
tun e</w>
or n</w>
an nex
fi er</w>
oli tion</w>
dis covers</w>
mu d</w>
ira qi</w>
tri bal</w>
ar d
car ni
cru z</w>
car p
vo iced</w>
work shop</w>
cor k</w>
shakespe are</w>
appe als</w>
d op
pur ple</w>
com for
man ages</w>
pil gri
v ae</w>
le ic
photograph er</w>
stor ed</w>
con sec
bro ther
m d</w>
au x
go ds</w>
ro wing</w>
har vey</w>
ham let</w>
t ter</w>
contribu te</w>
co x</w>
yu an</w>
on ment</w>
rac ks</w>
x x
quan tum</w>
seg ments</w>
main tains</w>
auck land</w>
wat son</w>
dent ally</w>
1– 0</w>
sensi tive</w>
sen ding</w>
i or
palest ine</w>
sla very</w>
d ame</w>
sustain able</w>
m l</w>
stat e-
doc torate</w>
ani me</w>
r t
en abled</w>
en able</w>
adequ ate</w>
ow ns</w>
n ac
char le
ker ala</w>
touch downs</w>
discrimin ation</w>
syn drome</w>
hi a</w>
abra ham</w>
prec ed
es sex</w>
ep tion</w>
k ash
commit tees</w>
new s
m us</w>
16 .
fer r
os a</w>
he ir</w>
rhy thm</w>
ray mond</w>
g ill
dis cover</w>
circu lar</w>
t son</w>
appre n
al .</w>
lo gic</w>
la dies</w>
conqu est</w>
assem bled</w>
haw k</w>
kir k</w>
nu t</w>
g and
camer on</w>
releas ing</w>
differ enti
pak istan
ri vals</w>
circul ation</w>
ri der</w>
i z</w>
fast est</w>
is -
le tt</w>
c and
te eth</w>
cat aly
pr ague</w>
seri ously</w>
headquar tered</w>
em y</w>
bloc k
can yon</w>
chap ters</w>
blu e
pe tr
indi an
contin ent</w>
ph .d.</w>
fla v
agre ements</w>
ab brevi
interven tion</w>
sh en
cog ni
as y
li u</w>
ge dly</w>
doctr ine</w>
s ke
v ag
br ings</w>
follow ers</w>
sh an</w>
arm ies</w>
- time</w>
br us
chec k</w>
r ams</w>
stati oned</w>
var ies</w>
ar -
under went</w>
ff e</w>
mani fe
sug ges
ro d
e in
jo y</w>
ev o</w>
rou gh</w>
it ted</w>
ord ained</w>
p ace</w>
boun ds</w>
cor rid
sw ick</w>
ber ger</w>
du res</w>
separ ation</w>
dis order</w>
commit ment</w>
in gh
comm entary</w>
requ iring</w>
partic les</w>
bur ial</w>
audi ences</w>
e asi
lar vae</w>
b old</w>
ad ic
sand y</w>
s ely</w>
que ens</w>
palest inian</w>
maur ice</w>
v ale</w>
leon ard</w>
con ferences</w>
dre ams</w>
all ing</w>
anti cip
confi dence</w>
me te
gri d</w>
categ or
ber land</w>
prelimin ary</w>
mon ster</w>
citizen ship</w>
gabri el</w>
oper ators</w>
proto type</w>
pri de</w>
ol o</w>
arrang ements</w>
heav yweight</w>
mir ror</w>
fis her</w>
uk i</w>
psy cho
si t</w>
mp h</w>
par ad
plat inum</w>
g ill</w>
divor ce</w>
quar ters</w>
pra ise</w>
alle gedly</w>
custom er</w>
ou l</w>
or bit</w>
north- west</w>
south- west</w>
ch an</w>
montgomer y</w>
k iss</w>
hon ored</w>
ur i
navi gation</w>
p ale</w>
indi es</w>
ch im
ari ans</w>
deman ded</w>
im posed</w>
sever ely</w>
bur ns</w>
art work</w>
fif ty</w>
nomin ations</w>
tas ks</w>
compani on</w>
ang a</w>
cardin als</w>
jo an</w>
mig ration</w>
o e</w>
h .
tis sue</w>
en listed</w>
pun jab</w>
se an</w>
tu ary</w>
event ual</w>
im pressed</w>
identi fication</w>
tri um
surviv ors</w>
thro wn</w>
alum ni</w>
gu err
mum bai</w>
conduc ting</w>
ro bo
crit eria</w>
re s
be st
repeat edly</w>
prefec ture</w>
gram my</w>
cre ates</w>
° c</w>
ad ri
ch at
neighbour ing</w>
consul tant</w>
o va</w>
arab ia</w>
k ul
ow ed</w>
clar ke</w>
guid ance</w>
we t</w>
bom bar
k ie
cler k</w>
impres sive</w>
co t</w>
nation als</w>
rou s</w>
jacqu es</w>
re- elected</w>
o y</w>
vietnam ese</w>
play station</w>
tw enti
e di
cent ered</w>
end a</w>
tur b
lec turer</w>
par tis
b ones</w>
somer set</w>
wi g</w>
the ological</w>
heal th
t man</w>
regi stration</w>
mo ti
restric tions</w>
vari ed</w>
185 7</w>
bene ath</w>
comm u
185 9</w>
helicop ter</w>
qu est</w>
fl ash</w>
person ally</w>
j ab
po or
prov isions</w>
joh ann
journ als</w>
quo ted</w>
fron tier</w>
ay an</w>
pir ates</w>
plan ted</w>
new ton</w>
d ley</w>
absol ute</w>
inter active</w>
ro sen
vi er</w>
ed mon
f r</w>
pri ests</w>
di et</w>
re tain</w>
concentr ated</w>
ali en</w>
more over</w>
legen dary</w>
investi gate</w>
o .</w>
co dic
i x
perman ently</w>
coun ts</w>
un anim
c r</w>
colum bus</w>
v as</w>
p. m.</w>
sty le
ow en</w>
min er
lec tures</w>
pan ama</w>
favour ite</w>
avi er</w>
mil wau
sel s</w>
h d</w>
gym n
hol dings</w>
encour age</w>
t ec
kno ws</w>
-in- law</w>
north- east</w>
re bel</w>
pris es</w>
col ours</w>
proce dures</w>
truste es</w>
freest yle</w>
sp encer</w>
p é
c t</w>
v p</w>
3. 5</w>
u rer</w>
anglic an</w>
referen dum</w>
3 /
require ment</w>
prin ts</w>
re tri
o blast</w>
v ector</w>
celebr ate</w>
ch in</w>
invest ors</w>
in ches</w>
consci ous</w>
dev ast
ch ore
pas sion</w>
stol en</w>
impro ving</w>
det ective</w>
to dd</w>
top ic</w>
shi fted</w>
c ell
yi el
explor ation</w>
i on
k le</w>
g us
su l</w>
h es</w>
tic ul
vo ices</w>
da wn</w>
trans formed</w>
ci o</w>
dr ink</w>
te stam
indones ian</w>
proper ly</w>
super inten
belie fs</w>
presby ter
k el</w>
no tt
mo du
expan ding</w>
cur ve</w>
i os</w>
in ers</w>
ele ph
up coming</w>
wat ching</w>
t ent</w>
fr at
5 /
loc ality</w>
kill s</w>
ah o</w>
le m</w>
j u</w>
syn thesis</w>
deep ly</w>
st ur
il ia</w>
r ings</w>
ge ographic</w>
compris ing</w>
en roll
gather ing</w>
g ö
ep ic</w>
- and-
vir tually</w>
gi ov
ath y</w>
c er</w>
re tt</w>
1 ,0
per th</w>
travel ling</w>
ben nett</w>
ju ven
ar ray</w>
re la
subur bs</w>
c b
mercur y</w>
cre ator</w>
osc ar</w>
renew ed</w>
17 .
shel ter</w>
ment ed</w>
war e
resc u
ta k
w ad
e _
ham burg</w>
col span
t .
l g
mar io</w>
ric a</w>
e ks</w>
encoun tered</w>
lu ther
9 /
coll ect</w>
popul ated</w>
om on</w>
sh are
re al-
( "
moder n
dial ect</w>
er up
de als</w>
n u</w>
la ura</w>
d ell</w>
b alls</w>
id ity</w>
ra ys</w>
as sum
cy p
encoun ter</w>
cu lar</w>
f est</w>
milwau kee</w>
se ized</w>
ha b
em a</w>
ell ation</w>
k ate</w>
hol es</w>
ym outh</w>
stock holm</w>
foo ds</w>
su res</w>
d j
pe z</w>
announc ement</w>
mus cle</w>
civ ilians</w>
# 1</w>
con voy</w>
clos est</w>
story line</w>
ari ties</w>
bran ds</w>
loc ked</w>
m are</w>
pro xim
ester shire</w>
behavi our</w>
le igh</w>
gra in</w>
recei ver</w>
eng ra
rush ing</w>
po is
prov ision</w>
legi on</w>
ge org
pe te</w>
ñ a</w>
interpre ted</w>
anch or</w>
te h
an ten
mess ages</w>
do ms</w>
lo ved</w>
th en
st ability</w>
per formers</w>
bre ed</w>
p aying</w>
lu lar</w>
alp ine</w>
gen esis</w>
aar on</w>
th y
z an
att a</w>
inf ection</w>
she ep</w>
mass acre</w>
doub t</w>
sub urban</w>
hi e</w>
con junction</w>
discipl ine</w>
hybri d</w>
inv en
hu b</w>
girl friend</w>
pian ist</w>
targe ted</w>
in scription</w>
vi ii</w>
mar ty
lo ver</w>
cli ff</w>
ru ins</w>
fur nit
stre ams</w>
voy age</w>
pron ounced</w>
og a</w>
se di
flu id</w>
20 .
ag on
proto col</w>
fi x</w>
ar es</w>
susp ected</w>
thir ty-
ter o
b é
priv ately</w>
stre tch</w>
bu enos</w>
ku mar</w>
oak land</w>
pun ishment</w>
goal keeper</w>
enti ty</w>
exter ior</w>
185 4</w>
op le</w>
c d
g ne</w>
govern mental</w>
rest ore</w>
loc ks</w>
uni tion</w>
jo ins</w>
develop ers</w>
heal thy</w>
ho tels</w>
danc er</w>
bur ton</w>
innov ative</w>
dis appeared</w>
man ila</w>
theore tical</w>
occasi onal</w>
cli ent</w>
deli ver</w>
sco tia</w>
e ating</w>
o o</w>
col li
unfortun ately</w>
ne ys</w>
n as</w>
in land</w>
10 –
ou se</w>
dynam ics</w>
administr ator</w>
r ington</w>
no ting</w>
mer it</w>
sc or
18 .
sc ru
bow ling</w>
atom ic</w>
trans formation</w>
is sions</w>
ph on
pregn ant</w>
f o</w>
y al</w>
z ie</w>
185 5</w>
- like</w>
z in
sa w
nur sing</w>
sh ei
attrac tion</w>
cor n</w>
work shops</w>
comp act</w>
la sting</w>
ig ned</w>
san ti
lis a</w>
codic e_
ran ch</w>
aff ir
tem ples</w>
gradu ates</w>
fer din
gran de</w>
man ga</w>
li sting</w>
en sur
wol f
co des</w>
man it
counter -
pro pri
recogni ze</w>
am al
fin dings</w>
h p</w>
le ys</w>
os is</w>
é s</w>
mar c</w>
rush ed</w>
furnit ure</w>
less ons</w>
2 2
neutr al</w>
ex port</w>
htt p
mar king</w>
def ine</w>
the od
mo ments</w>
sus sex</w>
con go</w>
lan g</w>
pen n</w>
arsen al</w>
stre ak</w>
ti ble</w>
nati ves</w>
jama ica</w>
conflic ts</w>
relati ves</w>
configur ation</w>
reve al</w>
g are
compens ation</w>
6 ,000</w>
sav ing</w>
geor gian</w>
w ick
se bas
poten tially</w>
fe els</w>
ti veness</w>
isa ac</w>
tw it
dur ham</w>
m amm
strong er</w>
home town</w>
paraly mp
am ar
il ers</w>
e ased</w>
lan cas
bar t</w>
pi e</w>
to pped</w>
sex uality</w>
am an</w>
am ent</w>
a o
fas c
coun try
ser ie</w>
i ć</w>
brun swick</w>
west minster</w>
reli able</w>
pat ron</w>
stri kes</w>
new port</w>
st aged</w>
pursu ed</w>
conven i
f at</w>
autom atically</w>
ch ol
napol eon</w>
po mer
tu de</w>
u als</w>
pro stitu
ab a</w>
k ie</w>
tob acco</w>
s mart</w>
ho ped</w>
b j
sh ru
lancas hire</w>
publ ishers</w>
mig uel</w>
c s
re v.</w>
flo ors</w>
associ ates</w>
bas sist</w>
monit oring</w>
mar gin
ta i</w>
pat ch</w>
lin e-
ther mal</w>
din ner</w>
mag nit
dol lar</w>
divor ced</w>
wic kets</w>
re t</w>
pre y</w>
compos ers</w>
re per
op tical</w>
cham bers</w>
br ed</w>
thor ough
p ounds</w>
can on</w>
stand ar
gh ana</w>
accompl ished</w>
est -
cl y
http ://
str ate</w>
pi pe</w>
n ancy</w>
atic s</w>
pe dia</w>
un e</w>
nas a</w>
ap s</w>
explo sion</w>
estim ates</w>
k au
g ations</w>
ell is</w>
con sen
legi timate</w>
celebr ity</w>
gl ou
185 8</w>
ser vers</w>
dur ation</w>
an der
em i
sac ram
var ying</w>
4 ,000</w>
willi am
gover ned</w>
alleg ations</w>
an us</w>
ma k
pon d</w>
refu ge</w>
evac u
equ ally</w>
sla u
la d</w>
d war
ho pes</w>
lime stone</w>
e ved</w>
fle xi
25 .
car ved</w>
phenomen on</w>
specim ens</w>
testam ent</w>
aer ial</w>
tic o</w>
reha bil
im pe
gu ided</w>
g ate
del ay</w>
ra z
le an</w>
rainf all</w>
law suit</w>
gro ss</w>
glaci er</w>
lu ck
at titude</w>
st om
fir ms</w>
sk ating</w>
it ations</w>
— the</w>
cycl ing</w>
es h
bol i
tac tical</w>
so mal
il ly</w>
ro m
li ked</w>
do t</w>
tren d</w>
face book</w>
br e</w>
bo om</w>
9 00</w>
185 6</w>
jus tin</w>
develop er</w>
zo o</w>
re conc
b az
af l</w>
easi er</w>
anti qu
wed nes
men tions</w>
-in- chief</w>
s enti
h indu
activi sts</w>
amm unition</w>
e b
bel ar
competi tors</w>
pakistan i</w>
k ick
pan els</w>
indian apolis</w>
per mit</w>
tre ati
li ke
ab original</w>
ben edic
sugge sting</w>
decreas e</w>
it ely</w>
bar o
trans fer
lou ise</w>
dist ant</w>
ge o
favor able</w>
qu er
stic k</w>
k id</w>
ro l
prov isi
inter im</w>
pal mer</w>
recon na
theore m</w>
mo tors</w>
nick named</w>
oly m
do zen</w>
m age</w>
up graded</w>
e h
hin d
fe eding</w>
z ones</w>
: 30</w>
et -
twenti eth</w>
j in
air field</w>
kilo metres</w>
de er</w>
leas e</w>
great -
al am</w>
gl en</w>
can non</w>
m im
der ly</w>
ho sting</w>
muse ums</w>
acknowle dged</w>
enc y
p ill
is sa</w>
ern est</w>
con sequence</w>
185 1</w>
streng th
mon itor</w>
bos nia</w>
ro vers</w>
four- year</w>
at ar</w>
n ice</w>
thre ats</w>
joh ann</w>
19 .
i ster</w>
- year-old</w>
ven tion</w>
tou rists</w>
ham mer</w>
or th
yl on</w>
observ ations</w>
sil ver
re luc
practic ed</w>
mon o
co pen
pro por
ge ographical</w>
re yn
t ch
kne e</w>
j al
m ec
down load</w>
batt le
plan tation</w>
pro vo
ari um</w>
d ha
scand al</w>
ec cl
alban ian</w>
wil helm</w>
guil d</w>
v alid</w>
luc as</w>
testi mon
b ent
dor o
enjo y</w>
u i</w>
ter rain</w>
set tle</w>
accla imed</w>
fur t</w>
suppor ter</w>
ro of
jav a</w>
ru th</w>
vin yl</w>
reconna issance</w>
pos ing</w>
sco rer</w>
cast ing</w>
dra wings</w>
wal ks</w>
so x</w>
la yers</w>
achiev ements</w>
vari eties</w>
1 30</w>
b hu
met abol
lo ren
photo s</w>
v ital</w>
ta ste</w>
1 10</w>
z on</w>
screen play</w>
lo ading</w>
sp in</w>
ti ght</w>
stev ens</w>
ten sion</w>
m g</w>
ac les</w>
in age</w>
doc toral</w>
uru gu
transpor ted</w>
sanc tuary</w>
archi ve</w>
ch it
east -
fin ale</w>
la v
d ust</w>
occur ring</w>
o y
for k</w>
u li
tri ps</w>
line up</w>
manufac ture</w>
bi ke</w>
with drawn</w>
ni kol
invol ve</w>
aux ili
k ri
sna ke</w>
4 /
integr al</w>
fried rich</w>
observ atory</w>
vari ants</w>
n inten
depos its</w>
f ers</w>
hydro gen</w>
s r
peti tion</w>
st atic</w>
over whel
min eral</w>
proce eded</w>
rho de</w>
cze chos
vladi mir</w>
insec ts</w>
natur ally</w>
czechos lov
comp ounds</w>
arm strong</w>
an ed</w>
ver i
tel es
evalu ation</w>
pe g</w>
end angered</w>
ing o</w>
cu ban</w>
con fusion</w>
stric t</w>
pi er</w>
auto mobile</w>
enroll ment</w>
po se
afric an-american</w>
d ac
mar ble</w>
ra pe</w>
po ets</w>
floo ding</w>
stat u
no tor
carto on</w>
sol ely</w>
ish ments</w>
davi es</w>
z ard</w>
no se</w>
by- election</w>
witn esses</w>
paul o</w>
sen ators</w>
mus ic
compu ting</w>
rhy th
stri king</w>
w age</w>
p ush</w>
ch lor
pr ised</w>
pre cip
chronic le</w>
cor d</w>
health care</w>
on wards</w>
du m
kan e</w>
185 2</w>
fe es</w>
m ys
serv ant</w>
mon gol
flor a</w>
certain ly</w>
spr int</w>
ack er</w>
algori thm</w>
shoul der</w>
2 4.
lear ns</w>
or nam
mou se</w>
thur s
high ways</w>
de en</w>
mar sh</w>
do d
tack les</w>
l is</w>
na i</w>
ca es
nine teenth</w>
hit ting</w>
elim ination</w>
prof ession</w>
con ve
ch uck</w>
environ ments</w>
ec raft</w>
ninten do</w>
el ing</w>
2– 0</w>
portra its</w>
int ent</w>
e iro</w>
gi l</w>
eth ics</w>
broo ks</w>
b ic</w>
form ations</w>
tic es</w>
ic king</w>
copen hagen</w>
rec t</w>
it us</w>
promis ing</w>
s bury</w>
necess arily</w>
presbyter ian</w>
a ine</w>
ag h</w>
publ ish</w>
princ eton</w>
constan tly</w>
d ness</w>
chel sea</w>
gu ez</w>
superinten dent</w>
it ated</w>
expl ore</w>
ul u</w>
o z
val ent
inten sity</w>
u prising</w>
saskat che
dec ree</w>
semi- final</w>
10 1</w>
ric hard
with dra
sequ ences</w>
viol in</w>
g el</w>
py ram
dis gu
santi ago</w>
18 40</w>
pi ke</w>
bl ings</w>
nam ing</w>
stad t</w>
boun ded</w>
ten e
per -
adop tion</w>
torpe do</w>
can ter
for ty</w>
in fer
mil lions</w>
revol t</w>
des ired</w>
conc eived</w>
au to</w>
shr ine</w>
open s</w>
stat e
c ass
mechan ics</w>
kno wing</w>
estim ate</w>
den se</w>
m h
u tt
ill ing</w>
happ en</w>
mid night</w>
promp ted</w>
coll ecting</w>
b ore</w>
plat eau</w>
s oph
saskatche wan</w>
st en</w>
pursu it</w>
z hang</w>
absor bed</w>
rem n
all- time</w>
acqu ire</w>
alter n
gra ves</w>
il -
coun ter</w>
past or</w>
ell en</w>
mo tive</w>
landsc ap
at ol
agre es</w>
he ath</w>
m u</w>
hi p
speed way</w>
bo tt
cyp rus</w>
prob ability</w>
u ous</w>
critic ised</w>
inspec tor</w>
lo g</w>
ferdin and</w>
bet a</w>
do g
prepar ing</w>
all music</w>
s its</w>
f bi</w>
u ph
pre tty</w>
all an</w>
au dit
su z
hand led</w>
hy m
giov anni</w>
2 6.
terror ist</w>
s inc
zi g</w>
syn thes
col in</w>
bank rup
loy al</w>
j am</w>
habit ats</w>
s r.</w>
equ ity</w>
sch war
pi l</w>
oc ity</w>
mar cus</w>
lar ge-
clo thes</w>
v ous</w>
or ch
hol mes</w>
propos als</w>
investig ations</w>
ster n</w>
con stra
se a
coun sel</w>
e- sex</w>
gam ing</w>
accla im</w>
promo tional</w>
galax y</w>
ar ed</w>
philosoph ical</w>
human ity</w>
remark able</w>
on i
wat ched</w>
we i</w>
chil l</w>
lithu ania</w>
won der
mon uments</w>
be dro
run way</w>
log ical</w>
marsh al</w>
ro tation</w>
harmon ic</w>
eigh teen</w>
juli an</w>
tr ick</w>
symb ols</w>
t ing
intro duce</w>
deleg ates</w>
simp son</w>
hin di</w>
up set</w>
p and
embar ked</w>
po well</w>
ab du
stab il
re member</w>
di ving</w>
butter fly</w>
un ve
cap abilities</w>
dre ssed</w>
fore ver</w>
e stry</w>
tele graph</w>
d ong</w>
aggres sive</w>
185 3</w>
bon ds</w>
par d</w>
mem ories</w>
con sent</w>
y ton</w>
pre vention</w>
bra h
jo y
sur rey</w>
lux em
em an
ju da
th under
scri bed</w>
runner -up</w>
su bor
je ts</w>
godd ess</w>
br illi
e te</w>
s ch</w>
depen ds</w>
bankrup t
bad ly</w>
bail ey</w>
copy right</w>
sur faces</w>
accoun ting</w>
terror ism</w>
é r
direc ting</w>
kin ds</w>
tra m</w>
b anner</w>
184 9</w>
clear ed</w>
pos thum
h t
in ver
id aho</w>
nar row
consider ably</w>
ne ur
der ness</w>
dispu ted</w>
re actions</w>
bi bl
blo g</w>
instruc tions</w>
w im
sil s</w>
si blings</w>
over -
ad or
c ing</w>
un ic
meas uring</w>
e es</w>
pen etr
n r
fra ud</w>
cru ise</w>
mi st
pol ar</w>
qu in
v and
exp elled</w>
by e</w>
loc ate</w>
bacter ia</w>
rival ry</w>
life style</w>
instruc tor</w>
eg g</w>
blo om
treas ury</w>
he im
num er
s way</w>
ron ald</w>
am o</w>
magnit ude</w>
k w
des per
sh ine</w>
k em
poli tically</w>
ph ar
op e</w>
capit ol</w>
coun ted</w>
gastro pod</w>
gen eva</w>
ra p</w>
in al</w>
2 7.
str o</w>
convers ation</w>
he m</w>
af t</w>
tr adem
an gular</w>
nat o</w>
vege tation</w>
enh anced</w>
carri age</w>
ref uses</w>
le on</w>
cardi ff</w>
os lo</w>
b ble</w>
ent ing</w>
destroy er</w>
ori entation</w>
t ampa</w>
argu e</w>
engl ish-
d is</w>
a ul
dol ph
mo s</w>
ł aw</w>
jes u
bud d
sc ales</w>
brus sels</w>
or m
a /
consen sus</w>
cap s</w>
dis abled</w>
pe di
ligh ted</w>
her ald</w>
consider ation</w>
k us
ed ings</w>
c tu
ib m</w>
u tility</w>
republic ans</w>
moroc co</w>
at o
2 8
on ey</w>
rit ual</w>
th ri
motor cycle</w>
spec t
1. 2</w>
st aff
pav ili
el o
battali ons</w>
f ford</w>
p r</w>
y as
beli eving</w>
warri or</w>
ap p</w>
inclu sion</w>
sh allow</w>
bah n</w>
clu ster</w>
sol omon</w>
regim ents</w>
andre ws</w>
lo u</w>
ow ing</w>
consum ers</w>
ru pt</w>
dimen sions</w>
184 7</w>
oppos ing</w>
th ood</w>
short- lived</w>
na than</w>
under taken</w>
assign ment</w>
strugg led</w>
land o</w>
juli a</w>
uni fied</w>
id ation</w>
myster ious</w>
ro dri
dun can</w>
ess ay</w>
mal ta</w>
ste in
k ai</w>
domin ican</w>
co in</w>
mon ks</w>
per former</w>
consequ ences</w>
jo sh</w>
pow der</w>
roun ded</w>
fab ric
gu ang
fern ando</w>
port fol
revi ved</w>
2 6
h ass
mon k</w>
cre am</w>
re a</w>
king ston</w>
cro p</w>
pic k
decreas ed</w>
par as
bo d
brad ford</w>
escor t</w>
fo rec
ir i</w>
bom ber</w>
releg ation</w>
inter sec
gib son</w>
r na</w>
diplo ma</w>
cr yp
bit ing</w>
bal lot</w>
bankrupt cy</w>
mon te</w>
smo ke</w>
mic k</w>
ess ays</w>
ad mission</w>
mill enni
zim bab
lu cy</w>
si de
manit oba</w>
corrid or</w>
bo hem
serge ant</w>
enter prises</w>
conn or</w>
ap ar
z om
pres cri
at ro
ig a</w>
three- year</w>
ber y</w>
quar tet</w>
armen ia</w>
phys ically</w>
be th</w>
lan es</w>
cab in</w>
ti um</w>
pro claimed</w>
b har
what ever</w>
as cen
im a</w>
qui et</w>
descri p
bri de</w>
sm en</w>
exc ess</w>
advis ed</w>
s no
sab ha</w>
sur geon</w>
sp ite</w>
scat tered</w>
fran z</w>
bas ement</w>
re mix</w>
mac y</w>
separ ately</w>
inter viewed</w>
b lake</w>
o h
sax on</w>
pal at
flag ship</w>
alban ia</w>
recre ational</w>
n ity</w>
km /
3 5
ke es</w>
ber g
re solved</w>
wi ves</w>
2 2.
ge e</w>
bre ad</w>
vic inity</w>
strate gies</w>
found ations</w>
tru ly</w>
e /
bul k</w>
dis k</w>
radi o
propag anda</w>
pol es</w>
kenne th</w>
horizon tal</w>
cer e
consci ousness</w>
mag i
succe ed</w>
br yan</w>
crow ned</w>
ob sc
inter actions</w>
an a
manuscri pts</w>
- -</w>
impris onment</w>
x y</w>
dri ves</w>
tol l</w>
got ten</w>
fe u
per forms</w>
compati ble</w>
ris es</w>
tan ts</w>
ten ds</w>
bl ade</w>
cas ino</w>
gener a</w>
en dur
un clear</w>
for -
collap sed</w>
val en
subor din
phil anthro
k har
slo pes</w>
k ay</w>
deleg ation</w>
q ing</w>
sac rif
star ter</w>
al lu
2 3.
per cus
re served</w>
re vel
ur ban
comp li
st ag
fi ghts</w>
wi reless</w>
em ily</w>
shi pped</w>
direc tions</w>
bibl ical</w>
m emp
rac hel</w>
eu gene</w>
bal d
discus sions</w>
vers es</w>
luther an</w>
ac et
manag ers</w>
ug anda</w>
m á
pl er</w>
pri ority</w>
proce edings</w>
franç ois</w>
box es</w>
rep airs</w>
eccl esi
ligh thouse</w>
ac a</w>
vel ocity</w>
open -
at eral</w>
sha ft</w>
renov ation</w>
sli de</w>
3 0-
ou ting</w>
assass ination</w>
un ci
ba g</w>
pl ymouth</w>
d har
ri ght
it ly</w>
teamm ate</w>
cycl es</w>
lay out</w>
h ra</w>
ge ological</w>
inqu iry</w>
str ings</w>
ol e
sec ular</w>
ass ed</w>
sw ing</w>
her e
t ina</w>
ent ries</w>
mol ec
inci dents</w>
dev on</w>
mb a</w>
exhi bits</w>
at em
v ent</w>
j oc
reco ver</w>
pe ts</w>
renov ated</w>
accor dance</w>
ed iting</w>
2 8.
ph an
oc ta
richard son</w>
consist ently</w>
memp his</w>
conspir acy</w>
fa ith
canter bury</w>
gen o
a &
dic tionary</w>
tac tics</w>
g av
184 6</w>
re gre
bur g
shir t</w>
re stri
philos opher</w>
se em
poor ly</w>
l ens</w>
o gue</w>
s ick</w>
di o</w>
ch au
com mod
en berg</w>
nur se</w>
he y
tri angle</w>
ish i</w>
semi finals</w>
te x</w>
cathol ics</w>
bri ghton</w>
obvi ous</w>
full- length</w>
aci onal</w>
s ang
et ers</w>
nad u</w>
conver t</w>
carol ine</w>
les lie</w>
an gry</w>
er i
lat eral</w>
vulner able</w>
femin ist</w>
ren dered</w>
mil li
a v</w>
consolid ated</w>
hear ts</w>
co sm
q i
cru cial</w>
le x</w>
alo g</w>
ra w
me try</w>
imp lement</w>
scrip tions</w>
lo ose</w>
prus sia</w>
ty ler</w>
i tion</w>
ou ra
a bu
sub stance</w>
brad ley</w>
inv itation</w>
gra vity</w>
ste pped</w>
counc ils</w>
f k</w>
u b
ob server</w>
commerci ally</w>
organis ms</w>
w en</w>
recur ring</w>
one- year</w>
ale k
semi- finals</w>
bri en</w>
explan ation</w>
tran spar
mel ody</w>
bloc ked</w>
predic ted</w>
condem ned</w>
wh is
list en
ten ded</w>
mo ment
vol tage</w>
ri er</w>
k ak
ec lip
cur tis</w>
cam bo
sk ull</w>
s mu
fri ed</w>
di str
won der</w>
is o</w>
it em</w>
flow ering</w>
s es
ed ges</w>
cir cles</w>
ed mund</w>
s v
or ship</w>
ko so
18 12</w>
spon sor</w>
lo t
at tract</w>
prus sian</w>
lin da</w>
corn wall</w>
legen ds</w>
en de
n most</w>
rub ber</w>
c el</w>
w -
coll ector</w>
ne o-
sculp tor</w>
premis es</w>
su r</w>
some time</w>
ran kings</w>
pra i
wel come</w>
organiz e</w>
gen s</w>
2 4-
auxili ary</w>
ic ia</w>
sloven ia</w>
tic ated</w>
merchan ts</w>
awar d-
bom bers</w>
worl ds</w>
mon tene
colspan =
ques tioned</w>
bun des
hen derson</w>
ar ose</w>
alb any</w>
ail ed</w>
o val</w>
er /
sub species</w>
ec tors</w>
fe ed
out come</w>
direc tor
bri ga
fur n
non eth
minim al</w>
prot agonist</w>
vi k
en do
em in
bre ast</w>
noneth eless</w>
li fied</w>
inaugur ated</w>
hi de</w>
gen res</w>
fos sil</w>
proxim ity</w>
e us</w>
barri er</w>
camer as</w>
ru dol
lou is
dra ws</w>
baron et</w>
tra ils</w>
ti se</w>
las er</w>
pleas ant</w>
en ly</w>
bel grade</w>
under lying</w>
sal ary</w>
law yers</w>
tw ins</w>
truc ks</w>
as i</w>
pat ric
re bounds</w>
gre y
wednes day</w>
car lo</w>
regul atory</w>
p ers</w>
su dan</w>
hur st</w>
super vision</w>
ag on</w>
sna il</w>
bat man</w>
treas urer</w>
bus h
notic ed</w>
g ay
co- founder</w>
e ye
molec ules</w>
dis per
low s</w>
ant arctic</w>
abstr act</w>
cy to
arm a</w>
it ude</w>
extra ordinary</w>
o .
18 0</w>
en dow
en son</w>
clin ic</w>
hali fax</w>
e b</w>
lithu anian</w>
certi fication</w>
consi ders</w>
sp y</w>
mac ro
car bon
game play</w>
deplo yment</w>
pul l</w>
gu atem
fi er
spring field</w>
anth ology</w>
succ essive</w>
introduc ing</w>
ac compan
cal gary</w>
ra pper</w>
ep s</w>
novel ist</w>
mechan isms</w>
al located</w>
fill ing</w>
pay ments</w>
man -
depic ting</w>
b ce</w>
ten s</w>
midd les
pre ston</w>
bl acks</w>
s ell
ban g</w>
o z</w>
con di
withdra wal</w>
avail ability</w>
th el
ic on
eur o</w>
mil ton</w>
d ill
v ed
organiz ing</w>
kno cked</w>
expl ored</w>
e der</w>
gl ory</w>
car ne
inter rupted</w>
achiev ing</w>
ency clo
cre ws</w>
calcul ated</w>
rif les</w>
arg uments</w>
d z
bor ro
millenni um</w>
sol ic
fis cal</w>
lun g</w>
aver aged</w>
twit ter</w>
us sr</w>
hypo thesis</w>
anc ement</w>
du chy</w>
label s</w>
tr ace</w>
po l</w>
em my</w>
sa il</w>
184 5</w>
me h
offen se</w>
re moving</w>
k ann
s ne
er ian</w>
18 30</w>
is i</w>
al be
v all
la v</w>
abl ing</w>
n il
ic eland</w>
an nie</w>
join tly</w>
fre e-
harmon y</w>
rac e
vice- president</w>
wind sor</w>
v et</w>
invest ments</w>
kir k
ch â
on na</w>
lo m
filip ino</w>
nap les</w>
gen ic</w>
alco hol
val ve</w>
spe aks</w>
sti r
post al</w>
whe at</w>
ie ty</w>
style ="
sub family</w>
governor s</w>
bicy cle</w>
tra p</w>
mas k</w>
tic kets</w>
bel fast</w>
recep tor</w>
emig rated</w>
univers it
al istic</w>
em i</w>
pro ven</w>
ri ot</w>
no ti
p att
discipl inary</w>
jes se</w>
vi e</w>
ec k</w>
su ite</w>
conte stants</w>
rober tson</w>
present er</w>
fl ash
p assi
en orm
midd le-
sm outh</w>
pu zz
ga e</w>
str an
grand mother</w>
investig ated</w>
se c</w>
h end
mc donald</w>
restri al</w>
drag ons</w>
diagno sed</w>
ast on</w>
qu it</w>
respec ted</w>
accur acy</w>
thr iller</w>
an atom
after math</w>
hi p-
in ae</w>
stric tly</w>
t su
oc ene</w>
deter ior
au r</w>
gran ite</w>
thro wing</w>
sp elling</w>
ru m</w>
olym pi
lec ture</w>
st airs</w>
ol i</w>
practi tion
k op
proce eds</w>
sw an
pro portion</w>
in er
gymn asi
arm oured</w>
k av
s ni
no tion</w>
n els</w>
volcan ic</w>
t ad
responsi bilities</w>
prohi bited</w>
techn ological</w>
sp elled</w>
di al</w>
hi d</w>
acci dentally</w>
w u
exam ined</w>
distingu ish</w>
ha ir
gu er
constitu ted</w>
rul ers</w>
af c</w>
18 -
ly on</w>
re fin
mic hel</w>
k han
judg ment</w>
st un
em press</w>
complic ated</w>
attrac tive</w>
wat ts</w>
im ported</w>
eigh t-
ro chester</w>
dra u
18 00</w>
ster eo
ri bb
la ps</w>
kin der
app a</w>
h al</w>
fresh man</w>
to mat
1 25</w>
cla ude</w>
t c</w>
col m</w>
f in</w>
se y
initi atives</w>
coo king</w>
ah med</w>
15 00</w>
on y
st el
ra ven
indi e</w>
ne ed
ch est</w>
provisi onal</w>
4 9
thurs day</w>
pol o</w>
o irs</w>
ra iders</w>
spo tted</w>
s den</w>
edmon ton</w>
x ton</w>
p ru
baro que</w>
privil eg
sy no
ar o</w>
qu et</w>
am or
am o
s é
cogni tive</w>
diff er</w>
valu ed</w>
wing span</w>
us -
br as
refer ee</w>
ver n</w>
titu des</w>
ed itors</w>
mo ther
long time</w>
r in</w>
m ā
gar age</w>
d ine</w>
port smouth</w>
ac credited</w>
sp ur</w>
neighbour hood</w>
come dian</w>
partic le</w>
min i</w>
alexand ria</w>
demonstr ation</w>
ido l</w>
wil derness</w>
wood land</w>
consul ting</w>
v y
h f</w>
f inger</w>
th i</w>
tu es
har per</w>
ceremon ies</w>
quarter -
an to
prece ding</w>
frank furt</w>
custo dy</w>
1. 1</w>
dimen sion</w>
facilit ate</w>
apart ments</w>
id ad</w>
cri tically</w>
spec tac
v u
pul sion</w>
w yn
flow ing</w>
v acc
ep id
sh re
fit ness</w>
comfor table</w>
light ning</w>
mon te
g b</w>
1. 6</w>
ho t
all- american</w>
sculp tures</w>
lux ury</w>
183 7</w>
15 -
fol ded</w>
she pher
ho ff
est onia</w>
govern ance</w>
sam e-sex</w>
or lando</w>
box er</w>
bat teries</w>
ge ography</w>
mon roe</w>
reyn olds</w>
le af
g age</w>
ni an</w>
demonstr ate</w>
ari stoc
8 ,000</w>
in y</w>
finan ci
sc outs</w>
2 9.
midd le
bi tion</w>
contrac ted</w>
mur ders</w>
co operative</w>
s p</w>
fr aser</w>
n t</w>
mo ses</w>
br ic
elabor ate</w>
14 0</w>
br ass</w>
depic ts</w>
cr ater</w>
t as</w>
wi e</w>
pla in
m ali
do ver</w>
f é
be ds</w>
bom bs</w>
ne ts</w>
cour thouse</w>
constan tin
che z</w>
mar tha</w>
k os
0. 5</w>
wy oming</w>
mand atory</w>
g .
ta -
7 /
16 0</w>
lan caster</w>
with draw</w>
lo ads</w>
6 /
di ana</w>
par ishes</w>
controll ing</w>
ni fer</w>
hen ri</w>
her ze
gu y
cir cus</w>
arti facts</w>
ne -
pag e
bar rel</w>
ky le</w>
car ol</w>
ra ids</w>
at ories</w>
re id</w>
sol id
dis orders</w>
presi dents</w>
err ors</w>
em ic</w>
un es</w>
p is
factor ies</w>
glen n</w>
satis fied</w>
co stu
as is</w>
pollu tion</w>
continu ously</w>
like wise</w>
ill es</w>
surren dered</w>
clim b</w>
transmit ter</w>
dest ro
t ney</w>
mete or
ste el
cap ability</w>
ven e
bi as</w>
hop kins</w>
bal lo
la ur
sud den</w>
vie w
rec tor</w>
g ator</w>
sc ent</w>
care ers</w>
be tra
nic a</w>
b end</w>
ic hi</w>
ab dul
au s</w>
electr on</w>
fe ver</w>
1. 3</w>
ra j</w>
od d</w>
pleas ure</w>
machin ery</w>
refl ects</w>
sec tors</w>
air y</w>
hawa i
el ines</w>
ing redi
conqu ered</w>
accep tance</w>
myth ology</w>
184 1</w>
cre st</w>
poss essed</w>
win ni
entreprene ur</w>
research er</w>
clim bing</w>
fl am
destro ying</w>
accep table</w>
lo ans</w>
fr ames</w>
ü n
pp y</w>
costu me</w>
ric har
dre am
olog ically</w>
al der
25 th</w>
cycl one</w>
chi p</w>
ci dae</w>
present ing</w>
2. 0</w>
bar racks</w>
bo eing</w>
herze gov
re- election</w>
respon d</w>
over come</w>
end ers</w>
auto biography</w>
3 60</w>
x ter</w>
jen nifer</w>
provi der</w>
deal t</w>
hu a</w>
lo ves</w>
an or</w>
marke ted</w>
meas u
ol d
membran e</w>
con federation</w>
pul se</w>
sing er-
w ishes</w>
ar is</w>
d ances</w>
sar a</w>
comm uni
arm or</w>
o' brien</w>
cher ry</w>
argu ing</w>
wol ver
c king</w>
sett ings</w>
new er</w>
leng ths</w>
contr ary</w>
ro sa</w>
ste ep</w>
bal d</w>
av eng
el eg
bas il
j ess
elec t</w>
ol ic</w>
pri mi
d ment</w>
3 50</w>
acc us
ic -
ac ri
anc estry</w>
cour age</w>
model ing</w>
premi ership</w>
ne gl
char ted</w>
bet ty</w>
li ver</w>
hi r</w>
fl our
see ks</w>
ass is</w>
184 4</w>
hen ri
man date</w>
a. m.</w>
luck y</w>
tack le</w>
illu min
z el
to oth</w>
v amp
ic e
objec tives</w>
ro bot</w>
wal t</w>
ecu ador</w>
gu sta
hu go</w>
measu rement</w>
h ex
fac ade</w>
con sor
ra o</w>
au ction</w>
he ating</w>
coordin ator</w>
class ics</w>
stra it</w>
og ical</w>
min ers</w>
ah mad</w>
ce iling</w>
volun tary</w>
list ening</w>
me yer</w>
wh i
ob taining</w>
unve iled</w>
sc al
gar ten</w>
16 -
sub tropical</w>
desig ners</w>
bal tic</w>
s berg</w>
accompan ying</w>
rescu ed</w>
prot ecting</w>
a ided</w>
americ as</w>
war k</w>
vari ables</w>
on ry</w>
mater nal</w>
carri ers</w>
sal em</w>
har dy</w>
char itable</w>
ci de</w>
z ha
hand ic
el ed</w>
se ating</w>
inno cent</w>
anc a</w>
a via</w>
sacrif ice</w>
squad rons</w>
en lar
prevent ing</w>
2 :
li fted</w>
g le
award- winning</w>
k um
n .
tan z
don ations</w>
yi eld</w>
spe eds</w>
loc als</w>
adv ancing</w>
sk illed</w>
183 6</w>
s worth</w>
to y</w>
lyn n</w>
challeng ing</w>
ster ing</w>
li b
ne o</w>
fa il</w>
sil k</w>
dou g</w>
in ter</w>
2 9
an x
prof its</w>
n ass
d les</w>
pu mp
inven tion</w>
gener ating</w>
ann on</w>
hy de</w>
d ad
fi ers</w>
ra ja</w>
liv est
jam ie</w>
a unt</w>
ed ith</w>
rel la</w>
bre ath
explo rer</w>
vil la
pi pel
key board</w>
syn ago
thor n
k as</w>
v ish
teen age</w>
chur chill</w>
d enti
co hen</w>
amal gam
reason able</w>
in duced</w>
un successfully</w>
183 8</w>
ren e</w>
ali e</w>
dec eased</w>
ad ers</w>
li kes</w>
krish na</w>
ä r
nag ar</w>
do z
k ah
mar ion</w>
hun g</w>
a ther
pen ding</w>
dem o</w>
compla ints</w>
advoc ated</w>
ja ke</w>
pu pil</w>
po cket</w>
ed gar</w>
su its</w>
slo t</w>
d ingly</w>
ap or
son ville</w>
trac es</w>
san sk
tra iner</w>
di ans</w>
4. 5</w>
tar ies</w>
b low</w>
no bel</w>
fos sils</w>
fro g</w>
compris ed</w>
de m</w>
in i
id an</w>
frag ments</w>
mis sil
wrest ler</w>
bi bli
c age</w>
f ton</w>
em bed
an ic</w>
ter ror</w>
n c</w>
y er
f ow
theod ore</w>
slo pe</w>
nomin ee</w>
fo x
ga elic</w>
p d
surve ill
- of-
ber gen</w>
mar x
tot ally</w>
dro pping</w>
j ol
bou l
hay es</w>
every day</w>
wor se</w>
ment ary</w>
roman s</w>
pat ron
mamm als</w>
invest ed</w>
go l</w>
an ton</w>
rein forced</w>
et ti</w>
s d</w>
v est
richar ds</w>
geome try</w>
bro s.</w>
str a</w>
th ick
lic ence</w>
open ly</w>
ev an</w>
buddh ism</w>
sovere ign</w>
insi sted</w>
ecclesi as
as sume</w>
vis m</w>
ke en</w>
high land</w>
h anna</w>
gymnasi um</w>
tu ber
ho w
g able</w>
immig rant</w>
tan gular</w>
alge bra</w>
out lets</w>
ab sent</w>
regul ated</w>
cy ber
ho ok</w>
gu jar
tu bes</w>
so l</w>
cler gy</w>
conserv atives</w>
is ab
to yo
amaz on</w>
rec tangular</w>
mo des</w>
sol ving</w>
jer emy</w>
me g
mor rison</w>
183 9</w>
ma ha</w>
an ie</w>
de vi
k ata</w>
adop t</w>
l one</w>
s ings</w>
mission aries</w>
form ats</w>
re united</w>
an arch
hal t</w>
pavili on</w>
air borne</w>
bla ir</w>
dra ke</w>
pu b</w>
pre sum
b ā
andre a</w>
par all
large- scale</w>
exerc ises</w>
scre ening</w>
mal colm</w>
pot tery</w>
herzegov ina</w>
enti ties</w>
k n
store y</w>
tri m</w>
percep tion</w>
chro mo
fru its</w>
tr o</w>
resi des</w>
sha m</w>
part -time</w>
accommod ation</w>
hip- hop</w>
184 2</w>
correspon dence</w>
pi res</w>
big ger</w>
ti bet
h alls</w>
advant ages</w>
bu ck</w>
lin king</w>
neighbor hoods</w>
andr é</w>
tor n
comb ining</w>
wi ght</w>
tox ic</w>
loy alty</w>
ho e</w>
cla use</w>
re viewer</w>
bo dy
surveill ance</w>
wh ist
inv aded</w>
knock out</w>
bar n</w>
b ats</w>
reti re</w>
wag ner</w>
bes ide</w>
re alizes</w>
danc ers</w>
free way</w>
or o
w ound</w>
hon ey</w>
tribun e</w>
briga dier</w>
gen u
cr ashed</w>
ass ing</w>
ne ill</w>
leic ester</w>
1. 4</w>
gh ty</w>
for bid
ter n</w>
prospec t</w>
class room</w>
mi e</w>
ma iden</w>
cur e</w>
tre ating</w>
istan bul</w>
un likely</w>
recommend ations</w>
ti st</w>
bus y</w>
salv ador</w>
promin ence</w>
mathem ati
mini -
am ine</w>
happ ens</w>
ethiop ia</w>
vac ant</w>
deri ves</w>
cl am
web sites</w>
w we</w>
cott age</w>
carne gie</w>
man dy</w>
ul ster</w>
moun tain
v ar</w>
hang ing</w>
f ü
pri zes</w>
portfol io</w>
cont ents</w>
activ ation</w>
endor sed</w>
/ s</w>
ma ins</w>
car roll</w>
183 2</w>
po m
har m</w>
on ne</w>
contr adic
pe i</w>
sum mers</w>
testimon y</w>
st air
tro op</w>
carp enter</w>
det ected</w>
st aying</w>
s d
el derly</w>
bar n
b ha
g ou
homel and</w>
duc k</w>
sla m</w>
search ing</w>
path s</w>
bor dered</w>
oc a
th ames</w>
bat ted</w>
s ali
sum mar
be ats</w>
fer gus
lea ther</w>
d ining</w>
ap est</w>
se oul</w>
cl a</w>
3 0,000</w>
det ection</w>
we i
st on
hear t
ch op
c itation</w>
po p
fal con
scrip ts</w>
bur ma</w>
bu c
tra pped</w>
witn essed</w>
en g</w>
ag as
li fting</w>
tic ism</w>
ant i</w>
twel f
8 /
ch amp
apol lo</w>
treas ure</w>
pon ti
kar en</w>
missil es</w>
co- founded</w>
g ins</w>
tra iler</w>
sof t
ch ains</w>
comb ine</w>
zimbab we</w>
en acted</w>
hosti le</w>
real m</w>
we st-
mar ía</w>
arc ade</w>
in os</w>
trac king</w>
pharmac eu
— and</w>
y d</w>
juli us</w>
intelli gent</w>
ti p
luxem bourg</w>
livest ock</w>
inc eption</w>
tr unk</w>
t arian</w>
john ston</w>
de func
ti mo
o vić</w>
mar tin
all- ireland</w>
e uc
abor tion</w>
stri ker</w>
rein forc
km/ h</w>
provi ders</w>
spon sorship</w>
partis an</w>
re j
winni peg</w>
petro le
te au</w>
slov akia</w>
ro t</w>
evangel ical</w>
in ate</w>
el an</w>
un certain</w>
f um
chic ken</w>
ran o</w>
int act</w>
hur t</w>
sh ells</w>
a ja</w>
i ors</w>
opin ions</w>
yan kees</w>
mac donald</w>
a ver</w>
bar nes</w>
esp n</w>
wh ar
min ne
x ed</w>
traff icking</w>
dis cre
ho st
si zes</w>
b as</w>
gh tly</w>
re ig
to tal
stat ute</w>
rehabil itation</w>
m our
li fel
3– 1</w>
ha y</w>
elli ott</w>
shi el
f .
cou pled</w>
st ad</w>
conv ent</w>
ab e</w>
gar t</w>
glo b
ic ing</w>
183 5</w>
ther mo
ø r
defunc t</w>
$ 5
he tero
any where</w>
cham ber
line- up</w>
suff ici
u x
abbrevi ated</w>
craw ford</w>
per u
m son</w>
in d
lo ch</w>
g p</w>
e aster</w>
small est</w>
c estershire</w>
pro secution</w>
ad ds</w>
trans form</w>
w ak
man tle</w>
b out</w>
re u
t ong
new found
formula_ 1</w>
yel low
correspon dent</w>
184 3</w>
foun tain</w>
ment or</w>
cre atures</w>
charle ston</w>
bi ographical</w>
si ded</w>
prai rie</w>
nit ro
con st
col oured</w>
maced onia</w>
koso vo</w>
fin alist</w>
25 ,000</w>
fin ite</w>
stra in</w>
kur t</w>
u ps</w>
moder ni
bur ke</w>
ten ham</w>
corn ell</w>
wit ch</w>
di min
system atic</w>
pen sion</w>
stor ms</w>
ol es</w>
defin es</w>
sy rac
struc tured</w>
in us</w>
50 0,000</w>
201 9</w>
ern ity</w>
dro w
phys icians</w>
serv ants</w>
el ia</w>
re x</w>
st av
sen ds</w>
ho ping</w>
coun sel
ph i</w>
diam on
201 1–
specim en</w>
ñ o</w>
real istic</w>
colo m
en se</w>
com fort</w>
v ati
enclo sed</w>
chair ed</w>
bu ying</w>
avi an</w>
el an
thor pe</w>
comman ders</w>
ss man</w>
spher ic</w>
ad her
occup y</w>
ch u</w>
an es</w>
corpor ations</w>
louis ville</w>
tar es</w>
south ampton</w>
lo gan</w>
er man</w>
dra inage</w>
diplo mat</w>
cinem at
doro thy</w>
cont acts</w>
cop a</w>
ug u</w>
re son
reserv ation</w>
com be</w>
brew ery</w>
ten -
k hal
be th
parad ise</w>
new man</w>
dis pat
ir ri
prec ise</w>
par agu
da i</w>
lac ked</w>
hi ding</w>
bav aria</w>
ash tra</w>
d as
guid elines</w>
leas ed</w>
ho mer</w>
tr un
flo wn</w>
mo dest</w>
constantin ople</w>
ang les</w>
n ath
d ences</w>
patri ots</w>
inter ference</w>
align ="
abl o</w>
a ther</w>
respon ses</w>
pro jected</w>
adv ances</w>
equ ations</w>
dispu tes</w>
it v</w>
fe ast</w>
them ed</w>
sle eping</w>
pu t
boy friend</w>
van der
rac ed</w>
st int</w>
run ners</w>
pa ved</w>
la k
cu is
sub way</w>
bb ing</w>
prece ded</w>
che f</w>
ter med</w>
in do-
sor ts</w>
th under</w>
evol u
meth yl
meas ure
threat ening</w>
15 ,000</w>
ker ry</w>
ish a</w>
ter a</w>
es ian</w>
ed win</w>
angel o</w>
ic e-
scand in
e ste
abdu l</w>
country side</w>
ju n</w>
at er
ni xon</w>
ro se
wal d</w>
stead y</w>
v or</w>
nott ingham</w>
no bility</w>
t le
ob st
sand stone</w>
sp ati
newfound land</w>
em issions</w>
but ton</w>
euro vision</w>
wh en
petrole um</w>
m ation</w>
for bes</w>
alger ia</w>
verte br
evi dent</w>
tex t
sh -
ol k</w>
pi ds</w>
ll er</w>
x y
au d
al bi
strong est</w>
cha os</w>
dis si
diagno sis</w>
decor ative</w>
com ment</w>
7 50</w>
spir its</w>
compar able</w>
n acional</w>
mon archy</w>
secre tly</w>
c ic
enorm ous</w>
aw ak
hec tares</w>
gu ad
ti an
t ough</w>
ur ged</w>
develop s</w>
ri m</w>
willi e</w>
port al</w>
gi br
201 2–
bald win</w>
mon arch</w>
dra g</w>
presum ably</w>
agu a</w>
tro y</w>
ta ker</w>
human itarian</w>
mix ing</w>
wal ked</w>
c ay
sho es</w>
pi us</w>
pot ter</w>
cra zy</w>
t ments</w>
tradem ark</w>
ste p
pro sp
sk el
reg ent</w>
n d
fin est</w>
a ic</w>
descen ded</w>
encoun ters</w>
dy lan</w>
d ner</w>
ef s</w>
fun dra
kni fe</w>
re opened</w>
1– 1</w>
mad onna</w>
break fast</w>
it t</w>
pi x
ni e
par amount</w>
c w</w>
conserv atory</w>
re hear
determin ation</w>
s light</w>
he y</w>
arm ored</w>
and ro</w>
theat ers</w>
gro o
la h
pen gu
le is
dark ness</w>
pseu don
ji ang</w>
kaz akh
sansk rit</w>
wol ves</w>
ha ul</w>
pap al</w>
on t</w>
k rist
excep tions</w>
un official</w>
fa ther
ju lie</w>
high lighted</w>
austr ali
lg bt</w>
c ry</w>
up date</w>
seem ingly</w>
cru iser</w>
viol ation</w>
elimin ate</w>
can e</w>
k ai
coordin ates</w>
mar co</w>
syn thetic</w>
ma ya</w>
swi ft</w>
7 ,000</w>
cho col
german -
soph is
deleg ate</w>
beat les</w>
ec a</w>
sher man</w>
refl ecting</w>
thou ghts</w>
20 –
complex ity</w>
dic t
peace ful</w>
explic itly</w>
s on-
p em
san to</w>
war ned</w>
spor t
par ach
st em
syrac use</w>
bra d</w>
ad er</w>
align ment</w>
ancest ors</w>
measure ments</w>
re d-
tril ogy</w>
fat al</w>
es man</w>
an z
cair o</w>
sevent een</w>
la ir</w>
rel s</w>
inf ant</w>
sav ings</w>
tues day</w>
cl ari
fle e</w>
1, 3
pe aks</w>
ro th
201 0–
dis solution</w>
chil ean</w>
buil der</w>
saur us</w>
gh an</w>
pe er</w>
back up</w>
k ru
mort ality</w>
in as</w>
enh ance</w>
rec y
guit ars</w>
torn ado</w>
under took</w>
requ ests</w>
cla ire</w>
o res</w>
divi de</w>
d us
car tri
sebas tian</w>
skir ts</w>
consec rated</w>
ecclesias tical</w>
hum or</w>
narrow ly</w>
kid nap
g t</w>
sw an</w>
nig erian</w>
n ar</w>
am -
b l</w>
nas car</w>
et al</w>
twelf th</w>
ov ich</w>
keep s</w>
flo ating</w>
ter restrial</w>
he id
sol o
expres sway</w>
bel le</w>
em ia</w>
en i</w>
g u</w>
ch assis</w>
jun gle</w>
malay sian</w>
p ound</w>
jan eiro</w>
stri ke
w ished</w>
singer- songwriter</w>
il es</w>
po ster
aber deen</w>
mo on
commissi oners</w>
schem es</w>
im pression</w>
k ang
phi es</w>
model ed</w>
s ement</w>
gr ac
la va</w>
enlar ged</w>
scre ened</w>
man eu
jo el</w>
sch ul
mor row</w>
brilli ant</w>
gall eries</w>
x box</w>
spac ecraft</w>
strug gling</w>
ap a</w>
p ou
rou tine</w>
i ber
modu le</w>
amp li
tor ture</w>
j el
tre m
year ly</w>
te amed</w>
em ir
celebr ations</w>
clar a</w>
transl ations</w>
ni er</w>
in formal</w>
3– 0</w>
integr ity</w>
sh ua</w>
poss ess</w>
gain s</w>
pe de
ac ute</w>
no tre</w>
- general</w>
ment ally</w>
y un
consol e</w>
ri ots</w>
ende av
le p
18 15</w>
immun e</w>
ha st
air -
at ers</w>
c p</w>
part nered</w>
expen se</w>
broadcast er</w>
oca ust</w>
tri p
jum ping</w>
inspec tion</w>
fl at
inten sive</w>
decor ation</w>
play wright</w>
lac king</w>
hol ocaust</w>
o i</w>
i y
chr onic</w>
k ro
lud wig</w>
standar di
by pass</w>
ap plying</w>
cow boys</w>
ad rian</w>
councill or</w>
1, 500</w>
t ally</w>
high lands</w>
i f
un employment</w>
gener als</w>
syn chron
san tos</w>
tal ented</w>
asy lum</w>
fur b
aes thetic</w>
at on</w>
water shed</w>
professi onally</w>
constitu te</w>
1 1-
wal sh</w>
w els</w>
n aked</w>
mag ical</w>
es cal
30 00</w>
o ids</w>
3 0.
blo od
me ts</w>
mist ak
al an
fresh water</w>
ad ul
convic tion</w>
sh at
an onymous</w>
avo ided</w>
sk ins</w>
te aches</w>
for ty-
pregn ancy</w>
id al</w>
inf ected</w>
e ar</w>
wan der
l lan
cau cas
provi dence</w>
fa thers</w>
advis er</w>
y /
dial ects</w>
ra fa
boo th</w>
be ings</w>
en abling</w>
utili zed</w>
secur ities</w>
defin itely</w>
w i</w>
fran ces</w>
oura ble</w>
201 3–
p ar</w>
griff in</w>
du bai</w>
lo o</w>
di stor
thre sh
vac u
ignor ed</w>
bo g
d airy</w>
mo or</w>
persu aded</w>
po s</w>
im aging</w>
fi ji</w>
inst ances</w>
ta m</w>
ga ther</w>
4 5
hand ball</w>
illustr ations</w>
vol .</w>
la c</w>
roll er</w>
b .a.</w>
ch us</w>
e ph
it unes</w>
sav age</w>
es on</w>
re furb
ecolo gical</w>
substan tially</w>
proc essor</w>
s is
dar win</w>
sic ily</w>
10 5</w>
ha ul
m ish</w>
bud apest</w>
or b
sub scri
u fc</w>
differ ential</w>
in k
rho des</w>
lit ur
ó r
remin is
yugosla v</w>
us al</w>
re agan</w>
der ek</w>
ver b</w>
les bian</w>
z ur
termin ated</w>
s eller</w>
lun ch</w>
mix es</w>
comp ul
mollus k</w>
ll c</w>
1. 8</w>
photo graph</w>
sup pose
201 4–
cap turing</w>
expec tations</w>
e ous</w>
rou ght</w>
high lights</w>
soci ology</w>
phas es</w>
syl la
200 9–
rec oun
dor sal</w>
cat alogue</w>
conv ince</w>
bl er</w>
pres sing</w>
co ca
po ds</w>
cor al</w>
mes o
ha j
fil tr
ced ar</w>
contem por
depu ties</w>
sto ke</w>
n h
map le</w>
stra igh
eg al</w>
ge ons</w>
suppose dly</w>
tion ality</w>
0 00</w>
anal og</w>
quanti ty</w>
le z</w>
fin ancing</w>
188 0s</w>
suff er</w>
b ells</w>
m ia</w>
che ese</w>
primi tive</w>
when ever</w>
accor dingly</w>
ern st</w>
m ack</w>
param eters</w>
el event
transmit ted</w>
lingu istic</w>
vamp ire</w>
co smo
civil ization</w>
ceram by
eis en
bar ton</w>
sil ence</w>
li ghter</w>
mad agas
exc essive</w>
g ear
rec tly</w>
le ip
pe aking</w>
met als</w>
effec tiveness</w>
pede stri
publ ishes</w>
c ated</w>
var sity</w>
he d
addre sses</w>
reven ues</w>
reve aling</w>
mon a</w>
elevent h</w>
advoc acy</w>
lyn ch</w>
g im
ath ers</w>
c es
st um
war time</w>
pri me
controll er</w>
collabor ative</w>
si us</w>
proli fic</w>
appe aled</w>
all y-
thir ds</w>
inten si
man ned</w>
le o
3 6
gur u</w>
dis ast
p ga</w>
labor atories</w>
ar ta</w>
ware house</w>
cav es</w>
hy a</w>
surve ys</w>
exper tise</w>
i a
dis on</w>
v ine
val ence</w>
de vil
y ne</w>
seas onal</w>
183 4</w>
the l</w>
cas ey</w>
susp ici
dis pos
ne z</w>
a ve</w>
is ers</w>
urugu ay</w>
ha i
stam ps</w>
hein rich</w>
sovere ign
spor ts
econom ist</w>
t cher</w>
n im
lun ar</w>
cele bri
lin ux</w>
18 14</w>
sett ling</w>
ong -
fergus on</w>
ic ism</w>
lim a</w>
pu mp</w>
clo th</w>
u cla</w>
enco ded</w>
cor ners</w>
k la
discipl ines</w>
q ur
can on
deut sche</w>
os ity</w>
é t
7. 5</w>
ceramby cidae</w>
c f</w>
gl ad
1, 4
trig ger
har ri
shut tle</w>
sil va</w>
sub marines</w>
cly de</w>
ar row</w>
mon opol
smi th
200 ,000</w>
batt les
lan dow
film maker</w>
d ella</w>
ten sions</w>
wag on</w>
mor ton</w>
deman ding</w>
certain ty</w>
oli ve</w>
pe l</w>
th ar
challeng er</w>
o be
ns w</w>
m iz
off shore</w>
sub division</w>
sur gical</w>
man i</w>
dem olition</w>
lo os
v re</w>
k ia</w>
jo shua</w>
bombar dment</w>
sun k</w>
z an</w>
green e</w>
conven tions</w>
simil arities</w>
c u</w>
rep lied</w>
contribu tor</w>
mo thers</w>
ve t
har sh</w>
ash ing</w>
1. 7</w>
tele communications</w>
str ang
do or
cru ci
li a
sur prised</w>
irri gation</w>
no .
tas mania</w>
institu tional</w>
h n
es ia</w>
mo od</w>
hi ma</w>
est y</w>
laun ching</w>
ing a</w>
expla ining</w>
pp e</w>
cli ffe</w>
audit orium</w>
dec i
ou x</w>
exclu ded</w>
lu ther</w>
august us</w>
in ated</w>
gi fts</w>
brid ge
m all
dist ances</w>
ic ist</w>
aci ds</w>
diff ers</w>
tor n</w>
de acon</w>
á s</w>
stre et
geor ge
s ally</w>
sp ic
app lies</w>
le op
mar ina</w>
kar nat
in fr
chan g</w>
celebri ties</w>
as sumption</w>
medi um-
list en</w>
cre ature</w>
" )</w>
smo king</w>
pan ch
consor tium</w>
cur ved</w>
inter act</w>
ex tr
t on-
hi ro
defend ers</w>
to pol
flan k</w>
dis charge</w>
hon da</w>
ris ks</w>
k ów</w>
ci ous</w>
public ity</w>
pain ters</w>
human ities</w>
hem is
ml b</w>
sail ors</w>
fore wings</w>
cent ric</w>
doz ens</w>
cont ing
mid land</w>
gu m</w>
pen alties</w>
be aches</w>
p us
guaran te
gar nered</w>
appro aching</w>
as set</w>
tex tile</w>
esc u</w>
eng aging</w>
joh ns</w>
lu ck</w>
k end
is les</w>
ty pho
my th</w>
st ems</w>
up grade</w>
suff olk</w>
at ra</w>
religi ons</w>
hard t</w>
mil d</w>
gh ted</w>
communic ate</w>
mr s</w>
si ber
fil ter</w>
v ass
pre fer
ogi es</w>
cum berland</w>
constitu encies</w>
dem on</w>
resur rec
thin ks</w>
18 31</w>
http:// www.
cy clo
co de
kic ked</w>
tw er
mass es</w>
go s
trin idad</w>
ex am</w>
k al</w>
inc redi
k and
r p
quali ties</w>
ble don</w>
excep tional</w>
swe pt</w>
oli thic</w>
mi stake</w>
expen ses</w>
ner ve</w>
char tered</w>
o st
kazakh stan</w>
be ast</w>
at tained</w>
proce ed</w>
per t</w>
col league</w>
ori ental</w>
bal lad</w>
k hu
stam p</w>
teach ings</w>
am in</w>
un esco</w>
sti ll
mar ched</w>
an them</w>
lo k</w>
pla que</w>
follow -up</w>
mo hammad</w>
comm it</w>
competi tor</w>
c m
chem icals</w>
broad er</w>
kinder garten</w>
desig ning</w>
chen nai</w>
1, 5
ton gue</w>
g s
autonom y</w>
na ve</w>
201 5–
tibet an</w>
guatem ala</w>
care fully</w>
educ ator</w>
lis bon</w>
deal er</w>
gibr altar</w>
mir r
pap er
elec tri
boo t</w>
form es
r u</w>
fay ette</w>
can cel
n h</w>
de fic
schol arly</w>
quanti ties</w>
he ated</w>
archae ology</w>
an ter
formes family</w>
trac ed</w>
moment um</w>
be i</w>
su ed</w>
ma u
boli via</w>
or o</w>
dam ages</w>
fab ric</w>
gr as
re ward</w>
dis ability</w>
susp ect</w>
mahar ashtra</w>
hum ph
ter race</w>
mat ched</w>
f ati
sacram ento</w>
3 3
pursu ing</w>
cel lular</w>
: #
ash ley</w>
time -
inter ro
franc esco</w>
bul let</w>
juven ile</w>
con e</w>
fun ny</w>
200 8–
" —
c ac
feed back</w>
it u
eth ical</w>
we ed</w>
d ing
vi br
c é
r ational</w>
shor tened</w>
prot ective</w>
emplo yer</w>
ff y</w>
defin ing</w>
ner vous</w>
transl ator</w>
sovereign ty</w>
remn ants</w>
karnat aka</w>
by r
rain bow</w>
i van
identi fying</w>
su ited</w>
mo ss</w>
eleph ant</w>
n ist</w>
oc curren
ir regular</w>
web b</w>
amaz ing</w>
pre ference</w>
super man</w>
re taining</w>
fav ored</w>
r ats</w>
ad am
is ia</w>
str on
seven -
affili ation</w>
ber nar
org ans</w>
gener ic</w>
tribun al</w>
t ana</w>
ari zed</w>
strugg les</w>
pre cur
t ford</w>
mag n
18 20</w>
op ted</w>
emplo yers</w>
communi sts</w>
forbid den</w>
hon dur
ch ak
commerci als</w>
page ant</w>
ne ath</w>
no te
ti re</w>
resi ded</w>
o de</w>
fa ke</w>
after ward</w>
fa ils</w>
fre ed</w>
stat ues</w>
mon etary</w>
whit e-
perio dic
200 7–
mer cy</w>
descend ant</w>
madagas car</w>
conte stant</w>
el is
fran co</w>
continu ation</w>
um i</w>
thom son</w>
is lander</w>
al do</w>
stop ping</w>
vis itor</w>
investig ating</w>
pal e
t ali
modi fications</w>
we t
stand ings</w>
ste ering</w>
fre ely</w>
at p</w>
high est-
arbit r
ens en</w>
re ich
ten dency</w>
revers ed</w>
li an</w>
spi der</w>
near -
e ira</w>
e ted</w>
pseu do
ma id</w>
c enti
fun k</w>
bomb ay</w>
win ters</w>
ic us</w>
determin ing</w>
embed ded</w>
bur ger</w>
gand hi</w>
in form
al to</w>
light weight</w>
tis ed</w>
faith ful</w>
func tioning</w>
ha un
ne um
n ay
b bs</w>
class rooms</w>
ul tra
lau gh
ch ad</w>
ca o</w>
$ 1</w>
institu tes</w>
h ack
val leys</w>
town ships</w>
ski ing</w>
183 3</w>
dd in</w>
choo sing</w>
aster oid</w>
acqu ain
leban ese</w>
co ok
dis closed</w>
ton nes</w>
ori de</w>
ab i</w>
plan ets</w>
f ric
dir ty</w>
cor nel
lat e-
es que</w>
nan o
speci ally</w>
tanz ania</w>
re sign</w>
ro de</w>
as m</w>
si de-
rema ke</w>
cal ci
jess ica</w>
ver non</w>
tel ugu</w>
ra v
ess a</w>
stre ssed</w>
sho ots</w>
re union</w>
ext ant</w>
ca in</w>
sch mid
rot ten</w>
theat res</w>
isi an</w>
au c
broo ke</w>
whit ney</w>
ren o</w>
me ad
ment ation</w>
promis es</w>
0. 1</w>
decisi ve</w>
sc an
brun o</w>
vill agers</w>
hawai ian</w>
resem ble</w>
her man</w>
le m
gr ams</w>
sp are</w>
mid way</w>
co ined</w>
spi der-
bec ca</w>
dr on</w>
advoc ates</w>
minne apolis</w>
det achment</w>
infin ite</w>
hur ling</w>
bed ford</w>
v á
in complete</w>
ed en</w>
sal mon</w>
e ti
park way</w>
shar k</w>
wim bledon</w>
plas ma</w>
progre ssed</w>
bag h
vi d
high light</w>
50 th</w>
j ing</w>
bin ary</w>
attribu tes</w>
ath a</w>
spons ors</w>
trans actions</w>
nor ton</w>
atmo spheric</w>
sit com</w>
max well</w>
haus en</w>
fre i
bit ter</w>
i ka</w>
concep tion</w>
ha ble</w>
attrac tions</w>
war a</w>
tur ally</w>
spect ators</w>
wea ther
oc y
com pression</w>
cool ing</w>
san k</w>
sav es</w>
1, 6
li p</w>
harv est</w>
t ones</w>
hand -
ep pe</w>
vati can</w>
spec ulation</w>
al isation</w>
bol ton</w>
den burg</w>
comment ator</w>
dro ps</w>
car ey</w>
mater i
l or</w>
ä n
viol ations</w>
jack ie</w>
sp it
m ice</w>
e able</w>
sh ane</w>
incorpor ate</w>
bo s</w>
ber mu
re ds</w>
ma th
fre eman</w>
execu tives</w>
inter red</w>
re alize</w>
bal anced</w>
lo gy</w>
bull s</w>
r pm</w>
sh in</w>
sp reading</w>
al together</w>
hi v</w>
come back</w>
afgh an</w>
accep ting</w>
c l</w>
sna ils</w>
pan thers</w>
mar a</w>
ev ille</w>
lo aned</w>
rh ine</w>
t ative</w>
h- ye</w>
dic t</w>
com ed</w>
cultiv ation</w>
in stan
screen writer</w>
wor cester</w>
gar c
ni el
mon sters</w>
ligh t-
in scriptions</w>
dioc es
di aries</w>
ca stro</w>
kh a</w>
el in</w>
con son
roc kets</w>
radi us</w>
cultiv ated</w>
speci alty</w>
trag edy</w>
annex ed</w>
sent ences</w>
i as</w>
shi va</w>
do se</w>
z oo
f rit
tre sses</w>
frat ernity</w>
appoin ting</w>
l .
te c</w>
georg es</w>
aqu atic</w>
do mains</w>
as -
y or</w>
web ster</w>
imp lies</w>
le u
synago gue</w>
caes ar</w>
mh z</w>
em brac
commis sions</w>
s onic</w>
prote sters</w>
sac ks</w>
en za</w>
ow ski</w>
sac ked</w>
arm ament</w>
ju ana</w>
gu in
a the
sugges tion</w>
mig rated</w>
cuis ine</w>
mor tal</w>
br o</w>
p oun
nor wich</w>
si ves</w>
dis placed</w>
fro st</w>
p ter
ton ight</w>
roll s</w>
r w
alpha bet</w>
j r</w>
sket ch</w>
percus sion</w>
w ür
to ire</w>
cho ices</w>
di xon</w>
acc essed</w>
s- up</w>
c is
he aling</w>
teen ager</w>
for gotten</w>
leng thy</w>
amphi bi
andro id</w>
it alia</w>
hol low</w>
deep er</w>
k ok</w>
king doms</w>
break through</w>
ran dy</w>
den is</w>
y uk
fre y</w>
go -
col a</w>
str u
sop ho
r ying</w>
wel comed</w>
ju bil
explo sive</w>
beng ali</w>
ro pe</w>
ambi tious</w>
fear ed</w>
hel sin
shar p
to sh</w>
t ta</w>
dedic ation</w>
20 20</w>
k son</w>
m apping</w>
de tention</w>
al am
chur ch
michel le</w>
ero y</w>
narr ator</w>
hy dr
comman ds</w>
m ing
hon ey
posi tioned</w>
hand ful</w>
r ite</w>
t au
emer itus</w>
er nal</w>
sp a</w>
abun dant</w>
albe it</w>
du plic
ri gi
persi st
hel ena</w>
ham as</w>
est onian</w>
edit or
la wn</w>
assum ing</w>
ir d</w>
chronic les</w>
ran ger</w>
docum ent
v y</w>
tu p</w>
con flu
air ports</w>
201 6–
k yo
lim itations</w>
na i
coron ation</w>
repe at</w>
mit ting</w>
li ti
du chess</w>
patri arch</w>
eng er</w>
il i</w>
secur ing</w>
compos ite</w>
councill ors</w>
princ es</w>
evolu tionary</w>
aw i</w>
k .
iz er</w>
op tional</w>
wrec k</w>
fl y
liber als</w>
landscap es</w>
ri fic
en ables</w>
ab bo
my an
rever end</w>
gym nas
ver bal</w>
o ch</w>
toyo ta</w>
vir al</w>
ag en</w>
paralymp ics</w>
ari us</w>
i que</w>
con sul</w>
regar ds</w>
bar ely</w>
pe g
bl amed</w>
o vers
flag s</w>
ch est
state wide</w>
2012– 13</w>
f jor
d ys
ver a</w>
scen ic</w>
ti ary</w>
cal yp
motor way</w>
la z
chap man</w>
sp lit
com promise</w>
h m</w>
fel ix</w>
part ner
ici ary</w>
cur ves</w>
ra e</w>
so fia</w>
elec torate</w>
czechoslov akia</w>
shar ks</w>
port able</w>
priv acy</w>
leip zig</w>
person alities</w>
2 d</w>
h ac
' an</w>
uni forms</w>
at oms</w>
carni val</w>
c ement</w>
or ous</w>
day time</w>
ell es</w>
10 2</w>
first- team</w>
fro zen</w>
le a</w>
sp ur
m ly</w>
co ve</w>
al ma</w>
mo ist</w>
symbol ic</w>
over time</w>
el berg</w>
emplo ys</w>
precip itation</w>
gu i
ru d
19 th-century</w>
sha pes</w>
10 ,
woun ds</w>
unci ation</w>
sp in-
nati vely</w>
18 25</w>
ing rad</w>
gr un
supp lement
weak ened</w>
dd le</w>
bl essed</w>
gate way</w>
ro ss
recommend ation</w>
2014– 15</w>
motiv ated</w>
per pe
ori sts</w>
rober to</w>
mon ica</w>
swit ching</w>
k amp
jan et</w>
shar on</w>
discus sing</w>
co leman</w>
analy st</w>
mer a</w>
under water</w>
di on</w>
viol et</w>
s ad</w>
liv ing
emo tions</w>
virtu e</w>
fair y</w>
det ect</w>
posthum ously</w>
pro se</w>
arch diocese</w>
2013– 14</w>
speci fication</w>
e ches</w>
z z</w>
v at
ab bot</w>
wi i</w>
mar ching</w>
pier ce</w>
me al</w>
super vised</w>
gar dner</w>
or um</w>
no tation</w>
vil lain</w>
m vp</w>
4 0-
189 0s</w>
new sc
cle ment</w>
tur ks</w>
str and</w>
at las</w>
is hi
i ya</w>
budd ha</w>
suffici ently</w>
helsin ki</w>
sub mit</w>
ad ditions</w>
cor p
encour aging</w>
tomat oes</w>
anticip ated</w>
succe eding</w>
ide ology</w>
bat sman</w>
y acht</w>
cran e</w>
ip el
frequ encies</w>
helicop ters</w>
un ite</w>
va ult</w>
é n</w>
shepher d</w>
un -
que z</w>
chen g</w>
commemor ate</w>
resem bles</w>
bas ket</w>
m k</w>
acri tic</w>
algori th
bo o</w>
t ate</w>
prof essors</w>
battle field</w>
bar k</w>
pipel ine</w>
uni fication</w>
homel ess</w>
purch asing</w>
pione ering</w>
war rant</w>
expl oring</w>
bot tle</w>
ir is</w>
om i</w>
bor is</w>
trium ph</w>
th ian</w>
el lip
mo bility</w>
mas cot</w>
br is</w>
ste ep
mu tations</w>
mo tto</w>
jor ge</w>
some where</w>
sp aw
tun nels</w>
in ist</w>
sophis ticated</w>
y ah</w>
mas cul
do c</w>
ham mer
rafa el</w>
,00 0,000</w>
pro ud</w>
vent ures</w>
ril ey</w>
1. 0</w>
davi dson</w>
sco ts</w>
mem oir</w>
ceremon ial</w>
aband on</w>
leis ure</w>
ta y
b is</w>
thor n</w>
in herit
adv ancement</w>
pu rely</w>
happ iness</w>
vi k</w>
ch ir
y on
aff ecting</w>
har i</w>
ag enda</w>
m assi
it er</w>
astronom y</w>
sum mary</w>
pred ators</w>
super -
complic ations</w>
mo b</w>
se eded</w>
ne al</w>
pione ers</w>
la -
g no
compla ined</w>
incorpor ating</w>
photo graphic</w>
so ils</w>
lis le</w>
ge off
compli ance</w>
w ages</w>
ta iled</w>
inc y</w>
vi al</w>
kie v</w>
an as</w>
is y</w>
chocol ate</w>
temp o</w>
myan mar</w>
l t.</w>
al ter</w>
pro pon
mon ter
e e
cont acted</w>
sh ri
continu ity</w>
lat via</w>
adol f</w>
am ino</w>
to ys</w>
se aled</w>
o ath</w>
l ance</w>
s ory</w>
europe ans</w>
ex eter</w>
a an</w>
emplo y</w>
em ail</w>
lo vers</w>
g t
ul i</w>
fru str
to il
sac rific
meth od
p aired</w>
reg ained</w>
re ef</w>
apost olic</w>
h t</w>
h our
dr y
licen sing</w>
mad ras</w>
y es
br ace</w>
t ent
om o</w>
docum entation</w>
z burg</w>
rel ates</w>
fol kl
ber ra</w>
in tim
fle tcher</w>
exclu ding</w>
wan ting</w>
gr in
tren ds</w>
re- released</w>
wy n</w>
phil harmonic</w>
ke -
ti tan
s ick
mar l
18 21</w>
car son</w>
ste al</w>
mag nific
to po
timo thy</w>
acc ess
$ 6
v enti
dou bled</w>
collec tively</w>
d all</w>
ili ation</w>
camp uses</w>
f au
river side</w>
ha iti</w>
supp lement</w>
read ily</w>
ori ent
q atar</w>
al igned</w>
telev ised</w>
d well</w>
incorpor ates</w>
at orial</w>
v fl</w>
de on</w>
5. 5</w>
cat alog</w>
trad ers</w>
ph s</w>
j ian</w>
spati al</w>
auto motive</w>
all a</w>
por ch</w>
forti fied</w>
arch ipel
pr as
18 28</w>
án dez</w>
at u
n ash</w>
recy cl
6. 5</w>
vacu um</w>
o ons</w>
par a</w>
25 -
label ed</w>
ag e-
grou ped</w>
q a
cro m
li e
constitu ent</w>
evacu ated</w>
am bro
re becca</w>
ag ar</w>
jack sonville</w>
coordin ation</w>
miner als</w>
l ily</w>
par an
vi d</w>
pi st
george town</w>
dec iding</w>
pi an</w>
d ging</w>
es —
she ets</w>
fin ishes</w>
as an</w>
jeff rey</w>
cr am
refl ection</w>
le one</w>
russi ans</w>
cur ator</w>
mb o</w>
compla int</w>
naz is</w>
tas ked</w>
negoti ated</w>
1, 2
inc ur
w re
lib ya</w>
to ps</w>
s l</w>
re marked</w>
on ate</w>
m t
ac cred
wis dom</w>
fin anced</w>
botan ical</w>
3– 2</w>
bran don</w>
mur der
lo ses</w>
b ley</w>
des ir
demonstr ations</w>
encomp asses</w>
vic ar</w>
nucle us</w>
alu min
fren ch-
slov ak</w>
ric an</w>
jan a</w>
de ity</w>
new com
in o
gar cia</w>
10 4</w>
is e
tal ents</w>
mar ker</w>
bau m</w>
answ ered</w>
comb ines</w>
hun ters</w>
min t</w>
where by</w>
mat ch
counter part</w>
perf ec
18 10</w>
prepar atory</w>
mi kha
cambo dia</w>
life -
din o</w>
re solve</w>
no ck</w>
til la</w>
se tt</w>
am shire</w>
c uc
me o</w>
gam bling</w>
re stra
trac y</w>
du et</w>
asp ir
inc enti
mat ur
bad ge</w>
y ang
si dney</w>
teles cope</w>
holid ays</w>
montene gro</w>
toler ance</w>
flexi ble</w>
z ak
ev ich</w>
con sumed</w>
18 24</w>
par ap
peri ph
dram atically</w>
en ko</w>
north um
down stream</w>
ra h</w>
4 0,000</w>
portra yal</w>
sou ther
il o</w>
ro land</w>
ac es</w>
ill -
cl are</w>
volcan o</w>
nutri tion</w>
2015– 16</w>
sla vic</w>
emphas ized</w>
colo gne</w>
jen kins</w>
accep ts</w>
two- story</w>
h é
con fined</w>
wit t</w>
kash mir</w>
s ven
rit a</w>
on t
nor mandy</w>
tur bo
ne e</w>
refuge e</w>
k ati
ca ke</w>
ch s</w>
k istan</w>
le ver
coll ision</w>
cycl ist</w>
eat en</w>
posi t</w>
mat ching</w>
w inter
50 00</w>
car r</w>
win chester</w>
d h</w>
tall est</w>
ensu ing</w>
pol i</w>
pi stol</w>
tu cker</w>
bu tt
la i</w>
hy der
col lo
ul us</w>
al y</w>
philipp e</w>
invent or</w>
boy d</w>
po to
ol ine</w>
vi g
divisi ón</w>
sha h
de grad
tax i</w>
hann ah</w>
z agre
stal in</w>
x u
bur st</w>
pap ua</w>
sti g
prec ision</w>
2011– 12</w>
un expected</w>
se ated</w>
anthropol ogy</w>
re ich</w>
deliber ately</w>
isol ation</w>
gen .</w>
en ary</w>
fi ber</w>
selec tive</w>
ancest or</w>
j et
bol t</w>
e cho
post- war</w>
jud ged</w>
b low
tol edo</w>
notor ious</w>
co- wrote</w>
streng then</w>
fac to</w>
te ens</w>
no mi
ang o</w>
per cy</w>
west ward</w>
imag ery</w>
fore stry</w>
gar s</w>
fr amed</w>
whit es</w>
dis pen
w r</w>
k oo
s age</w>
under go</w>
prosecu tor</w>
st ation
clu sters</w>
fitz gerald</w>
te ars</w>
ev ic
formula_ 2</w>
n c
dis cover
autom ated</w>
n m</w>
colom bian</w>
st one
marri ages</w>
memor able</w>
re war
teamm ates</w>
vi sta</w>
albi on</w>
18 29</w>
4 50</w>
in mates</w>
ap pen
17 0</w>
compe tes</w>
exp ired</w>
geoff rey</w>
cour ty
cas c
ch ero
ci gare
r í
sty led</w>
her al
hard core</w>
trig ger</w>
reli eved</w>
count ess</w>
tren t</w>
loos ely</w>
s g
ne gro</w>
li ers</w>
guarante ed</w>
mo or
tu re
p ha
gu ides</w>
fl ames</w>
ati on-
unanim ous</w>
or g</w>
resi stant</w>
rati on
syndic ated</w>
mal ay</w>
orb ital</w>
comman der
con rad</w>
ship yard</w>
m ell
me i
answ ers</w>
gre eks</w>
aci ón</w>
spokes man</w>
dar ker</w>
tra its</w>
sk aya</w>
r er
en tic
em ble
reduc es</w>
man ning</w>
five- year</w>
s win
cad et</w>
benedic t</w>
quarter ly</w>
anc o</w>
the ft</w>
sum mon
ingh amshire</w>
si eg
shei kh</w>
14 -
r ina</w>
brow ns</w>
swim mer</w>
gar h</w>
fin alists</w>
boo st</w>
b ast
je al
fe ud</w>
alber to</w>
ech o</w>
la ying</w>
ur ai</w>
in e-
belar us</w>
stre aming</w>
peas ants</w>
deriv ative</w>
n é
quarter finals</w>
conflu ence</w>
thro at</w>
sp art
overs aw</w>
instruc ted</w>
er ik</w>
trans action</w>
ant arc
o mar</w>
folkl ore</w>
br ack
tun es</w>
0. 3</w>
recep tors</w>
gi us
min ton</w>
re formation</w>
nic ar
cir ca</w>
pol is</w>
12 ,
moham med</w>
l ó
truste e</w>
s worn</w>
1, 8
pu e
he ed</w>
et to</w>
je wel
met acritic</w>
sc rat
techn ically</w>
pi pes</w>
shoo ter</w>
mus h
30 th</w>
commod ore</w>
colum nist</w>
v c</w>
poin ting</w>
a –
vege tables</w>
fre el
th at
dod gers</w>
ri des</w>
swi m</w>
reper toire</w>
rec all</w>
mon arch
alexand ra</w>
o dor
ecolo gy</w>
partner ships</w>
survi ves</w>
al fon
borro wed</w>
av es</w>
qu inn</w>
1. 9</w>
i hood</w>
malay alam</w>
sk ele
j agu
bar b
de fault</w>
s wee
d man</w>
ali ke</w>
k os</w>
premi um</w>
femin ine</w>
amp ed</w>
s ach
wi ki
out comes</w>
bri a</w>
fus el
n en</w>
w ade</w>
st ain
o ws</w>
dest inations</w>
wh er
organiz ational</w>
5 0-
show case</w>
ar ise</w>
est e</w>
us d</w>
mo sa
archipel ago</w>
18 –
compar ative</w>
burn t</w>
l oun
sa i</w>
angel a</w>
ex position</w>
dec lining</w>
excav ations</w>
voc ational</w>
st ained</w>
n ing
simul ation</w>
y ar</w>
joy ce</w>
destroy ers</w>
th é
asser ted</w>
worl d-
it y-
runner s-up</w>
six ty</w>
scre ens</w>
at op</w>
phosp hor
her mann</w>
nicol as</w>
2. 4</w>
sc o</w>
c bc</w>
win ston</w>
im port</w>
ros se</w>
escap es</w>
al ps</w>
hu ang</w>
present ly</w>
18 13</w>
se tte</w>
hi atus</w>
bra him</w>
sket ches</w>
l al</w>
el ong
f cc</w>
y ad
p ablo</w>
play- off</w>
tim ing</w>
past oral</w>
qu it
roc ke
geor g</w>
2016– 17</w>
t ability</w>
low e</w>
( s
schmid t</w>
concentr ations</w>
2. 2</w>
x avier</w>
al ley</w>
wi el
ti ps</w>
h ing
don ation</w>
distur b
patric ia</w>
lou d</w>
o maha</w>
id ge</w>
d ana</w>
particip ant</w>
3 7
0. 2</w>
jesu it</w>
wr ong
th ia</w>
ap er</w>
di ve</w>
cal cut
con fis
flo yd</w>
poly nomi
so dium</w>
r ama</w>
re actor</w>
nav ar
t l
au burn</w>
cu ps</w>
surviv or</w>
mon key</w>
key boards</w>
cost umes</w>
nation ale</w>
am ended</w>
è s</w>
exce ed</w>
and hra</w>
explic it</w>
stu ck</w>
ag nes</w>
par ody</w>
k ou
ensur ing</w>
recru it</w>
fo ren
ob serve</w>
eu x</w>
bron cos</w>
se th</w>
expe di
ribb on</w>
vis count</w>
equ ili
bu r</w>
niel sen</w>
lifel ong</w>
201 7–
g /
anten na</w>
me tic</w>
success es</w>
listen ers</w>
constan tine</w>
r bi</w>
spi ke</w>
gg ins</w>
span ning</w>
ass ment</w>
adv ent</w>
j -
se d
p on</w>
zagre b</w>
op hon
bar ack</w>
dec l
vis a</w>
ann ah</w>
ste fan</w>
cec il</w>
hor ri
3 3.
break down</w>
un common</w>
b ays</w>
dis abilities</w>
in ians</w>
wat er-
roun d
p neum
concer to</w>
mo ths</w>
bull dogs</w>
k ris
2. 1</w>
cl ash</w>
char ging</w>
su tton</w>
post p
kol kata</w>
2. 3</w>
me z</w>
gymnas tics</w>
ph ere</w>
k hor
2010– 11</w>
zi er</w>
mol do
y az
cancel ed</w>
li me</w>
heim er</w>
correc tly</w>
an u</w>
mu si
parti tion</w>
can berra</w>
calcut ta</w>
in stant</w>
glou cester</w>
wic ket</w>
speci alizing</w>
ap er
invent ory</w>
o ven</w>
phenom ena</w>
ka therine</w>
af ford</w>
moder n-
caf e</w>
occup ies</w>
ass essed</w>
whol ly</w>
ti bet</w>
air ways</w>
por no
lum ber</w>
wat ch
ran a</w>
inherit ance</w>
don nell</w>
horiz on</w>
cor in
oper as</w>
my r
hart ford</w>
back er</w>
ang ola</w>
18 26</w>
yn n</w>
uz be
se in</w>
es burg</w>
cu bs</w>
á l
b h
devil s</w>
2 4th</w>
trou t</w>
al on
200 6–
sub mission</w>
be es</w>
st es</w>
fear s</w>
under neath</w>
po sting</w>
co vent
sho ot
k ens</w>
juda ism</w>
sop hie</w>
acqu iring</w>
ven us</w>
pill ars</w>
in su
len der</w>
hor se
ge ology</w>
emin ent</w>
al ore</w>
prohi bition</w>
ur ani
ur st</w>
re alism</w>
and ra</w>
hu i</w>
ob servers</w>
es hip</w>
incar nation</w>
mid lands</w>
sex ually</w>
self- titled</w>
treat ments</w>
blo ody</w>
ro wer</w>
clean ing</w>
quar ry</w>
arm our</w>
our se</w>
1, 7
no body</w>
kidnap ped</w>
out skirts</w>
tou ched</w>
exp on
cap ped</w>
10 8</w>
ro x
es i</w>
ex o
line age</w>
10 3</w>
tex t-
now ad
ster ling</w>
rou ge</w>
every body</w>
the ologi
fac tions</w>
18 18</w>
vi kings</w>
let te</w>
ra pids</w>
brow n
v ich</w>
g ag
financi ally</w>
ici ency</w>
psychiat ric</w>
best- selling</w>
sopho more</w>
shir ley</w>
emer gence</w>
3 8
mi ghty</w>
re side</w>
editor -in-chief</w>
descrip tions</w>
gen ome</w>
i ro
pol ls</w>
oph one</w>
b ates</w>
sal on</w>
mack en
nur ses</w>
nation alism</w>
lac ks</w>
cor ner
in sufficient</w>
avi v</w>
stri pped</w>
st ine</w>
nor dic</w>
chem ist</w>
path way</w>
co ch
re spir
de commissioned</w>
ch ances</w>
reli ed</w>
nowad ays</w>
nor d
pat ents</w>
ou tr
hol ly</w>
s aga</w>
spec tro
satis faction</w>
promo tes</w>
3 :
hast ings</w>
lu min
dis placement</w>
astronom ical</w>
garc ía</w>
ak h</w>
develop mental</w>
mc kin
sub jected</w>
middles ex</w>
jose ph
antarc tica</w>
am bul
ra hman</w>
in san
bel o
af ford
rel ate</w>
k aw
hier archy</w>
i ̇
an twer
cro w</w>
pseudon ym</w>
tr on</w>
it ate</w>
log istics</w>
exp ect</w>
un usually</w>
ju pit
insi ght</w>
rec ap
sc u
resi dences</w>
mc cl
es e-
ut ely</w>
brad y</w>
sand ers</w>
eth nic
fore ig
ig i</w>
pe ers</w>
ero sion</w>
in da</w>
alter natively</w>
ro ma</w>
install ations</w>
hyder abad</w>
u ka</w>
j ar</w>
bul ary</w>
sho cked</w>
ir ving</w>
christ ine</w>
patter son</w>
arab ian</w>
inter val</w>
hol t</w>
u. s.
ex ports</w>
mer ge</w>
pleas e</w>
aff e</w>
ne y
saf ely</w>
fusel age</w>
im men
my self</w>
ret ali
hell en
johann es</w>
ap ex</w>
13 5</w>
congre ssman</w>
b olog
crimin als</w>
thresh old</w>
long- time</w>
chor d</w>
zz i</w>
out let</w>
m b</w>
ne wark</w>
sy ri
sail or</w>
margin al</w>
b idae</w>
s war
mic key</w>
inhi bit
du dley</w>
sur -
lo b
j ah
ful ler</w>
tane ous</w>
om an</w>
fant astic</w>
ingredi ents</w>
pyram id</w>
po ols</w>
st ack</w>
" ("
molecu le</w>
care er-
n ina</w>
a aa</w>
declar ing</w>
renew able</w>
nin e-
in tru
er mo</w>
en ligh
all er
a bet
propor tional</w>
bedro om</w>
jun c
coordin ate</w>
f ence</w>
dol ph</w>
che ap</w>
im an</w>
chr ys
lo bb
de posit</w>
ra ine</w>
fe at</w>
t ational</w>
up stream</w>
au d</w>
it ative</w>
cap ital
ty re</w>
so ver</w>
c e-
ten or</w>
des k</w>
man ship</w>
br am
cy n
over night</w>
dir t</w>
un aware</w>
lac rosse</w>
de v</w>
genu ine</w>
pri ory</w>
coun ting</w>
& amp</w>
z ers</w>
star k</w>
dis ser
zz o</w>
fier ce</w>
un named</w>
infl ation</w>
stu ff</w>
es ville</w>
under way</w>
school ing</w>
covent ry</w>
c b</w>
ic onic</w>
er ings</w>
b ent</w>
fish eries</w>
l ass
3 4
,00 0-
ati vity</w>
yn es</w>
9 9.
gor ous</w>
nor ther
ty r
gujar at</w>
cam eo</w>
cal ed
pre valent</w>
neighbor s</w>
ag i</w>
sun set</w>
cra fts</w>
cat ches</w>
9 8.
sho res</w>
valen cia</w>
multi p
f are
m ound</w>
em bry
comple ment</w>
d b</w>
techn ic</w>
tar a</w>
mini ster
deliver ing</w>
ent y</w>
ha us</w>
com /
id -
in flic
179 3</w>
ol ig
po ker</w>
repor ters</w>
a thetic</w>
180 1</w>
n ingham</w>
may er</w>
18 16</w>
am anda</w>
wonder ful</w>
sub merged</w>
skele ton</w>
sa c</w>
10 6</w>
jo ey</w>
tre k</w>
de t</w>
bi -
de bris</w>
f og
non profit</w>
bag s</w>
o kin
ment -
cle aring</w>
tre vor</w>
daw son</w>
carto ons</w>
car l
del ic
contrac tor</w>
ti des</w>
sou ls</w>
depen d</w>
ful l
g ore</w>
o aks</w>
od ds</w>
tro l
trans -
al t</w>
stri ps</w>
bo re
spec ul
ar lington</w>
str as
j ective</w>
aff ects</w>
addre ssing</w>
g dp</w>
her n
ur u</w>
u c</w>
hi king</w>
modi fication</w>
mem oirs</w>
floo ded</w>
desper ate</w>
we in
number ing</w>
st ac
soft ball</w>
sal am
fire arms</w>
ele anor</w>
— a</w>
180 6</w>
wrest lers</w>
secre ts</w>
secre tari
prepar ations</w>
mi stress</w>
don o
circu its</w>
li g
am en</w>
tu ition</w>
gaz a</w>
thr ust</w>
wit z</w>
sax ony</w>
iti s</w>
car lisle</w>
mccar thy</w>
t any</w>
occup ying</w>
fit ting</w>
sing ular</w>
apol ogi
in ev
mid west</w>
18 27</w>
hor n
pp en</w>
negoti ate</w>
wheel er</w>
chec k
bermu da</w>
det ached</w>
basil ica</w>
compar ing</w>
spider- man</w>
y- general</w>
bri um</w>
1 20
algorith ms</w>
min orities</w>
c ello</w>
vo ter</w>
ru by</w>
id ated</w>
tum or</w>
concentr ate</w>
co w</w>
o ka</w>
jubil ee</w>
be aver</w>
mun ster</w>
me ado
el u
min is
ku wait</w>
pen ny</w>
ske p
matthe ws</w>
on set</w>
war wick</w>
inter fer
re organized</w>
at e-
ko vić</w>
christi e</w>
ch as
scra pped</w>
sensi tivity</w>
je e</w>
hon est</w>
push ing</w>
pe pper</w>
13 -
ren ted</w>
da h</w>
victor ious</w>
d are</w>
har m
advertis ements</w>
all i</w>
aero space</w>
g op
bar t
guaran tee</w>
will is</w>
oc ar
wav el
sinc lair</w>
glu co
pear son</w>
bas que</w>
br ush</w>
w ich
bur den</w>
forti fications</w>
2009– 10</w>
gius eppe</w>
at om</w>
net te</w>
iv ory</w>
defin ite</w>
sal is
d ü
re marks</w>
z em
i b</w>
no ble
stel lar</w>
ß e</w>
sil icon</w>
elan dic</w>
rep aired</w>
rudol f</w>
maced onian</w>
gy m</w>
10 0-
smu g
s late</w>
titu lar</w>
ess ence</w>
r t</w>
pre fer</w>
8 0s</w>
thro ws</w>
den cies</w>
sig ni
l ity</w>
expen dit
187 0s</w>
ext inc
dun dee</w>
bever ly</w>
c andy</w>
aver aging</w>
alumin um</w>
den s</w>
explo itation</w>
bundes liga</w>
ph ras
fa ul
rit uals</w>
ore st</w>
origin ating</w>
ep er</w>
coordin ated</w>
at titudes</w>
bre ach</w>
vo wel</w>
dolph ins</w>
dr unk</w>
over looking</w>
ah a</w>
re tains</w>
euro pa</w>
ye v</w>
strength ened</w>
fac ial</w>
pi ed
sin king</w>
lo tus</w>
1 11</w>
har d-
ham a</w>
y ama</w>
c f
b ü
ö n
teh ran</w>
i ma
deb ates</w>
ch ick
cat cher</w>
desir able</w>
min ds</w>
bes ie
t d</w>
dem e
emer ge</w>
prof itable</w>
un defeated</w>
oun s</w>
introduc es</w>
inj ection</w>
ra u
valent ine</w>
tran scription</w>
bul le
k v
2 2nd</w>
cro ft</w>
the or
fr action</w>
dwell ing</w>
avo iding</w>
mat ing</w>
pir ate</w>
ad m
ko t
mu tation</w>
x en
ne o
tap es</w>
tan e</w>
ag ra
l ü
gra di
mu k
acci dents</w>
cn n</w>
gre n</w>
ho we</w>
sh annon</w>
dis hes</w>
o ted</w>
institu ted</w>
j ing
terri ble</w>
stead ily</w>
so s</w>
ferr ari</w>
fasc ist</w>
tax onom
chero kee</w>
practic ing</w>
is ely</w>
sp ans</w>
di versi
youn g
180 3</w>
don na</w>
ic elandic</w>
est a</w>
del ays</w>
dec ay</w>
tun isia</w>
rac ism</w>
p bs</w>
w ong</w>
s sel
ad joining</w>
jan i</w>
2017– 18</w>
grand daughter</w>
fring e</w>
p its</w>
demonstr ating</w>
accus ations</w>
kr as
lic h
commu ter</w>
bran ding</w>
woo dy</w>
admir alty</w>
p asha</w>
d ash
jen ny</w>
dis co</w>
eter nal</w>
n ance</w>
lev y</w>
antwer p</w>
rabb it</w>
ten se</w>
ben son</w>
mongol ia</w>
lom bar
tri angular</w>
bad minton</w>
meado ws</w>
sun shine</w>
la sts</w>
2, 500</w>
ti dal</w>
in filtr
super natural</w>
co ven
evac uation</w>
dan u
lam bert</w>
ā n</w>
gen ius</w>
yo ko
mathemati cian</w>
augu sta</w>
pro sper
pic ks</w>
le in
ath am</w>
astr onau
2 20</w>
ex ams</w>
ro l</w>
modern- day</w>
orchestr al</w>
shiel ds</w>
appren tic
ha p
car av
por to</w>
gi fted</w>
cu lo
over head</w>
cy pri
trans fers</w>
geno cide</w>
pharmaceu tical</w>
collec tors</w>
w ski</w>
gl oria</w>
over s</w>
gar de</w>
y emen</w>
per secution</w>
peter son</w>
so vie
pam ph
ches hire</w>
adju sted</w>
is om
joc key</w>
dead ly</w>
net working</w>
counter parts</w>
car lton</w>
beet les</w>
ace ous</w>
calci um</w>
brig ades</w>
f its</w>
domin ance</w>
sho re
breath ing</w>
salis bury</w>
v int
. 3
le ón</w>
man o
rhe tor
plan tations</w>
her ed
ta ils</w>
. the</w>
pi g</w>
l ings</w>
resi dency</w>
ra jas
confron ted</w>
inv isi
b /
whol es
ter tiary</w>
accoun ted</w>
w em
poe tic</w>
ail ing</w>
fal con</w>
im peri
turn out</w>
bang alore</w>
promin ently</w>
mer i
gonz á
proph et</w>
re vision</w>
pr att</w>
mag dal
rac ec
plo ts</w>
18 19</w>
repe ti
pe ters</w>
f en</w>
slo gan</w>
ex iled</w>
wes ley</w>
al ert</w>
fe asi
pl ural</w>
water loo</w>
recru iting</w>
lo ving</w>
tra uma</w>
sub stances</w>
per ennial</w>
d af
clar ence</w>
rot ating</w>
ru t
k ry
wander ers</w>
kow ski</w>
impro vis
ff er</w>
grand children</w>
di oxide</w>
í s</w>
mat a</w>
gener ator</w>
o' connor</w>
mod ules</w>
z ia</w>
ob sol
loren zo</w>
sum mer
son ian</w>
celebr ating</w>
an- born</w>
2 3rd</w>
assi sting</w>
cor pus</w>
birth place</w>
bra ves</w>
be e
hemis phere</w>
ak in</w>
r ca</w>
fa una</w>
ve in</w>
fundam ent
merchan dis
g p
ag ara</w>
h ound</w>
leg is
fig ured</w>
car men</w>
simil arity</w>
bry ant</w>
b age</w>
en vel
defe ats</w>
fl ame</w>
lind say</w>
be ir
bas ically</w>
mo to</w>
vi able</w>
mu gh
philli p</w>
char est</w>
18 22</w>
g ger</w>
air play</w>
de af</w>
cont amin
arab s</w>
y og
j ai
alu mini
t ata</w>
u pri
revel ation</w>
off spring</w>
180 9</w>
construc ting</w>
n esses</w>
conclu des</w>
pas sive</w>
bas al</w>
t ona</w>
buil ders</w>
conta iner</w>
. 2
200 5–
bagh dad</w>
fl esh</w>
camer oon</w>
do yle</w>
k lu
col ts</w>
bro m
tit ans</w>
expres sing</w>
transfer ring</w>
no de</w>
c ous</w>
anatom y</w>
fl ats</w>
con den
ac s</w>
pa c</w>
ye h</w>
tw ood</w>
en i
practition ers</w>
sop rano</w>
jun g</w>
br ick
arch es</w>
stre am
g é
str ates</w>
lo bby</w>
re b
un conscious</w>
12 –
dre sden</w>
spe eches</w>
ren s</w>
z za</w>
13 ,
d ams</w>
re joined</w>
jupit er</w>
x ii</w>
sco pic</w>
domini on</w>
stu dent
sh u</w>
lieuten ant-
governor ate</w>
defend ant</w>
identi fies</w>
bo b
em e</w>
prec isely</w>
he p
li o</w>
inten tions</w>
alek sand
z el</w>
wa ke
si p</w>
j k</w>
12 8</w>
au stro
ty ing</w>
proc essed</w>
ou tre
pre historic</w>
ff er
gaz ette</w>
individu ally</w>
v am
ah l</w>
susp ects</w>
ari d</w>
17 –
ham mond</w>
ra k
1 15</w>
per mits</w>
la bs</w>
el ena</w>
accur ately</w>
15 –
un released</w>
dev i</w>
fl anders</w>
18 23</w>
ge t
wor m</w>
dis man
met all
gal ac
sub divided</w>
jer ome</w>
suff rage</w>
phys icist</w>
bre ast
arch er</w>
col t</w>
inser ted</w>
glo mer
stu tt
sm all-
macken zie</w>
fore sted</w>
sho e</w>
ail s</w>
re constructed</w>
kann ada</w>
fing ers</w>
he avier</w>
caf é</w>
no des</w>
de pres
chap lain</w>
tur in</w>
pue bl
ty pe
ad mits</w>
s under
k ley</w>
utt ar</w>
c am</w>
cent er
l ds</w>
u sion</w>
on ica</w>
el yn</w>
bow ler</w>
ambul ance</w>
10 9</w>
gi ble</w>
encyclo pedia</w>
z hen
high- speed</w>
an za</w>
mi k
dem ise</w>
ac company</w>
prosper ity</w>
b- side</w>
equili brium</w>
hu t</w>
a ar</w>
ma -
eth no
exten sions</w>
correspon ds</w>
3 5.
b hag
on o</w>
6– 3</w>
4 :
pil lar</w>
reluc tant</w>
c ds</w>
tr ades</w>
pas sport</w>
isab ella</w>
sovie ts</w>
precur sor</w>
targe ting</w>
30 0,000</w>
ep onymous</w>
alfon so</w>
bl on
courty ard</w>
compe ten
col our
se iz
and es</w>
rec la
deb ts</w>
eclip se</w>
wh ale</w>
sem an
gal way</w>
poly technic</w>
announc ing</w>
de o</w>
renew al</w>
no ah</w>
in form</w>
te tra
1, 9
brother hood</w>
go tt
en o</w>
b mw</w>
lati tude</w>
reinforc ements</w>
kle in</w>
bill ed</w>
pan -
spir al</w>
p ach
ń ski</w>
cat ch
18 17</w>
- off</w>
compul sory</w>
poss essions</w>
uc i</w>
an ita</w>
panch ay
lou gh</w>
ch airs</w>
corru pt</w>
in tosh</w>
af raid</w>
inv ari
gl ori
testi fied</w>
patri otic</w>
nitro gen</w>
gonzá lez</w>
dig it
spectac ular</w>
4 7
mar x</w>
ren tal</w>
sanc tioned</w>
ori o</w>
accred itation</w>
bl ades</w>
s v</w>
exce eded</w>
juris dic
cer y</w>
can vas</w>
k w</w>
ul tr
6– 4</w>
low land</w>
co ding</w>
hum id</w>
exam ine</w>
p ist</w>
excav ated</w>
venezu elan</w>
his pan
anc estr
er as</w>
ver bs</w>
h ale</w>
a fro
mountain ous</w>
ath lon</w>
phan tom</w>
divisi onal</w>
re building</w>
lo ok
col .</w>
umb rella</w>
180 8</w>
ven d
g g</w>
3 4.
p ad</w>
hass an</w>
expres sions</w>
arch e
z able</w>
ti ans</w>
ver de</w>
flo ods</w>
bud dy</w>
osc ill
hu t
ass am</w>
ló pez</w>
appoin tments</w>
ni ece</w>
mu t
ati le</w>
s f</w>
) -
inv o
cun ningham</w>
un related</w>
ma i</w>
secre tar
expe ditions</w>
exam inations</w>
clam ation</w>
cla yton</w>
paragu ay</w>
rit es</w>
ti us</w>
german ic</w>
ad el</w>
hun ger</w>
bang kok</w>
flu te</w>
turb ine</w>
b p</w>
g ging</w>
y us
am en
de tained</w>
179 4</w>
se ym
pl ague</w>
n r</w>
1 12</w>
16 –
id o</w>
t les</w>
co- written</w>
d w
leop old</w>
phosp hate</w>
deut sch
pi ers</w>
academ ics</w>
pat ches</w>
2. 7</w>
mon um
bar rett</w>
typho on</w>
anti- aircraft</w>
speci al
179 5</w>
supervis or</w>
de a</w>
pr one</w>
par sons</w>
ref using</w>
fe eds</w>
f ry</w>
in timate</w>
work force</w>
10 7</w>
plain ti
di ane</w>
defic it</w>
gu an
hun t
stri pes</w>
prob able</w>
con ten
trac tion</w>
ric ky</w>
lo pez</w>
th or</w>
lu f
dwar f</w>
mar kings</w>
an u
satell ites</w>
i brahim</w>
mu d
cast e</w>
pleas ed</w>
invest or</w>
sim mons</w>
shor ts</w>
po ison</w>
mā ori</w>
dispos al</w>
privileg es</w>
re ate</w>
or dering</w>
comp rise</w>
to morrow</w>
thes es</w>
tis su
stron gh
number -
de u
r atic</w>
av i</w>
16 ,
y our
im mer
dar t
econom ically</w>
sw amp</w>
mc a</w>
august ine</w>
embar r
co y</w>
sco pe
reminis cent</w>
abdul lah</w>
ven er
broad ly</w>
behavi oral</w>
179 8</w>
afford able</w>
recogni zes</w>
re treated</w>
we ber</w>
dis charged</w>
lim iting</w>
graph s</w>
indic ation</w>
met ap
è ne</w>
wash ed</w>
parach ute</w>
trigger ed</w>
ro ses</w>
ro p
ho pe
s q</w>
w ool</w>
do dge</w>
can n
infer ior</w>
12 ,000</w>
reli ability</w>
and i</w>
de ath
jud iciary</w>
syno d</w>
wat t</w>
sco py</w>
geome tric</w>
cre di
no bles</w>
may o</w>
ne ville</w>
tor res</w>
ann ers</w>
co e</w>
ch un
au dition</w>
(s )</w>
ch ip
care ful</w>
under going</w>
pet ty</w>
zz y</w>
electr ons</w>
14 –
d ash</w>
tra vis</w>
17 -
black burn</w>
_ _
g yp
soci alism</w>
in scribed</w>
der by
car th
isra el
2008– 09</w>
com part
reg ain</w>
scen ario</w>
bu charest</w>
explo res</w>
el ey</w>
gusta v</w>
half way</w>
sym metry</w>
represent ations</w>
sc outing</w>
er os</w>
d ried</w>
fi ba</w>
emp ir
9 0s</w>
e po
reg ina</w>
recru it
imp acts</w>
enc e-
mikha il</w>
la fayette</w>
ei l</w>
tribu taries</w>
salv ation</w>
bas el</w>
mc ken
cap tained</w>
auth entic
pro long
bar ker</w>
ban ker</w>
nor m</w>
ad en
may be</w>
d á
nomin al</w>
cal m</w>
ch et</w>
joh an</w>
me a</w>
camp ing</w>
ap e
appren tice</w>
pon t</w>
vi king</w>
18 11</w>
ou tw
emir ates</w>
17 90</w>
man di
li f
è res</w>
hi ps</w>
gene tics</w>
bl end</w>
are z</w>
imag ination</w>
pack ers</w>
ethiop ian</w>
180 7</w>
v ings</w>
statu tory</w>
hat ch</w>
falcon s</w>
mir acle</w>
lam b</w>
ur o</w>
sevent e
te en-
pomer anian</w>
fun gi</w>
pic king</w>
o x</w>
d /
it -
tw ist</w>
dam as
si r
ver t</w>
sh ade</w>
her b</w>
rob bery</w>
d wight</w>
ig en
bo died</w>
o' neill</w>
black -
enti c</w>
180 5</w>
dest iny</w>
can nes</w>
ev en
0. 4</w>
bat ch</w>
in tra
han sen</w>
k ine
extinc tion</w>
slau ghter</w>
ma ha
3 9
med ley</w>
re viewers</w>
a& m</w>
yo shi
cat alan</w>
sk in
progres sion</w>
in ability</w>
an atol
abun dance</w>
est one</w>
y en</w>
hind wings</w>
hi -
stan is
h bo</w>
green wich</w>
$ 7
mar i</w>
win es</w>
bu g</w>
extrac tion</w>
constra ints</w>
st ays</w>
ob struc
chamber lain</w>
ja w</w>
x ia</w>
an no
bus ch</w>
ancestr al</w>
we ars</w>
ta k</w>
si d
decl are</w>
bur g-
stri es</w>
roun d-
ath en
wavel eng
2. 8</w>
k ies</w>
av on</w>
hondur as</w>
minis eries</w>
fl int</w>
pra yers</w>
sur passed</w>
alumini um</w>
assi mil
14 ,
presi ded</w>
alle gi
ig u
e j
em ili
go a</w>
termin ation</w>
hit ch
ten ants</w>
magi strate</w>
sp ear
kid n
inj a</w>
proj ection</w>
or ni
k man</w>
am us
bloc king</w>
now -
h y</w>
diamon ds</w>
sti pul
mar se
re development</w>
australi ans</w>
9. 5</w>
barri ers</w>
pl and</w>
bre tt</w>
ti on-
andre as</w>
lau rel</w>
dan e</w>
mü n
north- eastern</w>
bra ke</w>
tur f</w>
distur bed</w>
drin ks</w>
promo tions</w>
kar l
tran sp
il d</w>
urani um</w>
teen agers</w>
bol sh
derby shire</w>
inter vals</w>
han k</w>
mah on</w>
d ab
9 7.
19 0</w>
clim bed</w>
li ability</w>
hu an</w>
2. 6</w>
ren dering</w>
soci ally</w>
re production</w>
z ards</w>
seym our</w>
ly ric</w>
wi zard</w>
han over</w>
spo t
clou ds</w>
anx iety</w>
ex ported</w>
implement ing</w>
ma fia</w>
li am</w>
bolog na</w>
pi vo
aci ous</w>
ov o</w>
g ó
s m</w>
hy p
imp lied</w>
tran sc
mor tar</w>
essi e</w>
spin- off</w>
re productive</w>
hy drau
ru e</w>
pe ac
b r</w>
m ington</w>
pa w
ca b</w>
cam den</w>
di abet
v og
um ber
jo ke</w>
s by</w>
n ir
o sa
sp ells</w>
hel met</w>
uc a</w>
at ari</w>
bu ster</w>
unanim ously</w>
br ag
ari sto
fre d
mean ing
gu ys</w>
blu -
pat ernal</w>
bi o</w>
h d
pe er
v ad
g ard</w>
anto ine</w>
vo id</w>
hag ue</w>
commun al</w>
gra vel</w>
re alizing</w>
er n</w>
de fl
a q
loc alities</w>
neighbour s</w>
h ick
om ni
comp ly</w>
ques tion
eigh teenth</w>
o to
conn ell</w>
bra ve</w>
ar te</w>
pass ages</w>
strike outs</w>
ho o</w>
bl y
p sal
cen s
groun d-
ra ins</w>
pun ch</w>
f ing</w>
3 8.
pharm acy</w>
disser tation</w>
pp a</w>
bab a</w>
hydrau lic</w>
am id</w>
sli p</w>
pit ching</w>
po dium</w>
sen sor</w>
ac c</w>
regul ate</w>
ran dolph</w>
hered itary</w>
qu ay</w>
l und</w>
subordin ate</w>
h c</w>
r c</w>
har der</w>
se als</w>
- long</w>
home stead</w>
commun es</w>
trac ked</w>
w ir
ref usal</w>
am mon
pilgri mage</w>
bar ber</w>
perfec tly</w>
best- known</w>
af ri
tur a</w>
su b</w>
somal ia</w>
ou tri
el vis</w>
confron tation</w>
appreci ation</w>
rum ors</w>
adju st
moz art</w>
jacob s</w>
recipi ents</w>
therap eu
prostitu tion</w>
am i
posi tively</w>
p ays</w>
agon ists</w>
r hi
u ro
gene al
metal lic</w>
auth entic</w>
wig an</w>
180 4</w>
fe athers</w>
x u</w>
ron nie</w>
fil ing</w>
tax ation</w>
summon ed</w>
c as</w>
med alist</w>
fundra ising</w>
re covering</w>
der a</w>
wee ken
shi fting</w>
186 0s</w>
der ry</w>
) (
pre cious</w>
chan ge
dar in</w>
13 –
miss al</w>
su ther
dis covering</w>
de vised</w>
fix ture</w>
dr ill</w>
wor ms</w>
ren ault</w>
fl our</w>
an ne
har dly</w>
fle ming</w>
boo ts</w>
de ton
kid ney</w>
bron x</w>
d rought</w>
ack ers</w>
bah á
anter ior</w>
iv y</w>
eg an</w>
share holders</w>
thor ne</w>
th on</w>
mig r
2 ,0
poster ior</w>
dispat ched</w>
formula_ 3</w>
s f
am ber</w>
can op
ren é</w>
180 2</w>
mascul ine</w>
en rich
l b</w>
ta p</w>
s lower</w>
p to
mal i</w>
sch we
stutt gart</w>
patron age</w>
mini ature</w>
indi rect</w>
our t</w>
er y
s amp
fam ed</w>
gran ting</w>
comment ators</w>
off erings</w>
ip sw
diabet es</w>
7 0s</w>
defen ses</w>
bl ame</w>
ow l</w>
y in</w>
us c</w>
med itation</w>
song writing</w>
m uni
th ie
ł ó
simp lified</w>
exc iting</w>
car b
complex es</w>
up dates</w>
tai pei</w>
emplo ying</w>
prot ec
document aries</w>
be ans</w>
zh u</w>
viol ated</w>
ar en
y oga</w>
com b</w>
cor ro
ari e</w>
ar k
mi ti
symp athetic</w>
2 1-
ran dom
foo th
ologi c</w>
bu lar</w>
sus cep
fer tile</w>
marqu is</w>
jim a</w>
graph ical</w>
chan an</w>
ou n</w>
const ellation</w>
c zy
179 2</w>
lat ors</w>
tar s</w>
occurren ce</w>
maj ors</w>
z ig
ut c</w>
two- thirds</w>
shad ows</w>
monaster ies</w>
griff ith</w>
z or
d ong
cen sorship</w>
p act</w>
ste aling</w>
fer tili
blo wn</w>
absol utely</w>
y am</w>
in tel</w>
2 6th</w>
post graduate</w>
k ō
tissu es</w>
chor al</w>
refer enced</w>
dam aging</w>
n j
candi d
15 ,
u .</w>
str ö
ipsw ich</w>
gl ac
ser y</w>
s ü
devast ated</w>
t ful</w>
qu é
r amp
cal li
accum ulated</w>
innov ations</w>
william son</w>
ent -
ab olition</w>
pra ising</w>
ver dict</w>
defini tions</w>
confir m</w>
campaig ned</w>
vol k
solid arity</w>
sunder land</w>
ru ined</w>
right- handed</w>
steel ers</w>
cryp to
commun ism</w>
poss esses</w>
z ü
re build</w>
por a</w>
elis abeth</w>
char ities</w>
vac ation</w>
inf ections</w>
de i</w>
apo calyp
bav arian</w>
hum orous</w>
fle mish</w>
back grounds</w>
d ship</w>
kno x</w>
popul arly</w>
ma e</w>
seas on-
argu ably</w>
compar e</w>
be ard</w>
an /
ad diction</w>
h are</w>
quali fications</w>
ag r
on d
brou gh</w>
al om</w>
mo v</w>
co her
v ap
pat rons</w>
rho des
spec ulated</w>
lah ore</w>
tu r</w>
ic ker</w>
x ing</w>
li bre
w inger</w>
high- profile</w>
interpre tations</w>
z ol
qu in</w>
ref use</w>
c ents</w>
ma h</w>
in take</w>
fon t</w>
s ri
aur ora</w>
y ana</w>
capit als</w>
endow ment</w>
renov ations</w>
xi v</w>
hom age</w>
depos ited</w>
low ered</w>
hu d
ful ness</w>
secretari at</w>
ra i</w>
ic c</w>
fran co
2 7th</w>
re designated</w>
lead ed</w>
pl c</w>
in tri
o da</w>
k k
can nab
st aging</w>
postp oned</w>
fe ather
weigh ed</w>
no s</w>
plat oon</w>
q -
6 0s</w>
cal vin</w>
x- ray</w>
sens ors</w>
ad verse</w>
cli ffs</w>
in adequate</w>
ad -
my ers</w>
re ty</w>
distribu te</w>
enti n</w>
pres sures</w>
di g</w>
sp ani
tuber culo
fellow s</w>
c ag
fin n</w>
tim eline</w>
es /
regi on
issu ing</w>
differ ently</w>
w ash</w>
ap pal
wra pped</w>
ar tis
mer cen
peru vian</w>
gr amm
ord nance</w>
i w
po z
h m
an om
wea ver</w>
dem ographic</w>
ass ess</w>
lat vian</w>
cap su
shru b</w>
eu ph
al /
land marks</w>
four th-
stev enson</w>
des k
fen g</w>
cre scent</w>
3 6.
dram as</w>
by ron</w>
con sort</w>
mu st
re gency</w>
ch at</w>
se af
17 ,
179 6</w>
s ells</w>
pack aging</w>
in forms</w>
chev ro
surve yed</w>
e il
tur tle</w>
proli fer
lan kan</w>
dis par
t ancy</w>
possi bilities</w>
conte sts</w>
er men</w>
advertis ement</w>
p as</w>
rail s</w>
stra ße</w>
m .a.</w>
i ously</w>
gi or
dani els</w>
wal ton</w>
per kins</w>
st or</w>
sch nei
colon ists</w>
m s.</w>
es cent</w>
ap ped</w>
neur ons</w>
pag an</w>
mus cles</w>
har lem</w>
dor set</w>
obli gations</w>
enc e
func tionality</w>
jack et</w>
e g</w>
bu gs</w>
comment ing</w>
ti ers</w>
monopol y</w>
cardi ac</w>
bu d</w>
engine ered</w>
foc al</w>
re viewing</w>
sty l
necess ity</w>
decor ations</w>
pione ered</w>
alpha be
promo ter</w>
homo sexuality</w>
lex ington</w>
avi d</w>
pre serving</w>
me ga</w>
cad ets</w>
crow ds</w>
sha w
po ster</w>
l ach
3. 0</w>
experi encing</w>
anch ored</w>
1 200</w>
racec ourse</w>
cartri dge</w>
3. 2</w>
anth a</w>
pla u
bo is</w>
suther land</w>
and re</w>
wal k
al la
priv y</w>
implic ations</w>
real- time</w>
dar ren</w>
stret ched</w>
comb inations</w>
r ö
th am
rail roads</w>
keep ers</w>
investig ators</w>
sun days</w>
liti gation</w>
os aur</w>
- in</w>
bulle tin</w>
og en</w>
stom ach</w>
te at
177 6</w>
recep tions</w>
pac ked</w>
19 –
infr ared</w>
ap i</w>
con ferred</w>
nat al</w>
administr ators</w>
direc tory</w>
25 0,000</w>
stoc ks</w>
col lar</w>
b ho
trou bled</w>
show cas
vis u
eg er</w>
179 9</w>
re sist</w>
am id
m ls</w>
hol den</w>
pit t</w>
shir ts</w>
less ly</w>
no ver</w>
chie fly</w>
do om</w>
coast line</w>
pedestri an</w>
tuberculo sis</w>
bahá '
2007– 08</w>
17 5</w>
n ard</w>
ar ro
0. 6</w>
compu tational</w>
ta un
sop hia</w>
weeken ds</w>
t sun
x ie</w>
ide als</w>
adi a</w>
dem ons</w>
s mart
com a</w>
nation ality</w>
blu- ray</w>
op pose</w>
o bo
hav ana</w>
as aki</w>
sm y
nu ts</w>
happ ening</w>
pur a</w>
depic tion</w>
un certainty</w>
mor mon</w>
applic able</w>
es ome</w>
vint age</w>
fif ty-
aer onau
sig ma</w>
illustr ator</w>
suspici on</w>
g is
br ü
cur se</w>
can s</w>
sh ari
gl am
per petr
bac on</w>
dun n</w>
d mit
l al
elimin ating</w>
benef icial</w>
ali ens</w>
guerr illa</w>
nor se</w>
blo c</w>
inten tionally</w>
g ho
de pri
mat s</w>
c rush</w>
me als</w>
ari os</w>
178 9</w>
ro th</w>
inv est</w>
take over</w>
att achment</w>
aes the
v ast
optim al</w>
ap point</w>
vi o</w>
dis appointed</w>
gam ma</w>
be ef</w>
ex otic</w>
i ri
appar atus</w>
un preced
ri ft</w>
dis cs</w>
cathol icism</w>
bil t</w>
mor se</w>
b are</w>
it zer</w>
g um
ha bit</w>
fra u
dr í
en y</w>
a 1</w>
ful fill</w>
hor ns</w>
du n</w>
ji ang
an gi
ner -
cap tive</w>
brit tany</w>
fron t-
ill as</w>
wh or
river a</w>
loc king</w>
is ons</w>
sam oa</w>
nine teen</w>
scholar ships</w>
susp icious</w>
" |</w>
attrac ting</w>
pul ling</w>
ro us
t onic</w>
behavi ors</w>
pl enty</w>
invisi ble</w>
c um</w>
kar achi</w>
compos ing</w>
christ ina</w>
ber kshire</w>
se i</w>
re illy</w>
gro s
2 1
saf e
g is</w>
s lender</w>
pay ne</w>
com bus
ur du</w>
satur n</w>
c rac
in famous</w>
185 0s</w>
x x</w>
st le</w>
enzy mes</w>
bu si
mort gage</w>
discus ses</w>
ball y
re tail
homo sexual</w>
outre ach</w>
hi de
nic ole</w>
pre sumed</w>
mon aco</w>
brother -in-law</w>
devo tion</w>
si onist</w>
gal li
patro ls</w>
190 0s</w>
f ury</w>
s dale</w>
al kal
0. 8</w>
gi bb
ff le</w>
fast -
villa ins</w>
em bro
han cock</w>
0. 7</w>
tu n</w>
si del
rec k
shre w
specific ations</w>
shi fts</w>
o ste
re es</w>
bin d</w>
pl un
neigh bor</w>
4 4
ro drí
le vel
nou n</w>
wic z</w>
block ade</w>
align=" right
gre gation</w>
thir teenth</w>
expedi tionary</w>
tim ber
proj ec
dy nas
bal lots</w>
cri st
ass ur
ac ul
á r
la g</w>
bol lywood</w>
j ed
m ese</w>
cent ennial</w>
allegi ance</w>
king -
tt em
sustain ability</w>
et tes</w>
châ teau</w>
c /
tion aries</w>
log ging</w>
ex hau
bl ance</w>
ro meo</w>
li th
cu bic</w>
trem end
bu chanan</w>
sur pris
hal ted</w>
as co</w>
wa ited</w>
on ists</w>
emo tion</w>
bul lets</w>
chanc el</w>
abbo tt</w>
moham ed</w>
cit y
x iii</w>
r ill</w>
s abo
fri gate</w>
li mer
gen oa</w>
unpreced ented</w>
gra vit
aveng ers</w>
zha o</w>
ju dy</w>
dep ths</w>
reas oning</w>
mar kers</w>
em ission</w>
cros by</w>
s ke</w>
air plane</w>
z al
fil i
acc ent</w>
vac ancy</w>
ev o
pi per</w>
justi fied</w>
ol d-
pe er-
cr um
ho stage</w>
squ ir
evalu ated</w>
trip le-
mi an</w>
gra pe</w>
fol k
200 4–
pi etr
blan k</w>
h iring</w>
collo qu
ster eo</w>
gas es</w>
fol ding</w>
arbitr ary</w>
w ab
gent leman</w>
c ence</w>
gal a</w>
all ison</w>
chi ps</w>
astronom er</w>
recru its</w>
t- up</w>
multi media</w>
rodri guez</w>
cli p</w>
bre eds</w>
hi malay
# 2</w>
de por
haw kins</w>
shi ma</w>
gr a</w>
ec o</w>
din er</w>
gra y
real ised</w>
okin awa</w>
cli fford</w>
rhyth mic</w>
counc il
" |
min ded</w>
conveni ent</w>
az zo</w>
ul f</w>
ib ia</w>
f us</w>
temper ate</w>
congre g
scope ="
dol l</w>
si d</w>
ran g</w>
el o</w>
obsol ete</w>
predec essors</w>
an gu
3. 3</w>
film makers</w>
recruit ment</w>
princip ally</w>
k ram
ep a</w>
ge st
dic tat
conclu ding</w>
lau ren</w>
reig ning</w>
amend ments</w>
frit z</w>
regi stry</w>
guin ness</w>
mem ori
che er
179 7</w>
loc ating</w>
proc ession</w>
ste als</w>
é cole</w>
m gm</w>
gl er</w>
fi del
spokes person</w>
peas ant</w>
1 1–
transpar ent</w>
treati es</w>
dis appearance</w>
intercep tion</w>
os aka</w>
de aux</w>
as e
wi dow
str anger</w>
par o
mir anda</w>
sub scription</w>
wheel chair</w>
cr on
d l
mag nus</w>
integr ate</w>
ar ya</w>
out -of-
hear s</w>
am ne
lincol n
glob ally</w>
line backer</w>
mar ket
stret ches</w>
ro le-
maj esty</w>
c ation</w>
short age</w>
gh t-
plan ting</w>
v 8</w>
ts man</w>
ky r
ric ardo</w>
car i
for get</w>
damas cus</w>
pres sur
man sfield</w>
m ast</w>
every where</w>
vander bilt</w>
mag gie</w>
lam p</w>
n ant</w>
sup pression</w>
cent red</w>
mead ow</w>
vene tian</w>
trou bles</w>
tur ret</w>
obsc ure</w>
bar i</w>
bur mese</w>
ar y
absor ption</w>
hon oured</w>
clear ance</w>
chand ler</w>
glac ial</w>
out fit</w>
other ap
geor gi
organ ism</w>
w ang
oli via</w>
18 2
it z
li d</w>
licen ses</w>
un changed</w>
ran i</w>
jak arta</w>
motiv ation</w>
conting ent</w>
sup pressed</w>
18 ,
tempor al</w>
c ites</w>
hi ggins</w>
chevro let</w>
legi tim
con ditional</w>
vac ated</w>
re ts</w>
man n
ex changed</w>
re printed</w>
mean time</w>
gal il
moti f</w>
ro ch
retro spective</w>
surpris ingly</w>
sch aft</w>
culmin ated</w>
att i</w>
re issued</w>
cru de</w>
thick ness</w>
nur sery</w>
wor ried</w>
pri mera</w>
altern ating</w>
phy lo
jen nings</w>
co con
satis fy</w>
loun ge</w>
a bel</w>
n p</w>
0 th</w>
ri dic
jose f</w>
ho f
atic al</w>
perio dic</w>
ari th
lad der</w>
k at</w>
freel ance</w>
jo aqu
hero ic</w>
d ington</w>
compani ons</w>
cau cus</w>
enc ry
cc i</w>
pro to-
4– 1</w>
squ ares</w>
amphibi ous</w>
12 2</w>
cre ativity</w>
sim pl
fail ures</w>
ing ual</w>
ogra ph</w>
guad al
4 8.
kur dish</w>
belo ved</w>
ma o</w>
af ore
o j
outri ght</w>
nam ibia</w>
gent le
investig ative</w>
dis appointing</w>
ag ar
speci alists</w>
quali fier</w>
lion aire</w>
yiel ds</w>
am é
no el</w>
wil low</w>
phil lies</w>
age ous</w>
promp ting</w>
jum ped</w>
dead line</w>
ten berg</w>
standardi zed</w>
ru ption</w>
1 13</w>
o si
f eller</w>
mig rants</w>
op us</w>
min ed</w>
k t</w>
we ston</w>
cur ling</w>
0 /
in let</w>
d ’
ran ged</w>
& t</w>
an ta</w>
amne sty</w>
sch i
long- distance</w>
origin ates</w>
glou cestershire</w>
per ed</w>
gar rett</w>
day ton</w>
len non</w>
gas oline</w>
instan tly</w>
number- one</w>
entreprene ur
ship building</w>
spin al</w>
numer ical</w>
de ple
sp iders</w>
rac er</w>
3. 1</w>
sub strate</w>
tal ked</w>
intellec tu
style=" back
mar il
j aya</w>
c rushed</w>
vir uses</w>
ali as</w>
pre- season</w>
duc ks</w>
2. 9</w>
s ack</w>
co b
ar am
stir ling</w>
it as</w>
con cor
bo iler</w>
sur plus</w>
k ob
her cul
bi har</w>
x .</w>
surroun dings</w>
defini tive</w>
2 8th</w>
wat ches</w>
du mp
sp ace
sav annah</w>
di mit
photograph ed</w>
sn akes</w>
aci o</w>
swan sea</w>
blo om</w>
bolsh evi
bacter ial</w>
st all</w>
ho gan</w>
v ali
ac o
rodrí guez</w>
mid- 1990s</w>
fav ourable</w>
sher idan</w>
p he</w>
ch l
g r</w>
con stable</w>
man dated</w>
c lock
four teenth</w>
contempor aries</w>
ne p
en er</w>
ro m</w>
retail ers</w>
ger ard</w>
4 6
north ampton</w>
character ised</w>
affir med</w>
wet lands</w>
mill an</w>
spar ked</w>
dre ssing</w>
adop ting</w>
ta vern</w>
do ve</w>
struc turing</w>
cla d</w>
l ent</w>
kra ków</w>
pod cast</w>
ra ven</w>
good man</w>
mar cel</w>
man t</w>
se is
nig el</w>
ten ing</w>
conver ting</w>
ar an</w>
nicar agua</w>
gu ber
christ church</w>
sal a</w>
presti ge</w>
3 7.
st ence</w>
lad en</w>
illustr ation</w>
sh un
ti dae</w>
re sume</w>
gl ass
overwhel ming</w>
disper sed</w>
adap t</w>
u da</w>
con fes
ag ger
ri que</w>
ri p
ho ch
we ights</w>
s án
cro co
intersec ts</w>
encour ages</w>
bur lington</w>
don or</w>
sub tle</w>
s so
mar cos</w>
prote sted</w>
lot tery</w>
ju ice</w>
dig it</w>
f ain
culmin ating</w>
cri mson</w>
escor ted</w>
long itu
jud ith</w>
histor ies</w>
co t
endur ance</w>
con current</w>
bu mp
persu ade</w>
ur am</w>
gr an</w>
bab y
assum es</w>
un stable</w>
fav oured</w>
prolong ed</w>
fa ç
prin ter</w>
obvi ously</w>
j ules</w>
u bi
pos it
fre s
ba o</w>
tai w
pri c</w>
ste f
re y
divi ding</w>
method ology</w>
quarter- finals</w>
e ed</w>
contribu tes</w>
par a
s b</w>
ga o</w>
cla p
ne ural</w>
ceram ic</w>
cast les</w>
treas on</w>
schu le</w>
curren ts</w>
farm land</w>
d f
contin ually</w>
min s</w>
chand ra</w>
hor ace</w>
pack ages</w>
è ge</w>
sh er</w>
la os</w>
f ad
enti rety</w>
compe tent</w>
sh ep
2 40</w>
ariz ation</w>
chie f
zin c</w>
vau ghan</w>
incorpor ation</w>
ong o</w>
dis course</w>
tri -
m essi
fis cher</w>
announc er</w>
bri ti
sa un
re fined</w>
o do
lon ely</w>
po ts</w>
g ü
acti vism</w>
assign ments</w>
cous ins</w>
at lé
t we
approxim ate</w>
5 5
man a</w>
cool ed</w>
ste ele</w>
m ish
om y
alcohol ic</w>
fas cin
trum pet</w>
pup pet</w>
beir ut</w>
vi ties</w>
pat ented</w>
car t</w>
tu tor</w>
produc tivity</w>
enthusi asm</w>
12 3</w>
40 th</w>
gu am</w>
b ard</w>
n ile</w>
limer ick</w>
form ul
le i
degrad ation</w>
d ź</w>
bau er</w>
ni agara</w>
mou l
12 7</w>
sto w</w>
conveni ence</w>
bah rain</w>
sh ri</w>
out lined</w>
dis missal</w>
congre gations</w>
cas si
bo wie</w>
ex changes</w>
tric ks</w>
el ic
cros sover</w>
jewel ry</w>
taiw anese</w>
3 9.
l ju
t elec
crow ded</w>
confron ts</w>
star r</w>
bisho pric</w>
prac tically</w>
transl ates</w>
doc ks</w>
con way</w>
sol itary</w>
grad ing</w>
appreci ated</w>
rej ection</w>
psych ed
in duction</w>
cu be</w>
orch id</w>
hu bb
anal og
adm ired</w>
patri arch
acceler ated</w>
mini stries</w>
t r</w>
ç a</w>
gen y</w>
tr ack
pe d
ter esa</w>
haz ard</w>
defend ants</w>
mad ame</w>
e ze</w>
ballo on</w>
danu be</w>
ali en
rob ust</w>
cy cli
) )</w>
qu il
pon ds</w>
gl asses</w>
cosm ic</w>
tr ans</w>
ori ent</w>
gor ge</w>
o sw
un covered</w>
ve z</w>
du el</w>
lor raine</w>
me ta
ge tic</w>
- 1</w>
lingu istics</w>
em manuel</w>
contrac tors</w>
al location</w>
fir mly</w>
confes sion</w>
ā bā
mol ly</w>
4 8
ly rical</w>
insec t</w>
ko z
monum ental</w>
austro -
priv ati
fiel ding</w>
green land</w>
sc an</w>
he ather</w>
ec k
direc torate</w>
ch rome</w>
di as
n at</w>
bad en</w>
i ge</w>
" /
treati se</w>
out si
ad é
lam ps</w>
ath i</w>
immig rated</w>
b ati
exc ited</w>
ox id
ku ala</w>
wild cats</w>
mess enger</w>
wa x</w>
rot ter
ra th
north- western</w>
az i</w>
prof .</w>
k é
bi ographer</w>
hym n</w>
war ships</w>
staf ford</w>
canadi ans</w>
le d
st in
isa bel</w>
intercep ted</w>
sp inning</w>
fol i
subscri bers</w>
stic ks</w>
hurric anes</w>
en forced</w>
adap tations</w>
z ap
demonstr ates</w>
fol ds</w>
open er</w>
ass aul
wür ttem
re sorts</w>
prop ell
en burg</w>
c is</w>
steph ens</w>
con currently</w>
ob s
philanthro pist</w>
enthusi astic</w>
12 1</w>
post season</w>
fam ine</w>
contribu tors</w>
łó dź</w>
ab il
fle eing</w>
ch eng
replic a</w>
pé rez</w>
privil ege</w>
in- law</w>
analy ses</w>
ww f</w>
di us</w>
sou l
le an
ber n</w>
domin ate</w>
land ings</w>
blu e-
man g
for ge</w>
cit y-
do o</w>
pris ons</w>
brow ne</w>
b n</w>
ti red</w>
bu g
ob serving</w>
catal onia</w>
fü r</w>
bra kes</w>
ill on</w>
16 00</w>
foreig ners</w>
up per
bl ad
mur al</w>
it ch</w>
r era</w>
ine z</w>
t é
canc ellation</w>
trou pe</w>
[...]
