#version: 0.2
с т
к о
е н
р а
р о
н о
п о
р е
а н
н а
о д
т о
л ь
е р
в о
н ы
г о</w>
р и
л и
н и
к а
с о
н а</w>
т е
л е
с ко
в а
л о
ен и
к и
л а
т а
в и
т и
б о
ч е
г од
д о
в е
н е
з а
м о
д е
с е
м е
с я</w>
г о
м а
р у
п ро
ц и
в ы
ст а
м и
с и
ан и
1 9
с ки
б ы
л и</w>
д и
д а
ч а
ст в
о б
п е
п а
л а</w>
м и</w>
ч и
н о</w>
но й</w>
п ри
ст о
п и
п ре
о т
ны х</w>
н е</w>
к а</w>
год а</w>
т ь</w>
т ся</w>
к и</w>
и з
л я
т а</w>
с а
но го</w>
ра з
ени я</w>
п о</w>
г и
л у
ш и
м ен
т о</w>
е т</w>
2 0
к у
ны й</w>
ско й</w>
с ь</w>
л я</w>
ско го</w>
р ы
год у</w>
в ер
г а
с у
л о</w>
т у
и н
б е
но ст
п ер
ны е</w>
г ра
ж и
л е</w>
ко то
те ль
ж е</w>
б а
п у
ски й</w>
ени е</w>
о р
д а</w>
од и
щ и
ст и
ф и
ко н
е го</w>
н у
и з</w>
в ани
р а</w>
б и
с по
по с
д у
а р
з о
с с
м у
х о
ко м
п ра
е й</w>
ци и</w>
бы л</w>
пе ре
е тся</w>
но в
з а</w>
о н</w>
з и
м у</w>
л ен
л ся</w>
ны м</w>
ра н
л ю
е м</w>
с во
т ер
к о</w>
в а</w>
на я</w>
в ля
о т</w>
ств ен
ч то</w>
с ка
ж е
но м</w>
д ля</w>
л ь</w>
к ра
б у
в ре
с си
н ы</w>
ж д
щ е
ски х</w>
к е</w>
по д
то м</w>
пре д
20 0
ст и</w>
б р
20 1
ра бо
з ы
ка к</w>
ст ро
н я
р и</w>
ц е
кото ры
г у
д е</w>
ф е
т ы</w>
а ль
1 8
х оди
д о</w>
о н
ж а
в од
но е</w>
т е</w>
ш е
з на
го ро
т ы
а в
м а</w>
р я
г ла
во з
ств а</w>
со ста
та к
ко в</w>
ст у
ж ен
х а
м ер
о с
в о</w>
в ан
на ча
т ь
т ро
ча ст
ю т</w>
м ы
ност и</w>
ц ен
ш а
ме ст
д ен
в я
к ан
во й</w>
ю щи
г е
так же</w>
ст е
те ле
пос ле</w>
ти в
к у</w>
ств о</w>
бо ль
р е</w>
по л
о к
л ения</w>
ра й
т и</w>
м я</w>
ре д
ну ю</w>
ско м</w>
и с
ска я</w>
т я
з е
сто я
ле к
то в</w>
т ра
ф ор
ро м</w>
о на
х од
ст ра
ли сь</w>
ва л</w>
б ли
р ы</w>
ан д
в у
о на</w>
19 9
д ру
э то
п ри</w>
бр я</w>
ё н
х и
по лу
ве т
с пе
ро сси
с а</w>
а к
щ а
с ло
ла сь</w>
бы ли</w>
об раз
ру п
об ла
в се
в ши
бы ла</w>
л ени
ност ь</w>
до л
в е</w>
с ер
с лу
ро в</w>
ма р
г а</w>
д ан
во й
н и</w>
па р
бы ло</w>
19 4
ст ь</w>
я вля
ски е</w>
ст во
ри и</w>
пи с
вре мя</w>
ти че
ра с
ь ю</w>
к ры
ны ми</w>
ве д
вани я</w>
и спо
ц а</w>
е в
б ра
з у
б ер
л ение</w>
ст ан
ко м</w>
да р
и х</w>
ка р
ст ви
т ри
вани е</w>
и ли</w>
ло сь</w>
у ч
ро д
м е</w>
н я</w>
г ен
ани я</w>
ко й</w>
к ре
я н
с ред
бо ле
в с
ло ве
ю тся</w>
м ы</w>
мо ж
ко в
ль ко</w>
з ан
че лове
е ди
т ре
в ра
пер вы
ва р
ре в
т р
ч ен
м пи
к е
с вя
б ы</w>
ро в
к лю
ро й</w>
к ла
м ан
т ан
ть ся</w>
ско е</w>
ци я</w>
я х</w>
ту р
и ме
л ан
на се
ни к</w>
ени и</w>
и сто
к то
с ле
з д
ст ре
г да</w>
э то</w>
ми ни
19 8
бо р
с ен
про из
и г
п ло
о м</w>
ф а
пра в
чи с
ка за
в ла
т у</w>
ав то
ц ы</w>
и ю
м но
г руп
боле е</w>
ос нов
по д</w>
д ж
ски м</w>
0 0</w>
ви ч</w>
д ер
ани и</w>
ло ги
с я
со б
ва ть</w>
в то
вы х</w>
г ер
19 6
19 7
во с
19 3
i n
по ли
но -
пос ле
ко л
o r
ст а</w>
е ё</w>
ко р
но в</w>
а д
то го</w>
л ы
де й
во го</w>
с к
те ль</w>
на з
вре мен
рабо та
ц а
ств е</w>
полу чи
и м
го су
с т</w>
зы ва
с ку
не й</w>
ком ан
дру ги
се ль
о в</w>
пра ви
пред ста
та к</w>
ра спо
госу дар
испо ль
те м</w>
ве ли
об ъ
с ы
ком п
и мен
19 5
п ла
ё н</w>
ва н</w>
ф у
по ло
из ве
ру с
ро н
г е</w>
ени й</w>
г де</w>
о ста
у ни
обла сти</w>
че мпи
e r
ле т</w>
ф ран
т ру
вер си
ни х</w>
б ри
со ве
она ль
1 7
г и</w>
которы й</w>
явля ется</w>
ци он
a n
19 2
которы е</w>
боль ш
пу бли
ни и</w>
теле й</w>
у ча
х у
ани е</w>
с о</w>
ств у
за па
ор г
в ен
ч то
л ё
ц ер
ци аль
са мо
ч ё
тя бря</w>
э к
ни ка</w>
во сто
груп п
ва я</w>
ко ро
о бо
образ о
0 -
ста л</w>
фи ль
a r
ш а</w>
ходи т</w>
ми и</w>
ро ди
я ми</w>
во ен
го д</w>
пи са
ро ван
од на
су ще
от но
19 1
е к
д ви
ли н
пе ра
гла в
у част
а лек
ени ю</w>
к ро
изве ст
ци ю</w>
и гра
ли ч
ри то
про ти
с ла
на ходи
челове к</w>
со з
ни ков</w>
с со
де рев
орг ани
а ли
д ы</w>
одна ко</w>
ч ер
э н
не е</w>
п ы
ц е</w>
тер рито
ок ру
з я
со вет
до в</w>
со стоя
ё л</w>
ску ю</w>
то р
зе м
об ще
п ен
пер и
в мест
ени ем</w>
росси й
по се
ле н</w>
г у</w>
бу р
после д
ф о
ва ли</w>
кото ро
м я
т ен
он и</w>
росси и</w>
соста вля
ю щ
по ль
ст ран
i i</w>
я зы
л од
у кра
ти я</w>
к ри
на род
к м</w>
то лько</w>
ж ения</w>
с р</w>
до м</w>
е з
го во
ко гда</w>
з ани
по р
не ско
г ре
еди н
л ы</w>
го р
на ци
че ской</w>
вы со
ка ми</w>
вы е</w>
ки х</w>
мо р
ку ль
- й</w>
мер и
в оди
щ ен
ста нов
а х</w>
д ву
ло м</w>
че ре
распо ло
ж у
ж ение</w>
вы сту
се м
об ра
ви н
б а</w>
e n
с ан
не го</w>
ме р</w>
кра с
с мо
до ро
соста в</w>
ш та
по бе
спо р
вы й</w>
тель но</w>
е в</w>
н к
ма т
д у</w>
че ских</w>
l a
о кон
ни м</w>
государ ствен
ка х</w>
s t
ни е</w>
при ня
горо да</w>
к лу
а т
о не</w>
х ра
от де
которы х</w>
та ль
цен т
то й</w>
и м</w>
ми ро
зани ма
то ч
не й
1 0</w>
но му</w>
ст ру
вс е</w>
а мери
o n
н у</w>
пре де
чи та
ло в</w>
жд у</w>
ш ен
де ка
ер а</w>
ч и</w>
ав гу
те х
1 5
t h
это го</w>
вой ны</w>
горо д
си сте
ни й</w>
ма я</w>
ку р
д во
ев ро
1 6
чемпи она
че ского</w>
исто ри
ь е</w>
в ы</w>
ство м</w>
ре с
е щ
ме жду</w>
от кры
вы пу
э том</w>
ле т
ч у
по з
ль та
уни верси
мо щ
сс ср</w>
ч ения</w>
се вер
о ру
це в</w>
ни ко
я ви
ста в
во м</w>
исполь зо
му зы
но ви
н ен
о ко
п я
ин ы</w>
универси те
те ля</w>
ж из
ль ной</w>
то в
а л
х от
дол ж
я м</w>
ль но</w>
д и</w>
сле ду
со в</w>
ре ки</w>
с ки</w>
ре зу
чере з</w>
ст в</w>
сти ту
сер и
о те
ни ма
резу льта
с к</w>
п а</w>
но я
гра ни
ё м</w>
со гла
с ша</w>
ход я
л у</w>
ч а</w>
стро и
ш е</w>
ва ет</w>
ра я</w>
ч ение</w>
ра в
ле й
с бор
у з
од е
ко го</w>
ко ми
ст ы
мо н
год ах</w>
се зо
ви зи
теле м</w>
2 0</w>
у чи
ни ки</w>
ген е
т -
на д
в клю
наци ональ
а пре
уча сти
за тем</w>
вы м</w>
проти в</w>
со бо
ко но
но во
ж да
о фи
те ли</w>
б ро
ле до
ди и</w>
т вер
рай она</w>
соста ве</w>
со ю
о стро
ло в
боль ши
a t
к ни
гра фи
ль ного</w>
с анд
е му</w>
что бы</w>
ещ ё</w>
ь я</w>
ци й</w>
у да
ност ью</w>
де я
у же</w>
ме ж
ми ра</w>
об щ
ч ной</w>
ф ер
сред и</w>
л ли
ва ла</w>
ме т
ки й</w>
на зна
тер и
ка че
1 0
по зи
r e
раз ви
ча сти</w>
се б
сс ледо
б ла
ли и</w>
про ек
оди н</w>
бе ре
л ён
фе вра
че ский</w>
б ле
око ло</w>
та р
ан а</w>
ни я</w>
воз мож
с пи
ве ро
алек санд
мо ск
неско лько</w>
ш ей</w>
ль ных</w>
19 0
ш его</w>
ющи й</w>
ос но
я в
ла га
му ни
мини стра
ё р
ан г
х а</w>
r o
лу ч
ре ги
сто ро
аль бо
де ла
амери кан
ста р
г ру
сове та</w>
ад министра
ар хи
ян вар
дей стви
ре й
пло ща
д ва</w>
больш о
гене ра
г ро
хо зя
пар ти
с ка</w>
та м</w>
част ь</w>
1 2</w>
a l
ско му</w>
мож ет</w>
мо й</w>
ан а
1 5</w>
пре зи
па ра
ра к
органи за
рай оне</w>
получи л</w>
ско в
ри я</w>
му ж
гра м
е мы
про фе
тр ен
c h
з ер
мест о</w>
я »</w>
ст ер
вмест е</w>
у ли
3 0</w>
у ю</w>
первы е</w>
ющи х</w>
за щи
ю ж
ту ры</w>
и сследо
гра жд
к руп
от вет
год ы</w>
январ я</w>
ху до
рес публи
про дол
ак тив
располо жен
ле з
р ен
е с
террито рии</w>
че м</w>
жи л</w>
ин ститу
ки м</w>
кото рой</w>
ни ком</w>
испо л
ве ка</w>
дека бря</w>
ре ш
сту пи
ра сс
запа д
м о</w>
ш ёл</w>
авгу ста</w>
ло н
од ер
находи тся</w>
ми на
ч лен
ли те
а ка
ль ный</w>
бр е</w>
мно ги
к си
се й
к ру
пис и</w>
ка з
фор ма
же н</w>
ш ко
вер х
ша я</w>
с чита
в стре
ющи е</w>
ки е</w>
де ра
з и</w>
соз да
кото рая</w>
чи л</w>
ь ю
х е
1 2
мар та</w>
ию ля</w>
m u
пе с
па с
хозя й
сво ей</w>
т ри</w>
б ан
ок тября</w>
ти н
все го</w>
сен тября</w>
си н
насе ления</w>
щ е</w>
э ти
это т</w>
i c
ию ня</w>
горо д</w>
жу р
первы й</w>
й »</w>
201 0</w>
0- х</w>
р о</w>
ком анд
мо сков
вани ем</w>
вто рой</w>
наз вание</w>
по да
б ю
ба р
меж ду
ли ш
по мощ
ски ми</w>
зан я
на д</w>
о ли
ши х</w>
фе дера
рабо т
други х</w>
д ра
са мы
л ер
о преде
апре ля</w>
ч но</w>
на уч
групп ы</w>
д ли
работа л</w>
хо в
ми н
ствен ной</w>
ди визи
насе ление</w>
с е</w>
e r</w>
ме й
ти ро
вши й</w>
ё т</w>
высту па
на зыва
ака де
та ми</w>
э лек
1 8</w>
мо в</w>
та й
ля р
т ран
на у
фу т
между народ
ви де
ф ин
1 4
х ва
се ло</w>
не ме
роди лся</w>
у би
у прав
жур на
г ан
ар мии</w>
во ло
f or
ли я</w>
м ени
про ис
сту п
ли че
ще е</w>
д же
i t
о бы
да ль
та х</w>
слу ча
гу бер
цен тра
ноя бря</w>
по стро
у спе
не м</w>
каче стве</w>
р у</w>
с но</w>
18 9
м »</w>
ь ер
ва лся</w>
с ы</w>
к ли
1 1</w>
в и</w>
те к
участи е</w>
ь е
жд ения</w>
администра тив
- го</w>
ши й</w>
отно ш
произ вод
с мер
2 5</w>
ра ст
которо го</w>
зна чи
во л
все х</w>
ва ется</w>
под дер
со м</w>
п ан
мо на
мен т</w>
февра ля</w>
по ч
в ходит</w>
сто в</w>
че ские</w>
стру к
ва ри
прези ден
o n</w>
от ли
вер ну
предста ви
на и
1 4</w>
тру д
се ре
исполь зу
при нима
о пера
об е
э коно
про грам
1 6</w>
кто р</w>
нико ла
сте пен
со времен
че н</w>
ру ко
из -
1 3
ме тро
площа д
е сть</w>
во р
сво ю</w>
г ри
же лез
th e</w>
горо де</w>
прави тель
че го</w>
про стран
рай он</w>
раз де
иг ро
ль ные</w>
строи тель
мно го
ма й
си м
составля ет</w>
ст ри
мо лод
ле й</w>
п ы</w>
в ну
ка зыва
го ло
т ных</w>
ба с
че ты
по до
дву х</w>
бе ло
га р
раз лич
бы ть</w>
до ста
эконо ми
ща я</w>
у ров
l e
это й</w>
ко ра
ка я</w>
нача ла</w>
при я
за ви
ре жи
из- за</w>
хо ро
чис ле</w>
нача ле</w>
со ответ
неме ц
д ы
вла ди
в з
себ я</w>
1 3</w>
ву ю</w>
п ря
вклю ча
c o
ку с
1 7</w>
на ру
ш ла</w>
ен а</w>
й ся</w>
во е</w>
б е</w>
ци па
х ар
r a
ц о
име ет</w>
стви и</w>
дан ным</w>
фран ц
на стоя
фи на
ди на
бе з</w>
то р</w>
й ского</w>
дерев ня</w>
ти е</w>
ству ет</w>
а ви
лени и</w>
со вер
па мя
ви д
ци ей</w>
мо м</w>
ро д</w>
зо ло
за ме
в не
с с</w>
ста ла</w>
су т
сво его</w>
времен и</w>
ствен но</w>
ес ли</w>
од но
у станов
ф а</w>
пу нк
лен ы</w>
на прав
ин те
т ё
на чи
ц у</w>
ш ли</w>
участ во
при з
слу ж
ха рак
о б</w>
муни ципа
ис кус
кро ме</w>
го н
согла сно</w>
5 0</w>
v i
год ов</w>
х ран
ю го
лен а</w>
о соб
ш кол
офи циаль
би ра
ма н</w>
ч е</w>
мы ш
жиз ни</w>
б о</w>
ко личе
к ня
нача ль
дея тель
й ских</w>
тур ни
рабо ты</w>
о з
мож но</w>
ц ар
ра ди
ш у
18 8
ста нови
эк с
предста вля
про це
ра з</w>
челове ка</w>
отно си
во ро
хра ни
кон це</w>
до сти
спо соб
зави си
бо е
пер вой</w>
б од
россий ской</w>
вани и</w>
ка м</w>
при мер</w>
ме ди
ь я
м ного</w>
т но</w>
логи и</w>
mu la
к м
о д</w>
н ского</w>
в ли
for mula
ен ы</w>
поли тиче
formula _
б у</w>
ра ми</w>
у по
ч ных</w>
чис лен
элек тро
вы пол
се веро
бу ду
l i
лите ра
d e
т ный</w>
го тов
ря д</w>
ци али
то ра</w>
поз во
201 1</w>
франц уз
ва лись</w>
пере да
ми ха
те ля
вод о
1 9</w>
с »</w>
ф ло
пери од</w>
други е</w>
201 2</w>
вед ения</w>
ф из
ч ь</w>
я по
ми р
18 6
200 8</w>
200 9</w>
ж ении</w>
дру го
ш о
мен е
u n
нов а</w>
исто рии</w>
тех ни
2 4</w>
сс а</w>
от ме
сто и
писа л</w>
ня я</w>
это му</w>
мо би
хо д</w>
оли мпи
но си
чен ь</w>
ком му
ин тер
цер ков
че й</w>
ф ри
но р
и »</w>
те й</w>
со л
имен и</w>
цер к
с ве
2 2</w>
с одер
лиш ь</w>
в ского</w>
мен я
кан а
од ним</w>
ц ве
ма тиче
m a
о ри
у сло
при н
18 7
200 7</w>
пе тер
2 1</w>
свя зи</w>
на пример</w>
ши ро
s i
ств у</w>
у н
собо й</w>
за во
лени ем</w>
де т</w>
з е</w>
зи и</w>
x i
п лан
201 4</w>
ко ло
ю р
спе циаль
е ся</w>
пос ё
со зд
од ной</w>
жен щи
се да
си ль
ф рон
вы с
й ский</w>
ави а
еди ни
им пера
са м</w>
то к</w>
ра х</w>
и ва
в первые</w>
де й</w>
r i
образ ом</w>
ти й</w>
о чень</w>
200 6</w>
и ль
й ской</w>
те ат
э та
201 3</w>
ти л</w>
в ше
про тив
т ной</w>
ста ли</w>
де ся
ви л</w>
муж чи
э ти</w>
гер м
северо -
ге ро
л ю</w>
з де
х ся</w>
ж ан
ва ло</w>
с ня
2 3</w>
ф он
площад ь</w>
ни к
про жи
ма тери
ван а</w>
сво их</w>
петер бур
2 6</w>
ствен ный</w>
ро да</w>
лер и
ф ак
цент р</w>
д ро
да же</w>
окон чил</w>
го в</w>
филь м</w>
л -
ты ся
х ан
фут бо
d i
вши х</w>
ба й
ден ь</w>
пра к
за вод
руко вод
ход е</w>
л ко
физ и
2 8</w>
коман до
которо е</w>
ва тель
a m
ор ден
за клю
л анд
км ²</w>
ч ный</w>
201 5</w>
с пу
ж ё
результа те</w>
д ь
ка м
кото ром</w>
де н</w>
мо гу
коро ле
ско -
н ь</w>
пред седа
с -
во про
1 ,
ющи м</w>
е вич</w>
па да
республи ки</w>
2 7</w>
ст ва
и та
с ни
ди а
ющ его</w>
г г</w>
н ан
у ез
юго -
во лю
ло к</w>
ме та
щ ения</w>
вани й</w>
наи более</w>
щи х</w>
укра ин
церк ви</w>
хот я</w>
особ ен
t i
по пу
в ской</w>
е ха
н ский</w>
коман ди
а б
метро в</w>
ст ы</w>
ка ли
ани ю</w>
за кон
в ский</w>
ж а</w>
кор пу
ди ре
со труд
ти ки</w>
анг ли
э й
худо ж
ве ду
сель ского</w>
г лу
воз гла
спе к
жи во
явля ются</w>
нача л</w>
к -
мо сти</w>
профе ссо
вы бо
ход а</w>
о сво
пере писи</w>
е »</w>
ани й</w>
ющ ей</w>
бас сей
укра ины</w>
на х</w>
предста в
зде сь</w>
з ы</w>
l o
ё х</w>
у твер
ка пи
о каза
ба л
ин форма
рас простран
ка »</w>
п ле
ты й</w>
пере д</w>
по яви
про вин
суще ство
0 00</w>
ве ден
вли я
ш и</w>
сси и</w>
большо й</w>
стран ы</w>
стро й
ар ти
ту ра</w>
ч ного</w>
по зд
ар ми
а н</w>
е пи
с цен
ва ют</w>
ва ться</w>
ль ная</w>
сто м</w>
обо ро
пра вля
те р</w>
ше л</w>
фе к
то н
в ёл</w>
групп а</w>
e s</w>
фи ка
ка зан
не об
с са
про води
из да
со бы
тель ной</w>
продол жа
те чение</w>
2 9</w>
мыш лен
ма ши
ро ль</w>
д не
0 ,
201 6</w>
т »</w>
за вер
ши м</w>
обла сть</w>
те о
ла в
объ ек
кто ра</w>
ан ти
ва ж
п ли
сво й</w>
ст ра</w>
епи ско
д ве</w>
п е</w>
поз же</w>
ци а
ди я</w>
м м</w>
музы ка
за ции</w>
по то
д рев
ча ет</w>
3 1</w>
на б
тре ть
200 5</w>
ме ся
побе ди
у до
с у</w>
фу нк
из мен
о нов</w>
оте че
ми р</w>
посе ления</w>
обе спе
соз дан
комп лек
х ри
игра л</w>
х и</w>
ки но
смер ти</w>
могу т</w>
со един
насе лён
в ле
об щи
ж и</w>
т ного</w>
цент ра</w>
м оде
о ни
че ская</w>
чи н
пе тро
уч ё
со н</w>
назна чен</w>
па ри
пы та
ступи л</w>
200 4</w>
во ль
а та
сс е</w>
команд ы</w>
со в
пред ло
ка ж
на й
бла год
сове т</w>
ю ри
ги и</w>
окру га</w>
ре ли
4 0</w>
университе та</w>
с и</w>
пе ча
соб ствен
200 1</w>
начи на
ру ков
тель ных</w>
ре з
ко не
а ми</w>
сво бод
200 0</w>
не которые</w>
ку б
ти и</w>
кар ьер
сво и</w>
пис ан
гра д
стан ции</w>
руков оди
ге о
над ле
тра ди
со бра
ко е</w>
па д
ви д</w>
бри тан
в ходи
в у</w>
ком пози
мен ь
террито ри
се мей
ни ж
воз вра
де т
больши н
си л</w>
лени ю</w>
де ль
не с
публи ко
те м
по э
кла д
эти х</w>
евро пе
стоя н
то т</w>
э р
a l</w>
тя бре</w>
н ской</w>
во ору
1 00</w>
сло ва
п раз
по каза
де бю
пы т
б ен
парти и</w>
с дела
клу б</w>
альбо м</w>
e l
пу та
бу дет</w>
в ни
в зя
при зна
т вор
ч лен</w>
сторо ны</w>
фи ло
сы гра
усло ви
м л
обла да
чи е</w>
ре волю
и р
к ва
свя зан
при надле
м н
ч ные</w>
ме да
о че
ста ту
гово ри
комп ании</w>
необ ходи
ве с
ме х
авто моби
пер во
окон ч
мона сты
i l
сс р</w>
u s</w>
ца ми</w>
ш ения</w>
фор миро
мене е</w>
част о</w>
ён ных</w>
с м</w>
в ско
дви га
тель ного</w>
лени й</w>
и то
сою за</w>
200 2</w>
зо м</w>
а й
из обра
при чи
ва лась</w>
проти во
ты х</w>
бо й</w>
им пери
п си
благод ар
и де
гражд ан
по тер
э ле
я сь</w>
тиче ски</w>
д ю
систе мы</w>
к »</w>
о суще
об ре
смо тр
а ри
праз д
режи сс
доро ж
многи е</w>
не т</w>
м -
18 5
про мышлен
го ри
э ф
би р
слу жи
194 1</w>
при мер
неско ль
сбор ной</w>
a c
но вый</w>
ши е</w>
с ме
вс ё</w>
ре ши
стви е</w>
в шего</w>
че т
коми те
про бле
д ри
тель ный</w>
сан к
к с</w>
ку ю</w>
ли бо</w>
мен та</w>
д жа
чё р
го м</w>
е н</w>
п ру
раз и
за ко
п ти
про те
лен о</w>
федера ции</w>
ль ное</w>
ен о</w>
не н</w>
фран ции</w>
вско ре</w>
первы м</w>
со на
та я</w>
u r
поч ти</w>
по стоян
д р</w>
воз ду
акаде мии</w>
201 7</w>
иг ры</w>
нау к</w>
ка ра
кре ст
к ло
по ме
то гда</w>
д жи
ба ш
сто рон
ча ется</w>
управ ления</w>
s e
а э
ла х</w>
образо вания</w>
смотр я</w>
та ким</w>
на ми</w>
но вой</w>
и мя</w>
ль ным</w>
на ходя
од ного</w>
сем ье</w>
з ма</w>
за хва
в до
ко д</w>
од о
тра к
ны не</w>
кол лек
не смотря</w>
0 —
се кре
ре да
пре пода
стои т</w>
и о
194 4</w>
с ъ
тор го
то н</w>
ве й
н ью
тель ные</w>
обще ства</w>
ни ю</w>
вши е</w>
бере гу</w>
участво вал</w>
ма ри
исто ч
сери а
кон тро
е вре
ж ени
в нов
у го
а ре
внов ь</w>
ло й</w>
по ра
эн ер
ко -
поддер ж
че ское</w>
ре й</w>
женщи н</w>
до й</w>
сы н</w>
жи телей</w>
профе сси
об нару
бор ь
щи й</w>
кора б
харак тер
г вар
испол ни
ш ем</w>
имен о
мех ани
матери а
ли й</w>
вто ро
ру ю</w>
се ле</w>
э пи
памя т
з у</w>
настоя щее</w>
ви ча</w>
ско ль
ти ть</w>
ствен ных</w>
кня з
худо же
ь »</w>
че ским</w>
зо в</w>
га зе
л л</w>
вели ко
акаде ми
n e
э т
ла ми</w>
из д
ва лось</w>
с чё
би о
ча р
жд ение</w>
2 -
ст е</w>
се ла</w>
вы де
жд ы</w>
лы х</w>
произ вед
лени н
ря д
до ку
2 ,
кла сси
благодар я</w>
т ные</w>
ис клю
вер хов
во в</w>
199 9</w>
э та</w>
пер сона
са м
ду к
но вич</w>
уч ре
о публико
количе ство</w>
b o
организа ции</w>
режисс ё
сезо на</w>
со к</w>
1 -
на сле
ко ва</w>
ти ту
ь и</w>
m e
распо лага
че б
школ ы</w>
л ле
пер вого</w>
чемпиона те</w>
сво ё</w>
ни ца</w>
ра нее</w>
герм ании</w>
кар ти
больш е</w>
чис ло</w>
евро пы</w>
по этому</w>
попу ляр
ла д
раз ме
санк т-
че сть</w>
со храни
194 3</w>
t o
ве з
тех но
ль ю</w>
са й
ц ей</w>
да х</w>
де пута
ю щая</w>
пред прия
по ги
б ло
послед ствии</w>
осуще ств
и но
ствен ного</w>
воз раст
в последствии</w>
ту ре</w>
ки ми</w>
под готов
пос вя
ходя т</w>
ман а</w>
з ву
щ ение</w>
ш ан
теля ми</w>
миро вой</w>
ма три
фа куль
объ един
ш ло</w>
многи х</w>
е ва</w>
лю би
194 5</w>
тран спор
не зависи
у вели
а п
про да
вла сти</w>
част ности</w>
б ре
органи зо
сту па
ты е</w>
мо мент</w>
в ёр
ти па</w>
губер нии</w>
де тей</w>
на р
чемпиона та</w>
с ке</w>
само лё
факуль те
бри га
раз работ
вну трен
у мер</w>
ри м
н ём</w>
сери и</w>
санкт- петербур
му зе
ма ти
х »</w>
за да
моск ве</w>
бла го
до пол
но вого</w>
б ин
t e
отече ственной</w>
произ води
д ми
че ски</w>
александ р</w>
вы ми</w>
ли к
реш ение</w>
л ани
кон цер
с ю
ка та
различ ных</w>
со циаль
i s
ско ро
пра во
каза х
тре бо
о г
200 3</w>
а м
и му
ност ей</w>
18 4
пис ы
вели кой</w>
кан ди
г ли</w>
куль туры</w>
рас стоя
ста ло</w>
a s
спе циали
клу ба</w>
государствен ного</w>
об я
фи ли
ре гу
про ходи
вани ю</w>
меди ци
ве сти</w>
ин ди
ц кий</w>
ка фе
че ском</w>
ц ов</w>
201 8</w>
лю дей</w>
на гражд
заме сти
кто ром</w>
институ та</w>
со рев
ро с
оче ред
d o
четы р
а ра
кол ле
приня л</w>
занима ет</w>
б рон
основ ном</w>
на м</w>
то л
с па
иму ще
ля ет</w>
ра м
от сут
д ней</w>
сим во
вши сь</w>
ш ение</w>
сво им</w>
степен и</w>
сорев но
да в
ки н
а у
по сколь
из бра
ки р
6 0</w>
к ен
бри т
зна чения</w>
ству ют</w>
ше д
фин ан
кре п
канди да
алек се
до ма</w>
про дук
посколь ку</w>
жен а</w>
нача льно</w>
с ро
би бли
тыся ч</w>
несколь ких</w>
церков ь</w>
подо б
го то
in g</w>
восто ч
эф фек
т ки</w>
совет ский</w>
ц кого</w>
од на</w>
авто р</w>
имен но</w>
жи т</w>
к п
рабо ту</w>
с ра
ст ен
жен ы</w>
образо вание</w>
ст ью</w>
сере ди
at i
да ле
h o
ли ст</w>
ря да</w>
ки ло
5 —
пре м
желез но
емы х</w>
е р</w>
та ких</w>
ка ет</w>
ин жен
л ка</w>
се н</w>
уни что
ма кси
о й</w>
ру ет</w>
стан а</w>
пра ва</w>
кон кур
o f</w>
бо л
со вмест
но вых</w>
к вар
ро вания</w>
де ре
ше е</w>
фо то
я р
наб лю
професси ональ
тро м</w>
доку мен
ли нии</w>
гра ф
s o
мно же
сту ден
с ф
долж ность</w>
ре а
л ла</w>
произ о
железно дорож
лю бо
гра н
мы с
ван ы</w>
дивизи и</w>
стре лко
мест е</w>
даль ней
5 -
вы ра
вой ск</w>
це п
обы чно</w>
м э
щ а</w>
щ его</w>
зем ли</w>
ч у</w>
жа л</w>
ми ну
ни з
ни ками</w>
монасты р
ма х</w>
би т
кри ти
жд ы
мо сть</w>
по мо
по лага
учи ли
миха и
сере бр
де мо
xi x</w>
фор мы</w>
у э
у ст
г ло
мужчи н</w>
от ве
доста точ
у си
ви де</w>
3 -
пол ностью</w>
тиро вал</w>
располо жен</w>
сло ж
сте р</w>
сезо не</w>
мат че</w>
ри н
и таль
о грани
ту а
ко ль
у чеб
кон стан
ча й
ми лли
1 —
оте ц</w>
которы м</w>
нью -
тр ёх</w>
вы шел</w>
ви ди
те й
случа е</w>
пис ь
то ром</w>
194 2</w>
член ом</w>
ь ё
п лани
то ров</w>
s p
н ю</w>
ф ла
па в
на гра
пра вос
к ле
дерев ни</w>
щ ей</w>
н ю
уби й
ка мен
комп ания</w>
да ми</w>
ка жды
199 1</w>
ля х</w>
филь ма</w>
выступа л</w>
199 2</w>
фило со
по ки
четы ре</w>
ро вал</w>
се к
« "
наз ванием</w>
верну лся</w>
италь ян
мл н</w>
ста ро
крас но
пос ред
ви ль
осво бо
стви я</w>
сою з
d a
друго й</w>
ро вать</w>
получи ла</w>
возраст е</w>
са д
от прави
кон струк
инте ре
лы е</w>
ре мен
иг р</w>
та кие</w>
ско н
у ка
мо го</w>
первы х</w>
с ми
за слу
свя щен
ре ка</w>
ка те
бе з
й ор
обла ст
но к</w>
кото рую</w>
с рав
вой ска</w>
ты с</w>
за кры
ти н</w>
позд нее</w>
о п
m o
успе ш
арти л
пол ка</w>
се д
ради о
фер ен
цион ной</w>
" »</w>
нов ремен
н ения</w>
ме д
поло ви
м лад
совер шен
ну ж
ста ть
о то
экс пер
вне ш
ё тся</w>
ма ш
импери и</w>
себ е</w>
за би
по в</w>
18 3
лы й</w>
з ей</w>
ля ется</w>
про тя
университе те</w>
фа ми
ле г
мини стер
рус ской</w>
с ре
артил лери
3 ,
ге ль
ре али
од новремен
яви л</w>
не которых</w>
ва ются</w>
спи сок</w>
ки »</w>
по станов
199 8</w>
4 -
щи е</w>
заво е
р ф</w>
ша х
помощ ью</w>
фи ци
остро ва</w>
ки н</w>
вод ы</w>
ль ном</w>
те а
глав ным</w>
сол да
па три
фе сти
дви жения</w>
альбо ма</w>
пес ни</w>
эле мен
о ном</w>
2 —
север ной</w>
пере се
199 7</w>
ни че
деятель ности</w>
ме ль
пар хи
x x</w>
по па
пар та
8 0</w>
ря дом</w>
хри сти
тель ное</w>
t er
о цен
е пархи
0 0
да л</w>
ст р</w>
коман да</w>
после до
у г
l e</w>
чемпиона т</w>
кон трак
жа ть</w>
вы ше</w>
д лин
пол но
ч ением</w>
город ской</w>
относи тся</w>
e s
бе с
дли на</w>
ком муни
име ют</w>
про вёл</w>
возмож но</w>
пример но</w>
кафе д
ска за
мест а</w>
199 0</w>
генера л-
но вые</w>
уда лось</w>
велико брит
де л</w>
уез да</w>
й ти</w>
хи ми
ре б
бо ри
ж ений</w>
основ е</w>
ма к
са ми</w>
сле до
то му</w>
правос лав
расположен а</w>
м ян
пер вая</w>
199 6</w>
су ль
э м
a n</w>
p o
ми ра
вы з
ка то
у ро
4 —
фести ва
институ т</w>
вари ан
ты м</w>
р ения</w>
ма ль
ино гда</w>
ми н</w>
ени ях</w>
х ор
ё м
с мен
3 —
жиз нь</w>
стан ция</w>
куль тур
руковод ством</w>
на »</w>
бо га
199 4</w>
бе зо
ви дов</w>
1 -й</w>
самы м</w>
ч ная</w>
по ле
п ании</w>
ве л</w>
комму ны</w>
ма ло
ь ян
лон до
город ского</w>
u s
по ста
д э
ви и</w>
верси и</w>
восто чной</w>
особен но</w>
т ным</w>
д ва
син г
библи оте
серебр я
ак тё
ля н
18 0
199 5</w>
бле й</w>
ча лся</w>
ж ер
н ер
i r
олимпи йских</w>
запад ной</w>
ни ка
вод а</w>
рас ши
поли ти
окру г</w>
сс ы</w>
199 3</w>
не ф
ни цы</w>
о не
ру ется</w>
литера тур
ру до
з м</w>
раз у</w>
ж ением</w>
то на</w>
по ле</w>
поло жи
в шей</w>
со стоит</w>
посё лок</w>
самы х</w>
при сут
поль зо
то м
ст о</w>
одновремен но</w>
мор я</w>
с ли
ва то
разви тия</w>
хо в</w>
ни ми</w>
уч ени
е же
большин ство</w>
ц вет
17 9
ма г
i ii</w>
те х</w>
т ю
мо но
d e</w>
у ра
рабо т</w>
высту пи
к ров
рели ги
че скую</w>
тем пера
проис ходит</w>
« а
ён ный</w>
и ми</w>
игра х</w>
спор тив
о к</w>
ки тай
чен ы</w>
оконч ания</w>
со хран
пол ков
проек т</w>
пя ть</w>
i n</w>
круп ней
бо м
мо л
сто ли
та ри
о ч
х ро
ы х</w>
пе т
графи и</w>
ма те
ро ван</w>
при гла
рус ский</w>
7 0</w>
бе ль
це лью</w>
ст я</w>
x v
сте н</w>
6 —
ст ин
провин ции</w>
кон ца</w>
ю ще
ю щее</w>
з ин
совет ского</w>
по ми
ан али
ве ке</w>
юж ной</w>
су м
россий ский</w>
ору жи
вни м
й ском</w>
язы ка</w>
еха л</w>
о хран
хо л
з ен
су б
проис хо
из ра
ки но</w>
дми три
действи я</w>
аэ ро
образ у
ш ки</w>
20 0</w>
д ж</w>
ме л
тель ным</w>
ж ной</w>
а фри
при меня
та н</w>
по что
ге ор
пар ла
раз ру
де б
в шая</w>
коро т
ва си
име л</w>
безо пас
кре по
2 5
клад би
профессо р</w>
не му</w>
пре ми
ку п
б и</w>
т во
дво р
дерев не</w>
ма с
президен та</w>
. 0
в ё
чи ты
систе ма</w>
по ро
боль шая</w>
г ля
ав стра
ф ра
у строй
националь ной</w>
е зд
пре кра
веро я
извест но</w>
ён ные</w>
тре б
эти м</w>
по ня
an d</w>
куб ка</w>
вос пи
ли за
ми кро
пери од
тан а</w>
гер цо
посе ление</w>
школ у</w>
ш ую</w>
198 9</w>
фи гу
ф ан
не де
т ная</w>
ми ре</w>
восто ке</w>
пере шёл</w>
теат ра</w>
высту п
чен а</w>
укра и
ц кой</w>
пе да
возмож ность</w>
ле том</w>
дол жен</w>
включа я</w>
н ё
ка в
про во
и ност
6 -
обеспе чи
поки ну
чу в
ли н</w>
по вы
бли з
ци ях</w>
у правля
ла й
нью- йор
с вет
э ми
тиче ской</w>
т чи
техно логи
ро ли</w>
га м</w>
ствен ным</w>
язы к</w>
част ью</w>
иност ран
зер бай
о жи
награжд ён</w>
ани ем</w>
по хоро
p h
н ение</w>
8 —
7 —
рай он
до гово
дол ла
ва ль
глав ный</w>
бе л
ис пан
участ ник</w>
вя н
со циали
ма тер
рам ках</w>
в за
основ ан
шко ле</w>
деятель ность</w>
хо м</w>
ко вой</w>
191 8</w>
сель совета</w>
архи тек
пер вую</w>
по верх
государствен ный</w>
спу стя</w>
цион ных</w>
фут боль
о зна
вод я
выпу щен
государствен ной</w>
си бир
други ми</w>
ули ца</w>
представля ет</w>
ба таль
а ф
комите та</w>
с виде
а зербай
зд ание</w>
у мер
да »</w>
г ну
бо ро
ч ным</w>
мет од
рус ского</w>
щ ины</w>
пер ен
язы ке</w>
от каза
ли ст
допол ни
поддер жи
университе т</w>
ме н</w>
б ран
стан дар
большо е</w>
составля ло</w>
з вание</w>
карьер у</w>
д ня</w>
а ген
3 5</w>
полу ча
к ер
рабо те</w>
мо ло
ви ть</w>
ле с
все й</w>
со общ
не ё</w>
пре имуще
с фер
использу ется</w>
кру г</w>
по ве
секре тар
ж ных</w>
т ской</w>
против ника</w>
педа го
защи т
пер вое</w>
ще н</w>
ли на</w>
ка ль
пе хот
ту р</w>
рован а</w>
до чер
вы да
до маш
де парта
дан ных</w>
й -
т ского</w>
ин стру
лан дии</w>
пер вом</w>
при мен
193 9</w>
пло т
ду хов
жи ть</w>
ка з</w>
об уч
прак тически</w>
сто к</w>
м ся</w>
та »</w>
верхов ного</w>
фор ми
дебю тировал</w>
т юр
на де
кра я</w>
ли ги</w>
ле га
демо кра
н -
производ ства</w>
заво д</w>
ван о</w>
короле в
ё х
слу жил</w>
а ссо
бо го
пози ции</w>
u t
много числен
ен ь</w>
москов ской</w>
ту ри
о логи
ма ть</w>
под разде
кни ги</w>
станови тся</w>
глав ного</w>
ги м
при род
с разу</w>
коро ля</w>
анд ре
ж ей</w>
при сво
п у</w>
e n</w>
избра н</w>
о пы
бо й
с ь
казыва ет</w>
за пре
на ро
по пыт
из бира
цион ного</w>
правитель ства</w>
семей ства</w>
су р
ма ссо
го ся</w>
ви ли</w>
пра во</w>
корпу са</w>
в »</w>
9 —
сыгра л</w>
други м</w>
ки ев
ок е
встре ча
ита лии</w>
су д
упо мина
строитель ство</w>
пере имено
м ани
воен но-
сто й
и ни
та ции</w>
при обре
ц ени
ап пара
ги на
ми »</w>
учи лся</w>
вмест о</w>
i g
де р</w>
у ма</w>
вши хся</w>
ру бе
э ту</w>
пол к</w>
сред не
ва ре</w>
мн ению</w>
сезо н</w>
счита ется</w>
кра й
по став
г на
ён ной</w>
административ ный</w>
отнош ения</w>
стра н</w>
возду ш
тен ан
4 ,
бли жа
воло сти</w>
находи лся</w>
бу д
ли т
га н</w>
гро м
по ряд
ч ении</w>
vi ii</w>
поми мо</w>
вы став
ре ша
спор та</w>
дву мя</w>
ди пло
лей тенан
ка ва
лен ных</w>
дже й
из уч
си лы</w>
суще ствует</w>
ч ки</w>
п лу
с нова</w>
р сф
про вед
ча сти
цен тром</w>
со едини
ча с</w>
государ ства</w>
0- е</w>
191 7</w>
филь ме</w>
а м</w>
вос станов
у м
вши йся</w>
ра н</w>
пре ступ
по ко
до чь</w>
молод ё
шко ла</w>
ш ка</w>
сен тябре</w>
в ка</w>
тель ства</w>
служ бу</w>
послед ний</w>
ч ном</w>
е ка
поги б
емы й</w>
е м
влади мир</w>
4 5</w>
л »</w>
до н
194 0</w>
гвар дей
ба ты
основ ной</w>
ди н
ф он</w>
ки на</w>
« с
a g
рабо чи
ствен ные</w>
кажды й</w>
а »</w>
раз вед
сем ьи</w>
ре аль
ро ман
вой ска
обо рудо
нача ло</w>
дру г</w>
ле м</w>
долж ности</w>
зи рован
во е
от ца</w>
ти на</w>
ющ ем</w>
принадле жа
о пер
никола й</w>
за д
команд у</w>
фи р
испол ня
ню ю</w>
у са
ва й
по ступил</w>
рсф ср</w>
азербай дж
дея тель</w>
ма е</w>
вши м</w>
чет вёр
пу те
ков ского</w>
тру до
ви да</w>
заня л</w>
воз ник
ста н</w>
во -
2 -й</w>
у бе
пси хо
по р</w>
работа ть</w>
тер а</w>
за мен
a p
ве до
ш вей
емы е</w>
содер жа
де -
198 8</w>
мер е</w>
достаточ но</w>
сан -
ар ен
со р
до бро
бы ст
контрак т</w>
дол го
ан то
губер на
тя бр
ст ей</w>
лю б
середи не</w>
л ли</w>
ори гина
помощ и</w>
те ла</w>
пес ня</w>
жи ли</w>
ма стер
раз ных</w>
до ба
пу ти</w>
мар те</w>
д я
мар ш
ти в</w>
дека бре</w>
титу л</w>
ф ё
долла ров</w>
па ла
до к</w>
к то</w>
отли чи
авгу сте</w>
ян варе</w>
лен ной</w>
опера ции</w>
пре мии</w>
дей ство
второ го</w>
пи сь</w>
пу сти
завер ши
при ве
все гда</w>
бур г
вы игра
ро к</w>
6 5</w>
жен ный</w>
ра ке
ок тябре</w>
ги дро
миха й
москов ского</w>
ени ями</w>
совет ской</w>
г ла</w>
про то
христи ан
зна чение</w>
пла т
но вая</w>
комп ью
по ез
орден а</w>
э по
моск ва</w>
под вер
осно ва
явля лся</w>
са жи
музы кан
пред полага
го лов
сель ское</w>
ко пи
ц ем</w>
ра »</w>
за коно
ма ги
искус ства</w>
во д</w>
по кры
дер жа
ши н
л ки</w>
все м</w>
доро ги</w>
пя т
проек та</w>
возгла вля
э д
м од
о но</w>
ра м</w>
ц ы
6 4</w>
l u
и д
ла я</w>
стату с</w>
свя того</w>
кладби ще</w>
пу т
3 2</w>
ло г</w>
комп ани
сс ер
ме тра
выпу ска
шта т</w>
ленин град
фика ции</w>
ма га
бассей н</w>
александ ра</w>
ён ного</w>
отли чие</w>
коман ду
пада ет</w>
дву х
ла у
запа де</w>
ща ется</w>
теа тра
s u
сво ём</w>
го ль
ж о
позво ли
n o
долж ны</w>
созд ания</w>
от ра
сбор ную</w>
бо к</w>
ти ю</w>
на ря
про ходит</w>
кан ад
воен ного</w>
выпу сти
после ду
марш ру
служ бы</w>
прин ци
э ль
брон зо
вос ст
учили ще</w>
чен о</w>
вла д
муниципа лите
принима л</w>
расс матри
ца м</w>
ди с
наблю да
од но</w>
ди л</w>
с начала</w>
ш о</w>
ве р</w>
ки сло
ста ти
лю ди</w>
ко вых</w>
протя жении</w>
за м
р -
архи те
тель ная</w>
на с
территори аль
ц ом</w>
чер но
ч ное</w>
бр ю
отно ся
у с
ва силь
м с</w>
больш ую</w>
цент ре</w>
по ка</w>
выпол ня
и е
з ри
спор т
я ся</w>
си туа
религи оз
иг ра</w>
прем ьер
изве стен</w>
к ну
б ру
193 8</w>
са р
жен щины</w>
че твер
гра ф</w>
дви жение</w>
ию ле</w>
над ца
националь ного</w>
193 7</w>
утвер жда
и ван</w>
со кра
ста ди
d s</w>
раз но
« о
лен ные</w>
тя жё
американ ский</w>
великобрит ании</w>
оборо ны</w>
те л</w>
ш ер
s h
со бира
похоро нен</w>
й ские</w>
c or
да м</w>
регу ляр
крас ной</w>
президен т</w>
геор ги
тиче ских</w>
ни н
за й
по м</w>
ши ри
ё р</w>
в ри
191 9</w>
ни же</w>
у ль
на писан
твор че
под твер
д »</w>
правитель ство</w>
7 -
ав ли
198 7</w>
ию не</w>
е сте
не посред
со на</w>
9 0</w>
7 ,
с вер
17 8
198 6</w>
b e
ули цы</w>
вы шла</w>
у зна
ми тро
сто й</w>
комму на</w>
е ги
коне ц</w>
еди ня
стан авли
по -
програм мы</w>
жд е</w>
пас сажи
ак три
следу ющие</w>
м ё
заби л</w>
фрон та</w>
м ю
мер а</w>
де ву
по вто
то ри
198 0</w>
ро бер
ль ную</w>
и л
при ме
вод у</w>
сто л
ч ка</w>
орден ом</w>
сы на</w>
му зей</w>
населён ных</w>
192 0</w>
6 ,
вши еся</w>
198 5</w>
ща ет</w>
co m
по хо
объ я
зе лё
до би
гер ман
ку да</w>
вой не</w>
ля ми</w>
цион ный</w>
та кой</w>
разви тие</w>
множе ство</w>
при ходи
апре ле</w>
s »</w>
э ки
соста ва</w>
5 00</w>
а т</w>
аре сто
сло ва</w>
чи к</w>
ха й
де мон
по чё
ва х</w>
с ви
х у</w>
эк спе
центра льной</w>
я ро
опреде лён
крест ьян
совер ши
перво начально</w>
экспе ди
ту ре
ло ж
воору ж
бо в</w>
ков ский</w>
ра ун
ди ссер
ноя бре</w>
боле з
мо е</w>
па ро
во льно</w>
- то</w>
поло жение</w>
воен ной</w>
торго в
пад ения</w>
но вым</w>
си я</w>
2 8
го л
оде й
фор му
дво ря
га х</w>
б из
хоро шо</w>
q u
т ное</w>
извест ный</w>
в ной</w>
ени ям</w>
оди но
му р
c i
общ ей</w>
авто но
вним ание</w>
хра м</w>
вла де
стра не</w>
очеред ь</w>
ито ге</w>
пре вра
ла м</w>
като ли
на писал</w>
ф ар
ге рой</w>
стати сти
196 0</w>
груп по
е ц</w>
по ру
й о
д -
196 5</w>
цве та</w>
исследо вания</w>
ф ре
истори я</w>
член ов</w>
само го</w>
щи м</w>
кон ститу
аэро пор
х е</w>
ближа й
моск вы</w>
с де
ста ми</w>
занима лся</w>
б -
т ский</w>
мета л
восто ку</w>
дж о
кол хо
совмест но</w>
ющи ми</w>
ла гер
га ми</w>
са ра
до сто
со ору
ти рован
ствен ное</w>
япо н
се год
мо г</w>
пре ду
гла ве</w>
во к</w>
реда к
ла м
са х</w>
194 6</w>
пор ту
ь ера</w>
соответ ствии</w>
по вед
про дю
ло вич</w>
бо м</w>
работа ет</w>
ца х</w>
198 4</w>
u m</w>
од ном</w>
193 0</w>
e »</w>
при вле
жа ет</w>
к ке
ку па
ти ли</w>
ти ем</w>
́ н
фили п
пере вод
ре ак
v e</w>
кон ф
финан со
а зи
т р</w>
до не
су пру
хар ь
импера тор
й ская</w>
те пер
получи ли</w>
большо го</w>
февра ле</w>
нас читы
остро в</w>
t a
дей ству
му ль
зд ания</w>
г ей</w>
журна ла</w>
скон чался</w>
ст у</w>
дан а</w>
точ ки</w>
шо у</w>
фло та</w>
тепер ь</w>
ини циа
уча сток</w>
2 4
о зер
функ ци
ци к
196 8</w>
пре ж
стар ший</w>
ли ге</w>
во круг</w>
сер ге
площа ди</w>
ассо циа
ку з
офи це
ми но
безопас ности</w>
m i
послед ние</w>
воен ных</w>
мо ги
прави ло</w>
на ли
мо к</w>
бра ть
пре до
анг лии</w>
шта ба</w>
прав ления</w>
2 3
я н</w>
кла сса</w>
ц к</w>
дж ор
иг ре</w>
состоя нию</w>
различ ные</w>
влия ние</w>
у празд
про ш
7 5</w>
197 0</w>
бра т</w>
само стоя
т ка</w>
ц о</w>
ку пи
е мой</w>
ло ва</w>
больши е</w>
ма ми</w>
япо нии</w>
5 ,
находя тся</w>
ис пании</w>
социали сти
председа тель</w>
сем ь</w>
197 6</w>
ин де
гра фа</w>
увели чи
гим на
само й</w>
основ ные</w>
мы х</w>
револю ции</w>
кон сер
197 3</w>
з рения</w>
прези ди
дан ные</w>
мат чей</w>
ро вание</w>
196 6</w>
следу ет</w>
197 5</w>
л ке</w>
тя же
запа ду</w>
кор ре
бе д
еже год
сель совет</w>
начи ная</w>
турни ра</w>
жд ении</w>
u l
ку н
ч ению</w>
из уча
мат ч</w>
завод а</w>
197 9</w>
194 8</w>
пред ме
лё г
не м
путе ше
име ли</w>
роди лась</w>
л ла
от да
зна мени
ску ль
ста в</w>
михаи л</w>
до ктор</w>
198 2</w>
о пис
расстоя ние</w>
то ры</w>
при бли
щ ении</w>
t r
экспер имен
реш ения</w>
196 3</w>
тре бу
ющи хся</w>
конф лик
созда н</w>
си льно</w>
го рии</w>
197 2</w>
эки па
на ступ
се й</w>
од ну</w>
ре ж
в с</w>
тру да</w>
п -
четыр ёх</w>
ос ен
каж до
исследо ва
мен а</w>
че скими</w>
групп е</w>
ви ла</w>
кон ферен
ре чной</w>
скуль п
актив но</w>
з вез
тель ную</w>
нача ли</w>
пу ш
мо ри
пос т</w>
кры м
ко ле
сер гей</w>
тур у</w>
со прово
де ли
групп у</w>
с пис
производ ство</w>
ком мер
ж ению</w>
пя ти
прак ти
включа ет</w>
раз рабо
футбо лист</w>
i s</w>
услови ях</w>
ко ст
бое вых</w>
науч но-
195 9</w>
воз ра
з вё
а по
ста ры
ба ра
позво ля
ва ли
г не
ба ро
ш от
рабо та</w>
то е</w>
ки та
8 -
слова м</w>
сер ьё
р »</w>
эффек тив
198 3</w>
крест ья
су дь
п ля
195 6</w>
же л
д я</w>
ука зом</w>
объ яв
192 6</w>
свя той</w>
ла бо
элек три
197 8</w>
чё м</w>
насле д
за яв
ле р</w>
197 4</w>
значи тельно</w>
квар ти
бар ди
g o
ве ще
не одно
ма то
сту ди
у станови
192 9</w>
ор ке
о ль
ре ке</w>
использо вать</w>
с ё
побе ду</w>
ге й
196 7</w>
геро я</w>
которо му</w>
официаль но</w>
ни дер
по том</w>
в ская</w>
вос ь
об и
порту га
198 1</w>
195 8</w>
ста ть</w>
осно ван</w>
до ров
196 4</w>
пунк тов</w>
з ве
вер и
турни ре</w>
ле д
музы ки</w>
строитель ства</w>
еписко п</w>
ч ь
не до
ш ар
ва лен
го й</w>
числен ность</w>
бо р</w>
расположен о</w>
ла к
ти лся</w>
195 4</w>
муниципа льного</w>
за писи</w>
обя за
мини стро
дере вян
науч ных</w>
от став
ме кси
р д</w>
тиче ского</w>
i a</w>
197 1</w>
дан ный</w>
ста х</w>
че к</w>
v er
ком а</w>
ч ную</w>
г -
x viii</w>
о пас
кав каз
ш у</w>
3 3</w>
у л</w>
ск ри
пи ло
ре н</w>
под ня
ру мы
остро ве</w>
на за
дж он</w>
спо н
193 6</w>
3 6</w>
быст ро</w>
з од
ш ве
ко во</w>
по яв
ка й
евро пе</w>
ко ри
фина ле</w>
ана то
ме ст</w>
лен ь
20 -
ш тур
3 4</w>
3 0
за пу
y o
мини стра</w>
чис ла</w>
f o
сред ний</w>
арми я</w>
соответ ству
196 2</w>
свя з
вла дель
г да
m ar
ар хе
де вя
ве й</w>
вани ях</w>
при соедини
о ны</w>
э ска
тель ство</w>
ф е</w>
ни л</w>
сред ней</w>
извест ные</w>
обо зна
ф ро
побе реж
- а
щен ы</w>
h e
га ет</w>
при води
следу ющий</w>
состоя лся</w>
пер вен
ко мен
ор а</w>
197 7</w>
управ ление</w>
общ его</w>
вс ю</w>
грани цы</w>
те ра
вы играл</w>
план е
195 7</w>
l a</w>
реги ональ
i v</w>
тео рии</w>
дивизи я</w>
ров ки</w>
закон чи
меда ли</w>
a d
сою з</w>
пунк т</w>
состоя лась</w>
хозяй ства</w>
ж ского</w>
экс плу
па ле
фор ме</w>
про сто</w>
сей час</w>
институ те</w>
изра и
серьё з
у иль
ок тябр
це -
за ли
зи м
буду чи</w>
фи и</w>
в ру
дале е</w>
a b
премьер -
с ва
о са
обя зан
констан ти
ль ского</w>
с ко</w>
у р
обще ство</w>
мо гли</w>
вза им
по ни
су да</w>
соответ ственно</w>
196 1</w>
вер ши
щен а</w>
окон ча
ре мон
рус ских</w>
пото му</w>
слу жа
ст ани
1 -го</w>
ле та</w>
в -
у м</w>
до ме</w>
ро ман</w>
пред ы
ква ли
ль ский</w>
глу бо
а стро
193 5</w>
д ца
позво ляет</w>
систе ме</w>
соста в
ре кор
ше н</w>
су пер
коми ссии</w>
ро сто
ен ных</w>
о гром
ства ми</w>
l in
больши х</w>
ati on</w>
у гро
не р</w>
зе ме
g e
пред лага
писа н</w>
пре жде</w>
факульте т</w>
ры н
реги оне</w>
9 ,
дальней шем</w>
ре е
относи тельно</w>
раз а</w>
проте кает</w>
лабо ра
кто р
ти ви
ж ный</w>
ан на</w>
p e
ь ма</w>
шта та</w>
по со
сцен ари
196 9</w>
по ля</w>
не которое</w>
фами лия</w>
194 7</w>
войска ми</w>
ствен ная</w>
ён ная</w>
т ских</w>
раз ли
ш вед
чен ко</w>
й ским</w>
при бы
во спо
началь ник</w>
произ ведения</w>
фу н
митро поли
отли ча
а зии</w>
194 9</w>
президи ума</w>
бер г</w>
ден е
й ный</w>
началь ника</w>
осуществ ля
ком у</w>
en t
ре сур
му ю</w>
под ро
ма »</w>
представи телей</w>
уров нем</w>
информа ции</w>
по жа
ни кам</w>
больши м</w>
пе сен</w>
коман д</w>
дер жи
вы бра
учре жд
а да
рас преде
содер ж
утвер жд
ма т</w>
зо н
кни га</w>
ру ют</w>
ющ ую</w>
смо г</w>
г ли
та цию</w>
сво ими</w>
це лом</w>
де ло</w>
во ка
ла т
преды ду
ча х</w>
за явил</w>
под чи
ком би
195 0</w>
преимуще ственно</w>
у мень
инжен ер
лени на</w>
ва »</w>
ле тия</w>
со чин
ново е</w>
ль ской</w>
и ска
сво й
чис ли
го »</w>
террито рия</w>
чемпи он</w>
кня же
меся цев</w>
кре й
международ ного</w>
стра нах</w>
4 4</w>
фа бри
ты ми</w>
лен ный</w>
жен о</w>
4 2</w>
вен е
дол го</w>
мер ы</w>
коро ль</w>
золо той</w>
зем ле</w>
замести тель</w>
ав стри
пи ра
препода ва
вла сть</w>
ма лень
дви ну
c e</w>
луч ших</w>
су н
ющи еся</w>
истори ю</w>
до р
ме три
коман де</w>
сторон у</w>
х ен
продол жи
ке т
до бы
счё т</w>
ро ждения</w>
восто к</w>
потер я
веден а</w>
ба зе</w>
ни ку</w>
е мого</w>
ве щ
п ье
ме ро
при ш
кате гории</w>
верси я</w>
у креп
о ле
пре сто
удо сто
ни ке</w>
ля ции</w>
арми ю</w>
бело ру
матер и</w>
съ ез
до вольно</w>
по степен
желез ной</w>
спорт смен
3 8</w>
3 7</w>
з н
« за</w>
о казыва
исследо ваний</w>
пре образо
ли ней
a u
192 2</w>
за веду
име ется</w>
ро вич</w>
солда т</w>
теля м</w>
команди р</w>
че л
ди ть</w>
192 4</w>
с не
дире ктор</w>
теат р</w>
занима л</w>
веден ы</w>
к лон
му н
глав ной</w>
ство вал</w>
то вари
192 1</w>
ства х</w>
инстру мен
пор тре
пар тия</w>
хо кке
л ера</w>
и стре
д ани
воен ный</w>
w ar
нор ве
об а</w>
о хот
т ания</w>
р ю
мо ре</w>
ско в</w>
о цени
ха м
со об
щ у
промышлен ности</w>
ро ва</w>
дво ров</w>
меда ль</w>
проце сс</w>
ци ями</w>
вы ну
бом барди
наз вания</w>
лау реа
« не
ны »</w>
г »</w>
ле ген
ч ан
корпу с</w>
представи тели</w>
тр ёх
сси я</w>
дочер и</w>
пут ём</w>
со сед
бо ло
ь ев</w>
педаго ги
си ст
хра ма</w>
ча сов</w>
уров не</w>
192 8</w>
сторо не</w>
5 5</w>
ве ли</w>
тиче ские</w>
п ё
кра тно</w>
действи й</w>
бы вший</w>
1 .
р э
ка ри
ди й</w>
же ле
ка д
кни ге</w>
е ром</w>
o p
ре ст
ко сми
имен ем</w>
о писы
законо да
с но
действи е</w>
го спо
сла в</w>
тель ности</w>
ива нович</w>
193 4</w>
че т</w>
щ ер
кни г</w>
195 3</w>
в но</w>
8 ,
ту ю</w>
3 -й</w>
памят ник</w>
с нима
теле фон
ре зер
работа ла</w>
кла д</w>
вы ход
« у
на -
макси ма
де ла</w>
заслу женный</w>
цион ные</w>
сю же
п лод
вед ён</w>
с в</w>
за боле
ли ца</w>
ро вали</w>
свиде тель
маг ни
пло ть</w>
оз ера</w>
тран с
ть ю</w>
трен ер</w>
му ж</w>
азербайдж ан
отме ча
пре доста
на ло
два жды</w>
ку бок</w>
рован ы</w>
дли ной</w>
возмож ности</w>
пар т
ж де
в ступил</w>
ли тов
председа телем</w>
граждан ской</w>
ли ть</w>
бо ях</w>
за мет
ша ет</w>
год о
тео ре
посё лка</w>
193 3</w>
ж ской</w>
in g
аль ной</w>
юри ди
ули це</w>
го лу
9 -
́ р
реши л</w>
17 7
ли ю</w>
период а</w>
фор ма</w>
упо треб
сен а
б рази
3 00</w>
щ ем</w>
a r</w>
ни на</w>
о ши
х ло
буду т</w>
з »</w>
ссо в</w>
ст ера</w>
ви це-
искус ств</w>
министер ства</w>
ы е</w>
спо со
поль ского</w>
побе ды</w>
сель ско
фе ль
сред ств</w>
би ли
195 5</w>
с да
уров ня</w>
192 3</w>
ж у</w>
бол га
чемпи оном</w>
нау ки</w>
р ё
лет них</w>
193 1</w>
рей тин
из мени
смо лен
у луч
вто ры
моде ли</w>
дж он
нов о</w>
в плоть</w>
сельско хозяй
вто ром</w>
мат ча</w>
не уда
председа теля</w>
тре тий</w>
пар к</w>
полови не</w>
лан а</w>
жё л
основ ных</w>
ар мян
195 2</w>
одно им
193 2</w>
вероя тно</w>
пу ть</w>
« »</w>
посвя щ
то ва
ла -
патри ар
э сто
север е</w>
до ступ
от прав
ж ного</w>
раз би
бур г</w>
т ани
широ ко</w>
си гна
те пло
ве сь</w>
4 8</w>
пред назна
до ви
c on
прожи вало</w>
происхо ждения</w>
актив ными</w>
я тся</w>
ав т
отде ления</w>
сред ства</w>
самы й</w>
бро не
вели кого</w>
мор ской</w>
m e</w>
пен си
из начально</w>
фин лян
электро н
201 9</w>
бал ти
ю »</w>
ред ко</w>
горо дов</w>
полно мо
жер т
жи тели</w>
пя ти</w>
тель ность</w>
отде ла</w>
вы зыва
круп ных</w>
она х</w>
ор дина
су д</w>
бо к
само м</w>
выбо рах</w>
ги я</w>
извест ных</w>
стра ни
ко вые</w>
ре е</w>
за р
расположен ы</w>
музе я</w>
en t</w>
компани ей</w>
из о
су ме
ю ге</w>
к нов
ме й</w>
степен ь</w>
с кан
брига ды</w>
националь ный</w>
го л</w>
вз ры
авто бу
импера тора</w>
говори т</w>
че л</w>
тра в
хозяй ств</w>
любо в
ти ла</w>
ре м</w>
мы м</w>
пара лле
высо ко
долж на</w>
сла в
част ей</w>
ген ри
ш ав
ни ем</w>
бу к
ев г
ана логи
эпи зод
выс шей</w>
то ма
ю но
w or
тех ники</w>
уров ень</w>
ва ми</w>
г ви
капи та
зависи мости</w>
исклю чи
об служи
та -
ла »</w>
бе й
постро ен</w>
международ ных</w>
на пря
1 /
мини стр</w>
ад мира
ленин гра
ори ен
ни ках</w>
192 7</w>
фина л</w>
окру ге</w>
отнош ении</w>
кон цеп
но мина
e m
са к
му суль
« о</w>
ли не</w>
зи я</w>
помощ ь</w>
а х
по н
в спо
реги она</w>
2 7
чемпи он
си д
я т</w>
стра те
филь мов</w>
рус ские</w>
одо ро
об нов
ба зи
россий ского</w>
ше сть</w>
боль ше
о л
ч ён</w>
измен ения</w>
вдо ль</w>
т т</w>
в ходят</w>
an d
защи ты</w>
мага зи
ж ные</w>
княз я</w>
ря де</w>
нов ую</w>
приня то</w>
мужчи ны</w>
ни когда</w>
до мо
ново му</w>
плот ность</w>
тюр ь
н ению</w>
ща л</w>
ва в</w>
высо та</w>
истре би
ль ными</w>
из готов
вод ного</w>
ли зо
191 4</w>
созд ание</w>
за ста
ру блей</w>
вен г
сериа ла</w>
ж ар
кон стру
4 1</w>
теле вид
во шли</w>
вше йся</w>
американ ской</w>
встре чается</w>
s ch
проис ходи
се ти</w>
па у
ве н</w>
сем ья</w>
га »</w>
груп п</w>
гор ь
ше к</w>
гру зо
о р</w>
исследо ватель
фор му</w>
игро к</w>
195 1</w>
2 6
д ре
режиссё р</w>
ль во
сс кая</w>
г ры
дина сти
3 9</w>
нача лась</w>
л ён</w>
произо шло</w>
у виде
ви я</w>
а о</w>
актив ных</w>
вопро с</w>
5 2</w>
про па
ти п</w>
лы м</w>
ц у
се р</w>
сотруд ниче
ма рия</w>
получи ть</w>
у с</w>
про шёл</w>
т ном</w>
4 3</w>
н »</w>
ра баты
за л</w>
э ри
приня ли</w>
но с
аль -
ти ру
работа ли</w>
мест ных</w>
ход ов</w>
журна ли
авто р
пере гово
ев ского</w>
я -
ва м</w>
сказа л</w>
ар ген
xv ii</w>
постоян но</w>
ш тей
бю ро</w>
публи ка
с кры
192 5</w>
вы ходи
сво ему</w>
мы е</w>
нача лось</w>
авт одоро
зве зд
х о</w>
же ла
сист ем</w>
биз не
ы »</w>
у ста
литера туры</w>
в д</w>
журна л</w>
м ского</w>
во му</w>
пу ле
времен ем</w>
i i
ин ду
деся ти
ку ро
вну три</w>
ван ный</w>
президен том</w>
упомина ется</w>
h t
мо не
s a
француз ский</w>
газе ты</w>
ност ях</w>
постро й
гвар дии</w>
команди ра</w>
те н</w>
приз н
футбо лу</w>
сс у</w>
использо вания</w>
инде кс</w>
состоя л</w>
ван ных</w>
ь -
теат ре</w>
со против
p ro
раст ений</w>
составля ла</w>
начина ется</w>
тиче ский</w>
ито гам</w>
ре ль
х ер
дале ко</w>
ст я
ни н</w>
ен ный</w>
худож ник</w>
кри ста
постепен но</w>
сдела ть</w>
вес ьма</w>
ло м
ч ными</w>
« в</w>
воро та</w>
ор га
функ ции</w>
ре ц</w>
це ре
турни р</w>
тр ени
v e
политиче ской</w>
вто рая</w>
об ита
дж а</w>
ка са
э ли
эксплу ата
о кра
окон чи
кон ти
появи лись</w>
вз гля
э кра
монастыр я</w>
про з
ко п
епархи и</w>
га ли
ющи йся</w>
по вре
ко сти</w>
га й
4 7</w>
щи ков</w>
мо з
наци она
лет ний</w>
под писал</w>
r u
м оди
по кро
спек так
результа там</w>
тро в</w>
живо тных</w>
возгла вил</w>
фак тически</w>
прибли зи
ла н</w>
чи я</w>
направ лении</w>
м би
кла ды
об вин
ис пыт
современ ной</w>
ро до
по зна
су деб
ди алек
инте рес
сохран я
си лу</w>
сти ки</w>
выпу щен</w>
же сто
участ ников</w>
член ы</w>
выступи л</w>
и ра
пу ска
ни ки
тер мин</w>
т ра</w>
ка л
пробле мы</w>
борь бы</w>
си но
распо ря
по ля
народ ного</w>
к э
парла мен
цве т</w>
присво ено</w>
ве ла</w>
аген т
е мая</w>
у ме
ара б
счё том</w>
во шёл</w>
кон гре
мет ра</w>
пе ви
па ль
ден ь
со пер
ров ка</w>
ле жа
пре вы
немец кий</w>
входи ла</w>
от ряд</w>
ть »</w>
сти ле</w>
рован ных</w>
входи л</w>
c a
бы вшего</w>
окру гу</w>
об ви
административ но-
- о
ви р
кава лери
совет ских</w>
ра ство
5 4</w>
ф ф</w>
сдела л</w>
командо ванием</w>
участи я</w>
каза л</w>
чи ли</w>
дина ми
следу ющем</w>
су хо
борь бе</w>
ск ло
ф р
ви н</w>
из бе
бо я</w>
появи лась</w>
4 6</w>
режиссё ра</w>
успеш но</w>
пари же</w>
га я</w>
пи н
к г</w>
кон так
начина ет</w>
конструк ции</w>
ра ль
вы хода</w>
тив ных</w>
191 5</w>
шен о</w>
s k
основ ным</w>
190 5</w>
ти хо
ба та
5 1</w>
ве ст
систе му</w>
отде ление</w>
наза д</w>
ло го</w>
поддерж ку</w>
тив ной</w>
п то
район ного</w>
кали фор
писа тель</w>
ст рии</w>
мину т</w>
со общи
на по
вше гося</w>
иностран ных</w>
метра х</w>
появи лся</w>
анд рей</w>
бо ра</w>
ро ма
образ и
ни цей</w>
щи к</w>
компью тер
ев на</w>
а ку
срав ни
об уча
э фи
оконч ании</w>
а но
« за
все мир
ше в
хор ва
рабочи х</w>
фа й
- де-
разрабо тан
под ви
гово р
сс ы
про ведения</w>
доро га</w>
милли онов</w>
оказа лся</w>
мен и</w>
международ ной</w>
алексе й</w>
н ении</w>
ши р
се ми
игра ть</w>
монастыр ь</w>
по я
ва ку
ка би
полков ник</w>
с э
группо й</w>
каж дой</w>
дире ктором</w>
актё р</w>
гре б
мо ни
ки ри
та тар
г ря
дан о</w>
сер д
w e
m an
неодно кратно</w>
комплек с</w>
никола я</w>
нов ский</w>
окру жа
расстоя нии</w>
наря ду</w>
сель ский</w>
стре ми
те лю</w>
голо со
приш лось</w>
са н</w>
б оди
ха н</w>
дру га</w>
сопрово жда
ев ский</w>
v o
поверх ности</w>
я на</w>
депута тов</w>
печа т
мате матиче
о су
в ме
конти нен
по в
сол н
й ной</w>
располага ется</w>
жа н</w>
воро не
крас ного</w>
сти ческой</w>
су л
г из
у казан
писа ть</w>
использо вание</w>
амери ки</w>
пере ехал</w>
ке й
официаль ный</w>
тель ном</w>
я ко
сте п
генера ла</w>
ф ен
« по
нача лом</w>
вед ение</w>
кп сс</w>
ён ным</w>
п се
де ти</w>
ча ще</w>
при чём</w>
использу ются</w>
мор ского</w>
ко лон
от правля
ка ко
ре комен
фи ла
второ е</w>
сло во</w>
5 6</w>
ма м</w>
ки е
во ин
пото м
един ственный</w>
b i
про вер
к са</w>
гео графи
водо хозяй
православ ной</w>
га ле
2 9
са до
иг ру</w>
p i
организа ция</w>
называ ют</w>
рус ском</w>
росси я</w>
са »</w>
х ле
сред няя</w>
со ба
да ть</w>
ма стер</w>
за н</w>
выпол нен
проходи л</w>
b a
име ла</w>
э л
з ре
ar d</w>
находи лись</w>
тради цион
откры т</w>
высо те</w>
необходи мо</w>
пес ню</w>
произвед ений</w>
ис че
по нен
опреде ля
создан а</w>
уез д</w>
медици н
чи й</w>
« на
e t
согла си
язы ков</w>
спу т
кто ров</w>
мест ного</w>
синг л</w>
га зо
сбор ная</w>
созда л</w>
вес ной</w>
у и
на пис
ви ду</w>
се л</w>
6 2</w>
у н</w>
э ко
ван ной</w>
взаим одей
́ ль
запа д</w>
ка за</w>
административно- территориаль
каз у</w>
со единя
ми ли
аль ных</w>
ва го
со лю
ма сси
в ью</w>
результа ты</w>
ча сто
то же</w>
осен ью</w>
най ден
5 3</w>
лю д
извест на</w>
нов ка</w>
ми сси
4 00</w>
дан ной</w>
эк спо
дан ы</w>
м ской</w>
зо не</w>
ре с</w>
вой на</w>
аб солю
которы ми</w>
мо ро
комби на
сту дии</w>
сегод ня</w>
ка но
рав но
щи хся</w>
созд ании</w>
дне в
1 0-
д вой
g i
до сту
ли ц</w>
ки не
фор м</w>
ф ы</w>
клу бе</w>
о собы
4 0
ок рест
p ar
чи ка</w>
сты е</w>
не ра
началь ником</w>
реш ением</w>
тра м
мест ности</w>
озер о</w>
мат чах</w>
но ме
с верх
вели чи
вой ну</w>
сол не
ди зай
4 -й</w>
у слу
муниципалите т</w>
выбо ров</w>
кораб ль</w>
секретар ь</w>
2 -го</w>
то вой</w>
луч шим</w>
ма ло</w>
ле ги
то по
с пас
мо ле
глав ных</w>
логи ческих</w>
ка с
те ло</w>
в ступи
e d</w>
иг ры
ве сти
сс и</w>
ни це</w>
при ток</w>
сред нем</w>
с формиро
за ция</w>
гра мо
дире ктора</w>
офи цер
выступа ет</w>
сла ва</w>
со ци
5 8</w>
нуж ден</w>
шен а</w>
э ль</w>
фина ла</w>
до р</w>
вод ных</w>
д р
бо ю</w>
княз ь</w>
- либо</w>
профессо ра</w>
ци ональ
памя ти</w>
называ ется</w>
коло ни
4 9</w>
меро прия
бра та</w>
содер жит</w>
рован о</w>
в ки</w>
ч рез
s t</w>
от ри
швей ца
ре к</w>
вен гер
стар ше</w>
почто вый</w>
луч ший</w>
кни гу</w>
пунк ты</w>
моде ль</w>
c k
ч ности</w>
ин дии</w>
про си
ни чего</w>
за мени
ви ды</w>
1 :
пере ме
наз ван</w>
вы нужден</w>
чи ть</w>
австра лии</w>
кп (
предприя тия</w>
на с</w>
сек су
ви зан
республи кан
генерал- май
ви кто
каждо го</w>
ц кая</w>
ло -
в ском</w>
ту да</w>
пи ш
стре ль
собы тий</w>
авто ром</w>
зы вал</w>
от вер
5 0
пра вом</w>
гру з
жи ла</w>
ко лу
га м
защит ник</w>
осно вании</w>
де ле</w>
на пада
чен ных</w>
xv i</w>
5 7</w>
чи т</w>
кон цу</w>
лей б
зем ле
чи ков</w>
соста вил</w>
t o</w>
сты х</w>
сде лан
тр о</w>
васи лий</w>
носи т</w>
у дар
ч ений</w>
ми на</w>
се мина
пол ё
м ён</w>
д з
реги стри
карти ны</w>
лич но</w>
россий ская</w>
ре зи
оста льные</w>
с мыс
ти ва</w>
тро и
мо мента</w>
сле д
пользо ва
вто р
не большой</w>
ди н</w>
изд ание</w>
карьер ы</w>
к лет
го ры</w>
под ъ
фри дри
фан та
кры ль
оружи я</w>
191 3</w>
и н</w>
́ н</w>
g u
встреча ются</w>
территори ю</w>
тан ко
глу би
ко т
теле кана
пла н</w>
постро ена</w>
хо лод
най ти</w>
завод е</w>
извест ны</w>
ар мей
департа мент</w>
син те
по че
т ёр
6 3</w>
щен о</w>
американ ского</w>
больш ей</w>
бе спо
регу ли
e t</w>
на бра
ди к
с мени
непосред ственно</w>
под чин
зако н</w>
харак тери
ви ду
горо ди
заня ла</w>
осво боди
се мей</w>
ч ью</w>
ква дра
рас па
ни ть</w>
уз бе
а з
дмитри й</w>
га ри
пси хи
от ря
гу н
ро к-
ье вич</w>
а сси
ви но
p er
освобо жд
сло в</w>
получи в</w>
ла тин
современ ного</w>
че ства</w>
об щая</w>
крас ный</w>
собы тия</w>
уси ли
основ ана</w>
ве ден</w>
ре и</w>
ц »</w>
апо сто
рай онов</w>
ф и</w>
ле со
о ло
191 2</w>
меся ца</w>
отправи лся</w>
8 5</w>
лейтенан т</w>
« ма
общ ины</w>
ви на</w>
пере д
кора блей</w>
с хе
ещ е</w>
диссер тацию</w>
попа л</w>
у станавли
ли де
та бли
лиш ком</w>
зна к</w>
аль ного</w>
пыта лся</w>
то пли
генера л</w>
стой чи
тер ро
мо н</w>
до н</w>
ау ди
ком на
со зы
п ры
выде ля
з вания</w>
й ного</w>
° c</w>
парти зан
приз ёр</w>
моск ву</w>
за ми</w>
ге р</w>
бе ла
л лы</w>
ека тери
влади мира</w>
ти ка</w>
государ ств</w>
состоя нии</w>
актри са</w>
о логии</w>
ati on
че хо
относя тся</w>
инди виду
преми ю</w>
скоро сть</w>
ку ри
экономи ки</w>
ма рии</w>
ба к
образо ван</w>
на ступа
россий ских</w>
псе вдо
w a
191 6</w>
покину л</w>
друго м</w>
ер и
ре я</w>
ско р
т ную</w>
съ ём
воен ные</w>
капи тан</w>
t a</w>
внутрен них</w>
вос кре
поги б</w>
обуч ения</w>
находи лась</w>
харак тер</w>
руковод ство</w>
предло жил</w>
то -
ил лю
щ ён</w>
ь ями</w>
ма ке
об ли
6 7</w>
с ных</w>
про возгла
переда чи</w>
мень ше</w>
жа ли</w>
факульте та</w>
вс кую</w>
з доров
пос лу
ар м
фла г</w>
тель ными</w>
та кого</w>
ход ы</w>
p la
интер не
ри чар
еписко па</w>
по нима
ба х</w>
шен ы</w>
ри ю</w>
средне ве
. »</w>
связ ь</w>
объ ё
про спек
филосо ф
б лю
объ яви
у де
наблю д
озна чает</w>
муниципа льное</w>
поли тики</w>
ге н</w>
ли ния</w>
s c
стрелко вой</w>
f i
се ст
я д
ме то
то рии</w>
до ктора</w>
оста нови
обра з</w>
ю ни
жени лся</w>
принадле жит</w>
дис ци
интер вью</w>
маши ны</w>
наро дов</w>
санкт-петербур г
ека тер
по ис
времен а</w>
г э
виде о
храни ли
препода вал</w>
жен ат</w>
6 6</w>
бас кет
сла вы</w>
реги он</w>
спон ден
мар ки</w>
со т
ти »</w>
с лишком</w>
ли зации</w>
бо н
пред принима
в ро
ассоциа ции</w>
поряд ка</w>
при соедин
кило метров</w>
ша яся</w>
си ро
международ ный</w>
м одер
вар шав
оста лся</w>
пред ше
ви ктор</w>
та м
9 5</w>
поль ши</w>
выпу ск</w>
ан о</w>
симво ли
h a
о собо
мо то
га л
ча ть</w>
образо ватель
п р</w>
про яв
ю гу</w>
о со
при ло
мас шта
приня т</w>
6 8</w>
ши ми</w>
осно вания</w>
ду б
не ш
уст ье</w>
юго сла
м не</w>
y »</w>
вато рии</w>
остро вов</w>
ци кло
я дер
пере еха
мен я</w>
пет ра</w>
а л</w>
on e</w>
b er
жи ву
15 0</w>
занима ться</w>
отнош ений</w>
7 2</w>
т кан
про вод
лондо не</w>
дина мо
энер гии</w>
фрон т</w>
ги т
об су
де во
уго лов
украи не</w>
т ков</w>
мл рд</w>
нача лу</w>
но чь</w>
мя г
зако ном</w>
груп пи
g c</w>
5 9</w>
ре кла
вс лед
нов ского</w>
име ются</w>
современ ных</w>
соверши л</w>
6 1</w>
команди ром</w>
вслед ствие</w>
пу ль
пре следо
казах стана</w>
коми сса
тро пи
се ть</w>
объек тов</w>
та л</w>
ло с-
кон тра
сери я</w>
по тен
е к</w>
возглавля л</w>
во шла</w>
о ст
млад ший</w>
нор ма
s on
ч не
пре тен
подготов ки</w>
бассей на</w>
ле в</w>
трен ером</w>
ро мана</w>
ко смо
v i</w>
дж ер
отде льных</w>
обще ствен
вторы м</w>
до каза
e c
приблизи тельно</w>
последо ва
за ло
пиш ет</w>
телефон ный</w>
от ряда</w>
до мов</w>
т ными</w>
горо дах</w>
восто ка</w>
сро к</w>
ве ц</w>
суще ствуют</w>
замести телем</w>
лу р
пла в
са д</w>
сериа л</w>
ис ход
прем ьера</w>
по чита
выну жд
на рода</w>
2 :
рас стре
москов ский</w>
стан е</w>
оч ков</w>
октябр ь
сен -
кре пи
се кун
ин у</w>
мар ша
пора жение</w>
му же
приве ло</w>
по является</w>
про водя
в ье
тиче ская</w>
худож ника</w>
полу чения</w>
изд ания</w>
ан ы</w>
со ва</w>
части чно</w>
ю г</w>
пе й
пё тр</w>
дан ного</w>
ло ша
памя ть</w>
при то
де сан
мо ст</w>
пре сси
успе х</w>
администра ции</w>
чен ные</w>
су до
il l
корре спонден
кан чи
w in
из обре
ж ная</w>
поль ский</w>
све т</w>
ста лин
установ лены</w>
за яви
г мен
полу чает</w>
конферен ции</w>
не доста
срав нению</w>
пра в</w>
дж у
высо кой</w>
лен ного</w>
d u
по строи
n i
и -
гла ва</w>
дисци пли
та кое</w>
н к</w>
сло в
мо ти
до ход</w>
стра да
собо ра</w>
вше е</w>
пере у
ст ской</w>
191 0</w>
па вел</w>
жи в
ве чер
на конец</w>
во к
брази лии</w>
энер ге
бе зу
украин ской</w>
вы я
со н
ру р
а р</w>
7 6</w>
я й
продол жил</w>
« про
род ствен
результа т</w>
гото ви
си и</w>
вы ста
собра ния</w>
ар хан
воен но
демон стри
об работ
кораб ля</w>
стро й</w>
доро ге</w>
государствен ном</w>
ков ской</w>
кур с</w>
ё в</w>
по те
афри кан
игро ков</w>
сотруд ни
р к
бит ве</w>
бу ма
й дя</w>
в вс</w>
f t</w>
ро вался</w>
тив ного</w>
виль гель
ке »</w>
созда ть</w>
да н</w>
тон н</w>
пар ка</w>
кар л</w>
10 00</w>
ки и</w>
аресто ван</w>
руководи тель</w>
послед него</w>
re cor
3 8
цере мо
соревно ваниях</w>
ру ки</w>
199 0-х</w>
do w
э н</w>
отстав ку</w>
француз ской</w>
уч ен
контро ль</w>
на имено
материа лов</w>
го ре
ради о</w>
юри й</w>
отри ца
два дца
ча л</w>
ша ть</w>
ка н</w>
ме стах</w>
белору ссии</w>
филосо фии</w>
кра си
чен ный</w>
вля ет</w>
име ть</w>
с п
ани ях</w>
организа ций</w>
бли з</w>
пе р</w>
ка ре
п ь
эт но
по треб
ву л
обеспе чения</w>
жен ных</w>
визи он
ми ру</w>
ка мер
й ское</w>
инициа тив
ен ные</w>
но ми
с ной</w>
упразд н
ня ется</w>
зо ны</w>
случа ях</w>
190 7</w>
напо мина
ны неш
ос на
куз не
та лан
ги ль
ро ва
англи йский</w>
ги н
ра ско
й ных</w>
ка -
ран ы</w>
ты »</w>
бол гар
командо вал</w>
соревно вания</w>
к ё
круп ные</w>
политиче ских</w>
c k</w>
g e</w>
тя ну
мо ра
с вед
куб ке</w>
у па
ён ное</w>
ви та
2 .
день ги</w>
ан е</w>
звезд ы</w>
уиль я
не у
приводи т</w>
тен ни
ле са</w>
ран ь
ат лан
хи и</w>
х ин
кре ди
связан о</w>
треть его</w>
e x
ник »</w>
бе н</w>
эк зем
из у
мусуль ман
проце ссе</w>
ша ется</w>
па к
ство вать</w>
эта пе</w>
к ы
го лов</w>
вариан т</w>
руководи л</w>
поло жения</w>
кори чне
логи я</w>
нью-йор к</w>
г ло</w>
сме шан
ба т
ф аль
раз мер</w>
многочислен ные</w>
сто лько</w>
э ду
и гор
за регистри
ш ению</w>
игро ком</w>
u b
про шли</w>
м ной</w>
ци и»</w>
лу н
реб ён
лауреа т</w>
за мок</w>
отнош ение</w>
л э
ме мори
ке р</w>
ле вой</w>
ку ра
в клад</w>
кон су
сер б
програм ма</w>
един ственным</w>
то ва</w>
отказа лся</w>
мы й</w>
центра льного</w>
темпера тура</w>
пред положи
дра матиче
дж и</w>
бу н
m on
а гре
ров ского</w>
исклю чением</w>
ня ми</w>
пу сты
ни цу</w>
последо ватель
жда я</w>
ком мен
ко рей
стать и</w>
вы ходит</w>
следу ющим</w>
са ма</w>
мет р</w>
1, 5</w>
май к
сто го</w>
по ла</w>
ли л</w>
экзем пля
фор м
писа ла</w>
ре ку</w>
воспо мин
командо й</w>
6 9</w>
про сь
т ности</w>
авто матиче
у во
че скому</w>
прави л</w>
но ва
кафед ры</w>
за сед
про игра
обуч ение</w>
ко с
вя з
s s</w>
ди ри
в шаяся</w>
клу бом</w>
государствен ных</w>
ства »</w>
зы вать</w>
еди но
страте ги
продолжа л</w>
пе в
ко ордина
ежегод но</w>
вс я
мо мен
с выше</w>
европе йских</w>
ти ра
ду ма
таль ный</w>
дво е</w>
административ ного</w>
ат мо
комите т</w>
о си
фи л
l an
худож ников</w>
« динамо
лени ях</w>
го спи
190 6</w>
ло ко
ме даль
ги та
кило метрах</w>
три бу
жи д
метал лур
вер а</w>
дер а</w>
дости га
ста би
составля ли</w>
ро и
причи ной</w>
ж ом</w>
191 1</w>
извест ного</w>
ен ко</w>
j o
ль »</w>
из мер
си х</w>
хи рур
« ка
фе й
u m
ал ма
ф ру
н г</w>
п лей
возра ста</w>
п лен</w>
пробле м</w>
от рас
о сад
архитек тур
ме сторо
ра -
раз ные</w>
цар я</w>
защи тил</w>
кор пора
x i</w>
позна коми
объ явил</w>
’ s</w>
вопро сам</w>
тради ции</w>
муль т
санкт-петербур ге</w>
ща ть</w>
евре ев</w>
представи тель</w>
су дов</w>
фи кси
молод о
восст ания</w>
лё м</w>
орга нов</w>
э ваку
удосто ен</w>
контро ли
ново сибир
лен но</w>
сы ном</w>
маги стра
де лега
мета лли
ката стро
по един
то вых</w>
си лами</w>
ок купа
истори ческих</w>
вле ка
академи ю</w>
за муж</w>
ван ные</w>
наз вал</w>
и л</w>
пра вед
лю бой</w>
ведо м
поль ской</w>
че ш
на си
оконча тельно</w>
ч ку</w>
пре бы
баталь она</w>
щи ми</w>
s -
о се
е е</w>
михаи ла</w>
приня ть</w>
g a
c h</w>
па х</w>
т с</w>
м анд
бо ли
ща яся</w>
190 8</w>
объедин ения</w>
верх ней</w>
ст ка</w>
ком понен
завое вал</w>
хот вор
пред вари
свер д
больше ви
закон чил</w>
вос станови
ко сть</w>
ней ших</w>
поли це
u r</w>
рее стра</w>
британ ской</w>
s e</w>
спе ц
вы бор
кар ла</w>
стви ем</w>
сен а</w>
свя зыва
ат ле
g am
глав ы</w>
а сср</w>
ка у
лен ная</w>
зо на</w>
ш ении</w>
198 0-х</w>
ри со
7 8</w>
гово ря
состоя ние</w>
19 00</w>
т та</w>
в падения</w>
техно логии</w>
ко вым</w>
населён ные</w>
ван ного</w>
ми нера
ти пи
аль ный</w>
ма сте
элемен тов</w>
шо ссе</w>
представ лены</w>
/ с</w>
r an
кри зи
ство вали</w>
основ у</w>
ос ман
наступ ление</w>
послед них</w>
a m</w>
я ку
игра ет</w>
in ter
k o
струк туры</w>
зем лю</w>
ше сти</w>
крепо сти</w>
республи ке</w>
чё т</w>
фа ши
э с
министро в</w>
s y
элемен ты</w>
17 0
де ми
по ступи
рань ше</w>
. /
вши ми</w>
лы ми</w>
и вана</w>
еги п
ш тра
комплек са</w>
ру б
опублико вал</w>
бро си
де та
у казыва
c e
чи х</w>
тель ством</w>
покро ви
тек ст</w>
в ся</w>
гре ции</w>
вы шед
ги бе
са ха
л ло
ор би
сре до
ж ён</w>
ве с</w>
немец ких</w>
фи ни
тво ри
основ ная</w>
американ ских</w>
ду мы</w>
9 9</w>
ви в</w>
музы ку</w>
пассажи р
ше й
нуж но</w>
ца »</w>
ря зан
вооруж ённых</w>
са ль
генера льного</w>
эпо хи</w>
династи и</w>
сти хотвор
осно вал</w>
журна ле</w>
са ло
удо в
никола евич</w>
p a
воспи тан
ни ц</w>
с наб
сфер е</w>
аэропор т</w>
лов ской</w>
ли »</w>
тор же
ми ся</w>
усло в
моле ку
во и
дж она</w>
мю н
виде о</w>
б ра</w>
ко й
т но-
суще ству
народ ной</w>
о хва
транспор та</w>
сбор ник</w>
тив ные</w>
пунк та</w>
7 1</w>
ри на</w>
поль зу</w>
ен ной</w>
er s</w>
по й
потер и</w>
александ рович</w>
з ло
соз н
г но
теле визион
все союз
чрез вы
направ ления</w>
ле та
сцен е</w>
крупней ших</w>
воз вы
со вой</w>
кра т
ра сследо
не ль
чрезвы чай
лос- анд
об е</w>
ход ом</w>
установ лен</w>
ди ф
архитек туры</w>
с ке
офице ров</w>
п лен
ве ков</w>
каз ания</w>
запад ном</w>
соста вила</w>
собо р</w>
под бассейн</w>
цион ная</w>
ба ми</w>
ност ями</w>
l d</w>
ио ан
кам пании</w>
француз ского</w>
кате гори
ос вя
х реб
гер б</w>
па ми</w>
середи ны</w>
насле до
го р</w>
ма х
« ро
ту рой</w>
мор ских</w>
расс мо
воен ную</w>
мето д</w>
рас се
мона р
извест ным</w>
зи ю</w>
ди ли</w>
север ная</w>
произвед ён</w>
про све
отве т</w>
игро ка</w>
« the</w>
т э
экспеди ции</w>
лов ский</w>
поли ции</w>
изра иль
ро с</w>
ответ ствен
предприя тий</w>
представ лен</w>
т ку</w>
ро вала</w>
звё зд
до ль
но мер</w>
науч ной</w>
зо й</w>
емы м</w>
7 7</w>
сер жан
ан сам
ле они
ли лся</w>
компози ции</w>
ше му</w>
щи ка</w>
ны й»</w>
з во
входи ли</w>
распростран я
вне с
исключи тельно</w>
уса дь
голо сов</w>
9 6</w>
ша й
все му</w>
кар те</w>
кон кре
пере мен
и ден
австра ли
ио си
ба х
дав но</w>
стрелко вого</w>
у ди
венг рии</w>
сериа ле</w>
запад ного</w>
колу мби
5 -й</w>
пи та
край не</w>
ресур сов</w>
е лиза
да ёт</w>
носи тели</w>
9 2</w>
а ла
i c</w>
за писы
север у</w>
функци они
рован ный</w>
особен ности</w>
импера тор</w>
поэ т</w>
рас кры
со мо
терро ри
направ лен</w>
8 6</w>
подро б
7 4</w>
пись мен
послед нее</w>
190 4</w>
in e</w>
о пу
н ь
шве ции</w>
удов лет
лов ского</w>
a t</w>
х э
го сти
объя сня
счита ет</w>
ин тен
использу ют</w>
амери ке</w>
неф те
политиче ский</w>
по л</w>
пре пара
ю ся</w>
зна ком
бо тани
существо вания</w>
из де
авиа ции</w>
сов ме
музе е</w>
ж ки</w>
о форм
у ступи
у езд
ря до
о гон
аль ные</w>
бр ен
ве ло
зо н</w>
про гре
ав стрии</w>
со средо
ли бе
го вой</w>
8 2</w>
190 9</w>
ли цен
аль бер
при был</w>
ц ком</w>
ко ви
ата ко
до мини
зо к</w>
гра жда
бассей новому</w>
по ль</w>
маши н</w>
о па
6 0
ж ном</w>
пря мо
попыт ки</w>
пыта ется</w>
п и</w>
от мен
ге т
отсут ствие</w>
«динамо »</w>
ро зы
не ожи
за рубе
гу р
фрон те</w>
кп( б
9 8</w>
интере со
взя л</w>
би и</w>
сло бод
состоя лось</w>
объ едини
за канчи
мол да
и мо
отли чается</w>
пре вос
е й
ро жд
сти »</w>
кан тона</w>
гру зин
лос-анд желе
сте па
общ е</w>
ти ке</w>
ва ющих</w>
сти ческих</w>
пери оди
облада ет</w>
услови я</w>
по казан
принима ет</w>
совершен но</w>
смер ть</w>
со ли
ле вом</w>
визан ти
д вер
ж ский</w>
архе ологи
комп аний</w>
лле р</w>
выступ ления</w>
самолё т</w>
в не</w>
d er</w>
вы шли</w>
долж но</w>
немец кой</w>
пре ры
послед ней</w>
интере с</w>
7 3</w>
ро ст</w>
посё лке</w>
c ar
ко а
воз ле</w>
ме ч
юно ше
и и</w>
во обще</w>
клю че
обязан ности</w>
болез ни</w>
з ор
веден о</w>
об стоя
сай те</w>
помо га
ки тая</w>
з р
рован ной</w>
ре формы</w>
преде лах</w>
не активными</w>
со чет
добро воль
ков »</w>
подвер га
молод ой</w>
выбо ры</w>
ствен ную</w>
на ль
ва лери
самы е</w>
при су
зе лен
у тра
ро во
8 8</w>
те б
энер ги
вз рос
ф ом</w>
го с
болга рии</w>
свобод ы</w>
па ци
вер х</w>
бур ге</w>
н ера</w>
тер на
le s</w>
с че
карти на</w>
сра жа
т ли
дру ж
участи ем</w>
учили ща</w>
ы м</w>
бое вой</w>
8 0
с матри
сло м</w>
модер ни
ф у</w>
a »</w>
е во</w>
a e</w>
на ме
i m
д ни</w>
природ ы</w>
ч т
сту пен
ир ку
количе ства</w>
кра е
верну ться</w>
ста тей</w>
проек ту</w>
раун де</w>
дела ет</w>
« ми
чер ни
бори с</w>
га з
го ря
програм ме</w>
догово р</w>
гол ланд
те ори
доба в
писа ли</w>
пи и</w>
библиоте ка</w>
иден ти
север ного</w>
вод е</w>
но вом</w>
да ли</w>
p or
ч ени
жиз нен
бур га</w>
« и
гори зон
е вича</w>
за ла</w>
горо дом</w>
эду ар
ро н</w>
сю да</w>
х ана</w>
сла вя
чи нов
си би
ч ность</w>
филь мах</w>
гру д
характер изу
формиро вания</w>
арми ей</w>
проце ссо
жа ло
бан ка</w>
социалисти ческого</w>
мет оди
o s</w>
таль ной</w>
вы ход</w>
s er
ров ской</w>
с ные</w>
фран ция</w>
ви ш
ката ло
ре чи</w>
пари ж</w>
ски й»</w>
рай онах</w>
da e</w>
пь ес
лени ями</w>
ди т</w>
актив ности</w>
объек та</w>
водохозяй ственный</w>
результа том</w>
мод у
о ре
по ступа
нар ко
про ме
нидер лан
го ра</w>
ствен ном</w>
полови ны</w>
немец кого</w>
переимено ван</w>
к ля
a v
лё тчи
прожи вали</w>
9 7</w>
приходи тся</w>
пуле мё
конкур ен
американ ская</w>
ни »</w>
случа й
госпи та
украи на</w>
персона жей</w>
зд ании</w>
обнару жи
составля ют</w>
d a</w>
про шла</w>
ров ский</w>
жен ой</w>
успе ха</w>
« ко
гри гори
иде и</w>
финлян дии</w>
и б
ка зом</w>
молод ых</w>
истори к</w>
тр у</w>
м г
вопро сы</w>
т ская</w>
вла ст
це ли</w>
до б
звё з
за хо
ди зе
в печат
студен тов</w>
спис ке</w>
пре ем
ти ны</w>
трен ера</w>
украин ский</w>
скоро сти</w>
приня ла</w>
поддерж ке</w>
бю дже
фон да</w>
189 7</w>
противо стоя
обще е</w>
б рай
з ени
al l
м ра
ци р
ши н</w>
но »</w>
фото графи
т ском</w>
г ва
сен т-
про до
профессо ром</w>
приз ё
са л
1 1
не много</w>
ди ю</w>
д ени
ду т</w>
отде льные</w>
оружи е</w>
извест ность</w>
д ’
сту ю</w>
кон тр
не за
влади мир
чехо слова
оста нов
продук ции</w>
t s</w>
о с</w>
пер спек
т ские</w>
язы ках</w>
кар дина
населён ный</w>
зи ру
ци они
f e
ен но</w>
пор т</w>
к ского</w>
сим фо
хо ждения</w>
самолё тов</w>
ре ме
ти ях</w>
ци фро
гар ни
p re
ход у</w>
командо вание</w>
футбо ли
ство »</w>
аэ род
тор пе
дру з
воло год
от ды
от зы
ана ми</w>
за писан
меся ц</w>
ра сти
специаль но</w>
а -
ор ен
лет него</w>
товари ще
ва шин
земе ль</w>
« бо
не далеко</w>
домаш них</w>
ска з
специаль ности</w>
и с</w>
литера туре</w>
т ке</w>
жда ет</w>
а ле
удо б
по грани
рус и</w>
ва ясь</w>
ба ль
й скую</w>
ка ро
писа телей</w>
ло ви
кур сы</w>
петербур г
депута т</w>
огон ь</w>
государ ство</w>
g en
василь евич</w>
со ло
дво рец</w>
привле ка
за в
предприя тие</w>
вани ями</w>
деся ти</w>
е мое</w>
откры та</w>
и ско
нидер ланд
m in
мн ение</w>
водо хранили
ст ены</w>
я ков
уни ка
назна чения</w>
европе йской</w>
раз о
сво ем</w>
ч ке</w>
ин дей
кана ла</w>
сов хо
recor ds</w>
скри п
вье т
гражда н</w>
следу ющих</w>
ра чи
вашин г
кли мат</w>
ча ми</w>
ве че
архан гель
у стойчи
ма ра
6 00</w>
ста я</w>
упо мин
ж ин
ци ям</w>
при гово
о ао</w>
верх няя</w>
тыся чи</w>
оста вался</w>
к лин
мар к</w>
ры »</w>
т ти</w>
причи нам</w>
дипло матиче
фестива ля</w>
фран ци
щ и</w>
за пис
долго е</w>
кам п
существо ва
брига да</w>
га стро
m ic
сти хи</w>
оши б
ен ного</w>
та та
g ro
кри сти
дне про
пла сти
« э
ос ве
существо вание</w>
хе й
ти по
де кора
четыр ёх
пла стин
уст ья</w>
реали зо
писа теля</w>
и на</w>
нали чие</w>
устрой ства</w>
материа лы</w>
бе р</w>
представля ют</w>
кор не
объек т</w>
зи мой</w>
а спи
техни ческих</w>
ло ка
ня х</w>
епархи я</w>
аль терна
та ция</w>
да ции</w>
ноя р
тур ции</w>
кир пи
ро жде
кра со
бу х
8 1</w>
рай оны</w>
карьер е</w>
робер т</w>
народ ный</w>
вер ти
ш ё
тив ы</w>
разработ ки</w>
пти ц</w>
д т</w>
ид ёт</w>
нача лись</w>
ло е</w>
но ся
победи л</w>
симво л</w>
за бо
сто н</w>
d er
участ ники</w>
техни ческого</w>
ази ат
фестива ле</w>
изуча л</w>
депута том</w>
оста вил</w>
8 4</w>
числен ности</w>
област ного</w>
логи ческого</w>
полков ника</w>
ц и</w>
« са
ско рее</w>
по сад
8 3</w>
h i
вы ска
герцо га</w>
спа са
учи ты
сем ё
ло го
фу р
треть ей</w>
мест ные</w>
евг ений</w>
по езд
проходи ли</w>
рован ные</w>
с ход
использу ет</w>
би н</w>
чи ки</w>
на мер
ко вого</w>
197 0-х</w>
составля л</w>
ту н
пора жения</w>
8 7</w>
м ский</w>
живо писи</w>
x ii</w>
вер то
музы ка</w>
оче вид
щ ую</w>
g ra
железнодорож ная</w>
освобо ждения</w>
национа ли
ген о
ко н</w>
до ктор
вели кий</w>
тель ница</w>
3 -го</w>
ми -
стар то
с .
та ра
оди на
зако на</w>
изобра жения</w>
от куда</w>
дости жения</w>
зд аний</w>
b r
« ли
ж ён
сти ль</w>
ир ландии</w>
уби т</w>
9 4</w>
t e</w>
7 9</w>
счита л</w>
пись мо</w>
у рав
ограни чен
михай лович</w>
st e
вре мён</w>
та ш
номе ром</w>
al l</w>
по требо
9 3</w>
прин це
кине мато
константи но
за п
фе р</w>
лег ко</w>
самолё та</w>
ко меди
сред него</w>
осуществ ляется</w>
народ ных</w>
ра нен</w>
оказа лись</w>
в падает</w>
ци лин
мо гла</w>
явля лась</w>
проце сса</w>
дей ствует</w>
паци ен
ак тиви
за пись</w>
ри сун
н ском</w>
выс шего</w>
побереж ье</w>
ма тики</w>
к ани
б раз
га лак
крас нояр
украин ского</w>
герм ания</w>
ев ка</w>
раз рабаты
l l
стар шего</w>
мо ва</w>
при ё
вы двину
участво вала</w>
фло т</w>
сер ви
фун да
цар ь</w>
бере га</w>
ри л</w>
со с
цен три
рези ден
да та</w>
об шир
со м
ка ждая</w>
ка п
во семь</w>
xi ii</w>
да й
2 »</w>
x v</w>
приз ван</w>
ули ц</w>
ж ю
се вер</w>
сторо н</w>
авто ра</w>
грани це</w>
независи мости</w>
ма ли
при ез
правед ли
националь ных</w>
9 1</w>
до ра</w>
приз нан
бли зи</w>
ру д
кла сс</w>
ту ра
кра тный</w>
ти мо
про ка
не ц</w>
вин у</w>
бу л
поддерж ки</w>
футболь ный</w>
созы ва</w>
кре м
использо вались</w>
противо ре
град ской</w>
… »</w>
пи сей</w>
разно образ
че ля
ху д
в ных</w>
ру сская</w>
санкт-петербур г</w>
па то
m or
позволи ло</w>
в близи</w>
по м
ж ности</w>
ба ла
к н
8 9</w>
тре мя</w>
о пти
вра же
с ный</w>
коммуни ка
капи тана</w>
бе лый</w>
нико ва</w>
возду ха</w>
сер а</w>
ан -
ту у</w>
опы т</w>
чу ть</w>
чи н</w>
чел ./
зу б
ро к
мя ну
ло р
авто ров</w>
мар ка</w>
кост ю
ча я</w>
d ic
ча н</w>
ива нов
приме ча
совет ская</w>
сво е
елиза ве
у -
si c</w>
ф рак
логи ческой</w>
д жен
выпу ска</w>
ци оне
женщи на</w>
ари сто
за х</w>
ор ден</w>
город ских</w>
говори л</w>
выпу ск
про ез
гра д</w>
рим ской</w>
либе ра
не га
па ры</w>
ин вести
счита ют</w>
и ер
рез ко</w>
ком сомо
2 50</w>
са ми
t ra
у вер
спе ци
ме че
це ль</w>
департа мента</w>
использо ванием</w>
коа туу</w>
слож ности</w>
w i
фо не</w>
друго го</w>
196 0-х</w>
ста м</w>
гра ции</w>
ансам б
та кими</w>
ъ ек
науч ный</w>
оказыва ется</w>
уса ли
медаль ю</w>
пере воз
изобра жение</w>
поез да</w>
исче з
противо поло
сте к
иде я</w>
г ани
та л
луч ше</w>
еписко пом</w>
расположен ный</w>
ни же
зо ва</w>
кра й</w>
ци н
дела м</w>
вы стре
муж ем</w>
7 0
тё м
лет ней</w>
потер пе
зада чи</w>
пле мян
парти ю</w>
способ ности</w>
т ность</w>
хи мии</w>
6 -й</w>
интен си
железнодорож ной</w>
пре одо
xi v</w>
водо й</w>
само е</w>
примен ения</w>
упо мяну
нов ения</w>
ле -
с ми</w>
парла мента</w>
it y</w>
ге к
вое вод
ору дия</w>
зд ра
ко го
росси ю</w>
х -
тре х</w>
пози цию</w>
ш пи
соревно ваний</w>
повто р
представ лена</w>
крепо сть</w>
канад ы</w>
вы рази
пре пят
больш ом</w>
фо ль
ниж ней</w>
влия нием</w>
до ли
о чи
о он</w>
объ единя
губерна тора</w>
образу ет</w>
ж ным</w>
рен е
са мар
u p</w>
се стра</w>
ир ланд
финан си
влад ения</w>
сы но
k e</w>
причи не</w>
у са</w>
мате мати
проек тов</w>
преми я</w>
190 3</w>
нови д
пря мой</w>
у стро
190 2</w>
2, 5</w>
на поле
тив ный</w>
« золо
убий ства</w>
сосредо то
ре цен
un i
во т</w>
с ведения</w>
m a</w>
л ку</w>
обо их</w>
стра и
занима ется</w>
стол кнов
хозяй ство</w>
эска д
зри телей</w>
суме л</w>
м ёр
бер га</w>
высо той</w>
с форми
ле с</w>
иер усали
под пис
любов ь</w>
ба зы</w>
ван ная</w>
все ми</w>
жд ений</w>
ка т
о пла
министро м</w>
эт ни
ру ются</w>
жа я</w>
гран -
чел./ км²</w>
пов стан
дворя н
жив ёт</w>
ти лись</w>
торгов ли</w>
ги тари
оказа лась</w>
соедин ение</w>
распростран ение</w>
компози тор</w>
показа тель</w>
т .
на в
« b
) »</w>
под нима
регуляр но</w>
предо став
рк ка</w>
предло жение</w>
кана л</w>
столи цы</w>
ста ра
собра ние</w>
рель е
выступа ть</w>
ы й</w>
победи телем</w>
аспи ран
совершен ство
k e
обще ственной</w>
швейца рии</w>
таль ных</w>
бра к</w>
восто чного</w>
сс -
вза имо
« я</w>
да ет</w>
чемпи она</w>
ле то
большин ства</w>
юще йся</w>
a i
ги ган
ми ло
ал гори
3 .
физи ки</w>
необходи мости</w>
оста ётся</w>
фон д</w>
реги стра
те му</w>
челя бин
ш ку</w>
нью-йор ке</w>
ени я»</w>
сообщ ения</w>
ри с</w>
мо му</w>
се ва
рус ско-
све та</w>
алгори т
нача лся</w>
нови ча</w>
ан ны</w>
автомоби лей</w>
согла шение</w>
геро ев</w>
расс казывает</w>
не в
не »</w>
древ не
рас т</w>
сти ть</w>
язы ки</w>
« мо
. .
ti on</w>
под вод
победи тель</w>
на пад
у ай
му хам
ени е»</w>
уг ле
ства м</w>
д ании</w>
жё ст
од ному</w>
кандида т</w>
ж ден</w>
у д
рон у</w>
л ле</w>
баталь он</w>
откры тия</w>
север ный</w>
кров и</w>
джей мс</w>
диа па
ди на</w>
о ра
руководи телем</w>
ме стом</w>
у жа
кон центра
та кая</w>
пре облада
вы ле
ча ют</w>
при каз</w>
нов од
погиб ли</w>
co l
участво вали</w>
пол та
отнош ению</w>
нен а</w>
с наря
умер ла</w>
крестья н</w>
ин фра
сери ю</w>
d -
ша л</w>
год ом</w>
конкур са</w>
при нес
ц -
ё с</w>
ma n</w>
про ходят</w>
сыно вей</w>
научно- исследователь
кла ссов</w>
ку ли
москов ском</w>
е -
те ром</w>
и са
се ли
д ского</w>
с ку</w>
пол ный</w>
наз вана</w>
за повед
пер сид
оборудо вания</w>
яро сла
о стан
центра льный</w>
паралле льно</w>
газе та</w>
ъ ю
бер лин
пе ш
ситуа ции</w>
проме жу
ща ют</w>
ва ющие</w>
кораб ли</w>
автомоби ль</w>
h t</w>
по лез
мат чи</w>
гимна зии</w>
б л
послед ним</w>
источ ников</w>
d »</w>
1 20</w>
состоя ния</w>
до ва</w>
a ir
щ ением</w>
стать е</w>
кие ве</w>
ч о
ни ли</w>
запа да</w>
окончи ла</w>
смо гли</w>
програм му</w>
по казыва
« си
престо л</w>
ва -
констан тин</w>
пи т
n ation
по воду</w>
вол го
гру зии</w>
пря мо</w>
па тро
фак т</w>
а .
вед ёт</w>
тан ы</w>
поль ше</w>
те ре
шот ланд
е ван
бе к</w>
програм м</w>
обра тно</w>
л лек
цикло пе
ви ч
ра д
кон суль
авто ри
рабо той</w>
чемпи онов</w>
га за</w>
про сто
коро лём</w>
анд ер
э лли
p r
ре шено</w>
оде с
охран ы</w>
сообщ ение</w>
п ро</w>
вани ям</w>
ре ста
тен а</w>
роди тели</w>
тиче ское</w>
проек тиро
лен д</w>
выигра ла</w>
при кры
социаль ной</w>
от ре
деятель ностью</w>
юж но
одна жды</w>
бело го</w>
кп(б )</w>
неде лю</w>
ис пы
поряд ке</w>
команду ющего</w>
ра до
стан ций</w>
не обы
год ам</w>
од об
с бо
кли ен
многочислен ных</w>
орден ами</w>
восст ание</w>
з я</w>
присоедини лся</w>
выступа ла</w>
едини ца</w>
ма та</w>
муниципа льных</w>
информа цию</w>
республи ка</w>
реда ктор</w>
награ ды</w>
редак ции</w>
фё доро
примен ение</w>
ди станции</w>
ма ла
д же</w>
ко на</w>
встре чи</w>
ору дий</w>
ри н</w>
фор те
израи ля</w>
вклю чён</w>
квали фика
инте ллек
са мая</w>
у строи
ль ник</w>
у шёл</w>
f f
ти пов</w>
не -
маке до
метро поли
ме ли
аль ная</w>
а то
эн циклопе
воз раст</w>
вы гля
t er</w>
способ ность</w>
разви тию</w>
буд ди
деся ть</w>
пони м
ш -
к ти
дво ра</w>
m at
план е</w>
« ю
ак тёр
хо тел</w>
чар ль
музыка льных</w>
19 20-
па ра</w>
точ но</w>
ф лан
гу мани
э й</w>
откры тие</w>
190 1</w>
v ii</w>
явля лись</w>
те »</w>
благо твори
сред ы</w>
ограни чи
восточ нее</w>
ста дии</w>
на стро
использо вал</w>
в на</w>
англи йского</w>
под ру
королев ства</w>
заведу ющий</w>
посо ль
побереж ья</w>
те т</w>
де ло
г рен
в .
командо вания</w>
кор то
по ст
ци и
се дь
каче ства</w>
баш кир
использу я</w>
ле чения</w>
общи й</w>
се ми</w>
st r
стар шим</w>
высо кого</w>
военно служа
шири на</w>
ри т
е ре
го ме
с хо
не ве
крас ную</w>
жер тво
ност и»</w>
воро т</w>
ля н</w>
фр эн
бо же
био графи
p an
у зе
г ле
режиссё ром</w>
инициатив е</w>
вши мся</w>
артиллери и</w>
поло т
мя те
ту т</w>
о чер
о о
ок купи
ic a</w>
реша ет</w>
не прия
восточ ном</w>
7 -й</w>
г ю
большин стве</w>
извест ной</w>
со ро
лю бы
музыка льной</w>
ото бра
ре зо
за и
баш корто
иб н</w>
фор д</w>
ж ка</w>
до цен
ближай шие</w>
дости гну
.. .</w>
мест ной</w>
времен но</w>
8 00</w>
ен ная</w>
не при
участи и</w>
лик види
в пол
попу ля
бит вы</w>
досто ин
реши ли</w>
шко л</w>
учеб ных</w>
« ба
ма ном</w>
ко ме
ги поте
олимпи а
мо на</w>
жен ные</w>
сара тов
ог не
a s</w>
на правля
соста ви
ки стана</w>
подразде ления</w>
во лы
e l</w>
“ »</w>
арм ении</w>
ци ан
ж ем</w>
ад вока
да р</w>
та джи
кафед рой</w>
доро г</w>
d o</w>
бан к</w>
соедин ения</w>
учре ди
муль ти
m s</w>
ён ными</w>
ме ра
юж ного</w>
выпусти л</w>
сто ль</w>
по клон
мини -
под ряд</w>
глу б
m er
казах стан
характери сти
север а</w>
пол ное</w>
ги н</w>
плей -о
ши ть</w>
пода в
о писан
зву ко
сен ы</w>
ро м
тео рия</w>
ки ев</w>
б рас
установ ки</w>
вен а</w>
струк тура</w>
челове ком</w>
обо значения</w>
впол не</w>
бу ль
из меня
тро й
жа ется</w>
контро ля</w>
о щу
азербайдж ана</w>
ре сто
чи ка
приходи лось</w>
мо вич</w>
t or
кре сто
189 6</w>
у т
ла р
ав ан
бого сло
юж ет</w>
со общества</w>
обще ственного</w>
неожи дан
те ку
рас чё
проз ви
запад нее</w>
про ли
конститу ции</w>
« при
вы йти</w>
род ной</w>
за ча
музыка льный</w>
не редко</w>
м гу</w>
трудо способ
р- н</w>
ж ность</w>
каж дом</w>
оста в
щи ком</w>
католи ческой</w>
м п
от цом</w>
тер я
оцен ки</w>
год ами</w>
швей цар
построй ки</w>
ши на</w>
розы гры
сегод ня
технологи й</w>
ата ки</w>
случа ев</w>
анто ни
тан ков</w>
ф ос
16 0
ю щаяся</w>
служ бе</w>
та и
круп ный</w>
ж ную</w>
перегово ры</w>
гру н
бло ки
изуч ения</w>
сохрани лись</w>
создан ы</w>
ш ту
опер ы</w>
ры ва</w>
сла вян
го раз
объ ём</w>
гла за</w>
бра том</w>
ис п
с южет</w>
направ ление</w>
с би
дан ном</w>
ра ми
тель ств</w>
содерж ание</w>
да ге
жа ла</w>
« бе
чи ком</w>
не с</w>
т скую</w>
кита е</w>
откры л</w>
дивизи она</w>
следо ва
с одей
s s
w w
ле ц</w>
последу ющие</w>
перееха ла</w>
художе ственный</w>
творче ства</w>
про сил</w>
пол ной</w>
ма лой</w>
ря док</w>
гран- при</w>
крити ков</w>
а га
г анд
метод ы</w>
ме сто
до став
газе те</w>
лен ным</w>
сак со
гораз до</w>
у ру
3 :
с су
мо ста</w>
ер ы</w>
п сков
бра ка</w>
гер ба</w>
фи я</w>
никола ев
отме тил</w>
у ва
то рами</w>
треть е</w>
неде ли</w>
кру г
ско лько</w>
« ар
крестьян ской</w>
ро ты</w>
опис ание</w>
бр ь</w>
а ла</w>
бо и</w>
уни вер
э волю
ника ких</w>
бы стро
дости г</w>
вы те
тре ть</w>
стви й</w>
ген ри</w>
при шёл</w>
2 /
убий ство</w>
оказа лось</w>
кри тики</w>
189 9</w>
в ходя
д ья
использо вался</w>
му м</w>
об ер
дь ми</w>
то ни</w>
брать ев</w>
ч ом</w>
происхо ждение</w>
m ent</w>
си й</w>
действи тельно</w>
го ла</w>
бу ла
ли сто
лан д</w>
се ро
й цев</w>
ри ть</w>
обще стве</w>
n gc</w>
счита ть</w>
стои мость</w>
бое вые</w>
международ ном</w>
та ври
дво ре</w>
по ка
верти ка
сра жении</w>
браз иль
ран ен
оборо т</w>
предположи тельно</w>
пи сто
сти ческого</w>
мед ве
консер ва
рован ного</w>
б род
ро ста</w>
пи ще
профессиональ ный</w>
ш ением</w>
призна н</w>
буду щего</w>
бер лине</w>
плей-о фф</w>
живо пис
м са</w>
му ра
форте пи
фестива ль</w>
сло жи
ди сло
шта те</w>
португа лии</w>
популяр ность</w>
суще ственно</w>
189 8</w>
че чен
министер ство</w>
ре чь</w>
ле вый</w>
че й
це лях</w>
япо нской</w>
специали стов</w>
гла вой</w>
самостоя тельно</w>
о м
д вен
ше сти
при мы
с ного</w>
пере ход</w>
за вед
воз ника
игор ь</w>
ник то</w>
суб ъек
возвра щения</w>
ви т
сцен ы</w>
win dow
под зем
ис к
стра хо
н ений</w>
удовлет во
a d</w>
е вой</w>
британ ский</w>
дан ная</w>
т руп
ье р</w>
по кров
ко али
организо вал</w>
рекор д</w>
провин цию</w>
таль ного</w>
зависи т</w>
строитель стве</w>
постанов лением</w>
отме тить</w>
ма р</w>
ал -
я ния</w>
ад ца
план а</w>
гри гор
логи ческий</w>
гвардей ской</w>
о ка
вдо х
в ское</w>
о -
двен адца
ме тро</w>
штур мо
стре м
ща ться</w>
o r</w>
основан о</w>
гра на
науч ного</w>
реста вра
устрой ство</w>
га ль
лени ям</w>
щи ки</w>
t ri
ле п
рас про
к с
аб ду
черни го
отсут ствует</w>
туре ц
вто рую</w>
стан цию</w>
ве д</w>
вы пла
195 0-х</w>
сове те</w>
ви дом</w>
к но
ио ган
193 0-х</w>
оста льных</w>
ъ я
ев ро</w>
возвра щается</w>
дене г</w>
ма ра</w>
es t</w>
постро ено</w>
пере ведён</w>
на против</w>
воору жение</w>
рав ни
ри ме</w>
юж ная</w>
раст ения</w>
реда ктором</w>
ку »</w>
ал ле
лю дови
ко л</w>
ста рей
при казом</w>
завер шения</w>
ч ья</w>
тиче ским</w>
сотруд ников</w>
фель д
ста ри
кир гиз
ору ди
преду сматри
пере вод</w>
ти к</w>
выбо р</w>
брать я</w>
обще ственных</w>
по рядок</w>
т вёр
ча сов
заклю ч
установ лена</w>
мно -
учё ный</w>
от казыва
лу ю</w>
афри ки</w>
э ста
по хи
раз гро
ду хо
из лу
про ф
за каз
награ д</w>
сообщи л</w>
сове тов</w>
принима ть</w>
за дер
в шую</w>
проводи тся</w>
жа ют</w>
t h</w>
тиро вать</w>
́ й</w>
насле дия</w>
двор ца</w>
год а»</w>
влади миро
мен о
хо н
зем ля
лейтенан та</w>
сты й</w>
прави ла</w>
вьет на
сты м</w>
b u
ве ль
наци й</w>
информа ция</w>
до мой</w>
й скому</w>
оста лись</w>
бель ги
общ ем</w>
i x</w>
основ ного</w>
лик ви
соответ ствует</w>
франц у
ру сь</w>
итальян ский</w>
друго е</w>
нен ы</w>
бо я
мекси кан
ле кар
разработ ке</w>
от лич
общи м</w>
ъ ез
189 5</w>
независи мость</w>
первен стве</w>
про фи
бр ян
плани ро
ы ми</w>
пари жа</w>
петро вич</w>
ле о
з -
уда р</w>
воз бу
ку й
высо ты</w>
библиоте ки</w>
в про
строй ки</w>
з мом</w>
госпо д
предо т
ти лась</w>
уиль ям</w>
жен ского</w>
насе ком
современ ные</w>
189 0</w>
бе ль</w>
с част
правитель ством</w>
парт нё
атмо сфер
участ ке</w>
про вел</w>
o l
« об</w>
с хва
двига тель</w>
особ о</w>
веду щих</w>
ан ге
сотруд ник</w>
ф ред
предот вра
воло сть</w>
расс ка
ани ма
ри й</w>
лагер ь</w>
ио анна</w>
соб ственной</w>
пло ско
объяв лено</w>
функци ональ
9 0
сы нов
учени ков</w>
про би
но й
сева сто
то не</w>
п лы
анали за</w>
вше еся</w>
ст ре</w>
ре о
к ской</w>
у сср</w>
оке ан
из бран
продук тов</w>
воен ным</w>
связан ных</w>
ми я</w>
ne w</w>
c r
центра льная</w>
зем ля</w>
чита л</w>
ща ются</w>
луч шие</w>
с ным</w>
предоста вля
бо городи
к ве
двига теля</w>
ря ды</w>
та ет</w>
ро дов</w>
воен ное</w>
продолжа ет</w>
выпущен а</w>
4 .
празд но
ля ть</w>
го мо
window s</w>
тро л
импера три
тре уго
баш ни</w>
глав ные</w>
bo ard</w>
прав ление</w>
юж нее</w>
на столько</w>
ху тор</w>
и на
де ления</w>
ы гра
показа л</w>
де ль</w>
грани чит</w>
си ла</w>
ин доне
м бу
называ ли</w>
муж а</w>
голо вы</w>
эта п</w>
ис пыта
ги пер
проводи лись</w>
по й</w>
выпусти ла</w>
ст ки</w>
г .
n a
федера льного</w>
лабора тории</w>
консер ватории</w>
ча лась</w>
ва вших</w>
ко з
ен ным</w>
верну ть</w>
9 -й</w>
по сту</w>
догово ра</w>
к ский</w>
гибе ли</w>
юще гося</w>
экипа ж</w>
сси в
за се
вы игры
основ ными</w>
ли ни
12 -
« де
да ют</w>
род ы</w>
ке ль
спо собо
дет ский</w>
участ ка</w>
ть е</w>
европе йского</w>
ан ь</w>
л с</w>
бли ж
t en
насчиты валось</w>
кита й</w>
m b
впро чем</w>
в шем</w>
ча са</w>
ри а
экономи ческого</w>
пись ма</w>
генера льный</w>
сержан т</w>
от ло
боль шее</w>
те ров</w>
клу бов</w>
дж ан
коми сси
а стра
семей ство</w>
захо рон
во кали
мо га
со й</w>
вспо мина
ры й</w>
ш ь</w>
д ания</w>
архите ктор</w>
1- м</w>
t u
крас ная</w>
э мо
реали зации</w>
за им
щи еся</w>
опера ций</w>
неф тя
лат вии</w>
пре фек
то ре</w>
отправ лен</w>
ь и
пав ла</w>
об л</w>
ри м</w>
режи м</w>
не о
у каза
глав но
ствен ными</w>
ро де</w>
в ступ
рей н
про играл</w>
постро ены</w>
импери я</w>
о крас
189 2</w>
масшта б
гер а</w>
принима ли</w>
15 -
предше ствен
про вести</w>
у »</w>
пор та
замести теля</w>
соста вили</w>
част ных</w>
при ход
конкур се</w>
науч ные</w>
х во
руковод ства</w>
в т</w>
ва ющий</w>
представля л</w>
сель ских</w>
п лю
послед няя</w>
лю дьми</w>
вз ро
неде ль</w>
сегодня ш
д ской</w>
опреде ления</w>
услови й</w>
тома с</w>
бу ква
гражд ани
сы р
звёз д</w>
дела ть</w>
пере жи
а ро
b ill
во рачи
сем ью</w>
санкт-петербур га</w>
х ла
ра ви
исследо вание</w>
гне з
филь мы</w>
c an
пра вый</w>
экономи ческой</w>
перевод е</w>
бе лые</w>
поня тие</w>
па па</w>
г ана</w>
по пада
опера ция</w>
нк вд</w>
техни ку
од ин
ка лу
кан а</w>
ш ле
физи ческой</w>
та ли
у ол
« на</w>
расши р
бо га</w>
ты вает</w>
ва л
ф ф
применя ется</w>
кажды е</w>
б лу
бере г</w>
состоя ла</w>
до бра
работа н</w>
v er</w>
вы бира
ш ка
эпо ху</w>
бе й</w>
материа л</w>
площад ью</w>
ва вший</w>
короле вской</w>
материа ла</w>
физи ко-
режи ма</w>
́ й
пехот ы</w>
хо чет</w>
памят ника</w>
актив ное</w>
кры ма</w>
до на</w>
использо вали</w>
за цию</w>
обо сно
по жар
и стин
север ном</w>
преде лами</w>
ля ют</w>
находи лось</w>
преду пре
ней ро
чемпиона тов</w>
ру ках</w>
на шей</w>
дж о</w>
созд анию</w>
гла д
маши ност
автоно много</w>
имен а</w>
ша м
высо ких</w>
ви чу</w>
екатер ин
ща лся</w>
са да</w>
води тся</w>
фло ри
здра во
специ фи
ради ка
на до</w>
свя тых</w>
провин ция</w>
за тра
та ть
язы ком</w>
глав ную</w>
з ме</w>
жени ях</w>
рабо че
мел оди
mu sic</w>
каби не
де ви
те ха
кон цов</w>
h er
парти й</w>
ги б
сня т</w>
ны х»</w>
ле вого</w>
дру гая</w>
зе ф</w>
ленинград ской</w>
ь ях</w>
шот ландии</w>
дости гает</w>
ност и
ща лись</w>
выс шее</w>
связан ы</w>
ш ля
окрест ностях</w>
зада ч</w>
ря с
3 5
заня ли</w>
ли цо</w>
ба ка
об нови
ра с</w>
ис лам
ниж няя</w>
ся »</w>
пра вах</w>
t ro
еги пет
югосла вии</w>
авто ры</w>
чёр ный</w>
она р
к р
ба ку</w>
бер т</w>
киев ского</w>
нё с</w>
больши ми</w>
об у
а ва
формиро вание</w>
связан а</w>
ль -
188 5</w>
ф рей
заклю чения</w>
мон го
si s</w>
не сти</w>
едини ц</w>
милли она</w>
росси и»</w>
но чью</w>
спосо б</w>
люб ви</w>
« то
работа ют</w>
зо р</w>
ма стера</w>
цион ную</w>
ак ти
вол ж
григори й</w>
прожи вает</w>
журна лист</w>
« со
про цен
систе мой</w>
анато лий</w>
обви ня
вы жи
ров ку</w>
надца ть</w>
жда ется</w>
экипа жа</w>
ш ю
печа ти</w>
вод ос
говоря т</w>
г с
серебря ный</w>
перен е
вну три
« ле
на мест
печа та
мини ма
га ран
шта б</w>
8 -й</w>
основа тель</w>
искус ство</w>
ж ное</w>
ген а</w>
сыгра ла</w>
верто лё
ство вала</w>
ль да</w>
да ла</w>
несколь кими</w>
de s</w>
под поль
одер жал</w>
п ки</w>
во сти</w>
го н</w>
губер ния</w>
« ве
произвед ение</w>
осад ков</w>
186 2</w>
ч но-
ха л
поко ления</w>
верси ю</w>
к ю
тек ста</w>
юж ном</w>
кры м</w>
nation al</w>
жи лых</w>
помощ ником</w>
бер ёт</w>
та ун
конструк ция</w>
ба зо
стран у</w>
призё ром</w>
лен ное</w>
верну лась</w>
духов ной</w>
кли ни
лин гви
st u
нали чи
сиби ри</w>
поверх ность</w>
ма рок</w>
но й»</w>
ко де
собо ре</w>
кандида та</w>
не большие</w>
выпол нение</w>
бы вшей</w>
х л</w>
управ лением</w>
молод е
a war
ре цеп
казах стан</w>
автоно м
като личе
не преры
нель зя</w>
серге я</w>
пос ы
15 0
команду ющий</w>
се ло
фунда мен
съём ки</w>
це лей</w>
раз новид
най те
0- й</w>
е ров</w>
глав ная</w>
из м</w>
ющи мся</w>
fo r</w>
187 8</w>
скоро ст
подготов ке</w>
дра ма
лич ного</w>
wor ld</w>
185 9</w>
1 »</w>
интерне т-
ки -
вс к</w>
ста рин
логи ческие</w>
воскре сен
лит вы</w>
ли гу</w>
пассажи ров</w>
уво лен</w>
e d
источ никах</w>
сти ля</w>
борь бу</w>
ков ском</w>
оборо ни
са ла
эта па</w>
ры в</w>
различ ными</w>
со всем</w>
неме д
памят ников</w>
ка лен
а с
ран них</w>
выра щи
жен ного</w>
дли ны</w>
/ 0
бли зо
разви тии</w>
по ста</w>
пере ез
зи н</w>
поедин ке</w>
пу р
гон ке</w>
требу ет</w>
анали з</w>
ко ди
ста ви
прош лом</w>
на ми
лондо н</w>
крепо ст
ми ль
побе д</w>
откры то</w>
ме ти
квар та
ве си
ра б
по ляр
у ил
воло ст
работ ников</w>
ге ра
зна мени</w>
188 9</w>
фе од
ад ы</w>
игро вой</w>
эд вар
румы нии</w>
стади он</w>
приобре т
кра тер</w>
пенси оне
подчи няется</w>
186 4</w>
4 -го</w>
лиде ров</w>
пала ты</w>
проводи т</w>
хе ль
кла сс
взя ть</w>
како й-
основ ное</w>
о про
ло во</w>
ан тро
ли ли</w>
би я</w>
ви нов
да -
ка ки
ма сса</w>
повто ря
комп анию</w>
д ный</w>
англи йском</w>
альбо мов</w>
в виду</w>
c o</w>
поль зу
обы гра
se e</w>
m y</w>
ма -
пе ла
у ско
говори ть</w>
з вании</w>
секретар я</w>
длин у</w>
заверши л</w>
влия ния</w>
бе лых</w>
, 5</w>
тру д</w>
ко вич</w>
к ван
пожа ло
ти ться</w>
хри сто
голов у</w>
став ро
па л</w>
чу ва
не больших</w>
создан о</w>
здраво охран
прожи вал</w>
участво вать</w>
о в
внутрен ней</w>
значи тельное</w>
извест ная</w>
чен ной</w>
учени ками</w>
за поро
b la
слу ша
у не</w>
успе хом</w>
ва емых</w>
официаль ным</w>
коми ссия</w>
стары й</w>
ля м</w>
сан та-
измен ений</w>
социаль ных</w>
по пол
совет ские</w>
a k
« па
ло па
тив но</w>
фика ция</w>
си ри
специали ст</w>
ф ли
ли дер</w>
политиче ского</w>
церемо нии</w>
ха ли
це н</w>
грани цу</w>
е ль
роди ну</w>
му чени
поста вил</w>
кар па
д с</w>
герцо г</w>
даль ше</w>
10 0
пи тания</w>
плод о
ви теб
пере шла</w>
p -
ш ке</w>
ш ений</w>
сай т</w>
bill board</w>
ос ла
ита лия</w>
на ход
ко стро
эпи зо
ребён ка</w>
лек ции</w>
ир ты
щ у</w>
сва дь
e u
t v</w>
персона ж</w>
на ходит</w>
лов ка</w>
му ля
лат ви
ён ном</w>
ля ются</w>
результа тов</w>
но мера</w>
расс каз
ор ган</w>
грани ц</w>
тер ми
оккупа ции</w>
ми фо
съ ё
к с»</w>
националь ном</w>
ту -
щ ений</w>
источ ники</w>
важ ным</w>
за то
в ени
обе их</w>
монасты ре</w>
т ства</w>
е лена</w>
мощ ность</w>
тре би
номина ции</w>
стать я</w>
коло коль
изда тель
юго- востоку</w>
появ ление</w>
яко бы</w>
дэ вид</w>
британ ского</w>
г ского</w>
поэ та</w>
спор т</w>
колле гии</w>
вы »</w>
фир мы</w>
пыта лись</w>
дво р</w>
я з
расс казыва
осу жд
мар ки
джор дж</w>
о ран
за явля
по т
драма тур
бель гии</w>
академи к</w>
жен ной</w>
хро ни
экспо зи
рус ским</w>
i b
189 3</w>
° с</w>
ю га</w>
продю се
ал фа
объедин ение</w>
ку стар
шири ной</w>
выступ лений</w>
смо гла</w>
и ст
горо ду</w>
сопротив ления</w>
гря з
бое ви
об станов
уст ь-
столи це</w>
изда л</w>
ба лан
189 4</w>
первы ми</w>
цик л</w>
награ ду</w>
бе сс
георги й</w>
проце ссов</w>
прода жи</w>
осно вой</w>
эсто нии</w>
во лей
норве гии</w>
сти ческий</w>
демокра тической</w>
бара бан
ра ста
тер мина
экономи чески</w>
сред нюю</w>
автомоби ля</w>
с праведли
об стре
китай ской</w>
цион ным</w>
тур к
звез да</w>
при казал</w>
муже ство</w>
демон стра
ма ка
сопротив ление</w>
яков ле
тив ное</w>
во сть</w>
не возможно</w>
не которым</w>
на таль
класси фикации</w>
связан ные</w>
клу б
тин ский</w>
пол ку</w>
тиро вала</w>
а ции</w>
помо чь</w>
у казывает</w>
э сте
но мини
тро е</w>
пу тей</w>
про явля
ло вой</w>
d v
ун д
зна мен
б ет</w>
7 00</w>
архи епископ</w>
экономи ческих</w>
заслу ги</w>
административ ным</w>
ги »</w>
экземпля ров</w>
фра гмен
георги я</w>
докумен тов</w>
посред ством</w>
ин спе
мар ке
вла стей</w>
архите ктора</w>
член ами</w>
ic e</w>
при хода</w>
то ки
чер ты</w>
высо кий</w>
189 1</w>
из г
пос мер
ца ри
образо ваний</w>
истори ко-
вним ания</w>
побе да</w>
стади оне</w>
княже ства</w>
ст ю
вод ом</w>
андре я</w>
цион ное</w>
из ло
таш кен
за интересо
дерев ню</w>
проце ду
опреде ляется</w>
ю би
ц з
об сер
о пере
i .</w>
зада ча</w>
преж нему</w>
на прави
бо жи
оо о</w>
зер ка
рав но</w>
выстав ки</w>
защи ту</w>
графи я</w>
лен ную</w>
k i
те ро
эффек т</w>
люби тель
значи тельной</w>
асси стен
шта б-
при ходит</w>
област ей</w>
запад ная</w>
ми л
ло н</w>
генерал-май ор</w>
а с</w>
вато -
те мы</w>
мель ни
мину те</w>
выс ших</w>
внеш ней</w>
рын ке</w>
авгу ст</w>
хра ме</w>
сла ви
эпизо д</w>
ф ю
куль туре</w>
факульте те</w>
докумен ты</w>
тре к</w>
об ез
ство вало</w>
четвер ть
кре ст</w>
щ ению</w>
с се
оригина льной</w>
лист ья</w>
исследова тели</w>
нача ть</w>
роди телей</w>
188 7</w>
го рия</w>
мо стью</w>
предлага ет</w>
бак тери
и и
студен тами</w>
гу ю</w>
пар ке</w>
ле жит</w>
кар ты</w>
име я</w>
пере до
современ ный</w>
ме д</w>
соз вез
портре т</w>
мо ря
сре де</w>
музыка льного</w>
бы вших</w>
вне зап
el l
учи телем</w>
принима ла</w>
un d</w>
певи ца</w>
калифор ния</w>
те ле</w>
ви до
помо г</w>
завое вала</w>
бело й</w>
здоров ья</w>
бе жал</w>
ле ст
общи на</w>
астра хан
лич ности</w>
отме чает</w>
щ ё
ль но-
е с</w>
пе ти
нем цев</w>
ко гда
ра т
солн ца</w>
спи н
темпера туры</w>
s a</w>
те чению</w>
ка пе
юще му</w>
веще ства</w>
все российской</w>
кана ле</w>
трен ер
приня та</w>
лич ных</w>
охран я
метод ов</w>
концер т</w>
оборудо вание</w>
истори ческого</w>
в ку
трол лей
отде л</w>
188 6</w>
истори ческой</w>
по являются</w>
о хра
использо ваться</w>
проте стан
основ ы</w>
гро з
му рав
куро р
алфа ви
киев ской</w>
го лод
возвы шен
ли нию</w>
педаго г</w>
кон ы</w>
д зе</w>
традицион но</w>
юго- западу</w>
ще му</w>
три дца
генри х</w>
мон голь
истори ческий</w>
еван ге
режи ме</w>
ю сти
специаль ный</w>
празд ник</w>
напада ющий</w>
ма ссы</w>
й скими</w>
пропа ган
об р
ну ть</w>
заклю чи
буд ь</w>
тиче скую</w>
про шед
за креп
ра р
де лу</w>
оз ву
гра де</w>
по к</w>
т кой</w>
учре ждения</w>
оста тки</w>
ци ф
оке ана</w>
высо кие</w>
зали ва</w>
го та
7 .
кар то
ис ла
гра да</w>
тан ковой</w>
служи т</w>
ла ты
ми ром</w>
15 —
точ ка</w>
действи ях</w>
та ки</w>
губерна тор</w>
186 1</w>
публика ции</w>
коллек тив</w>
майк л</w>
форму ли
тель ностью</w>
арти ст</w>
ди ск</w>
троллей бу
н ью</w>
b c</w>
потеря л</w>
реак ции</w>
покину ть</w>
5 .
обнару жены</w>
ност ь»</w>
m c
по ход</w>
раз работан</w>
ма дри
пей за
организа цию</w>
тен ден
у е
ль я</w>
юж ный</w>
начина ют</w>
древ них</w>
p ri
переда н</w>
прямо уго
b ro
на ка
копи й</w>
о прав
18 12</w>
ши ф
подготов ку</w>
ог нём</w>
ниж не
тов »</w>
обы кнов
моне ты</w>
« не</w>
сла бо
воспо ль
le c
проводя тся</w>
свя зан</w>
вид ные</w>
территори й</w>
утвержд ён</w>
o o
нидерлан дов</w>
не закон
х ью
ь ч
без работ
вед ь</w>
b an
мо ре
благо прия
развед ки</w>
фами лии</w>
находя сь</w>
ри о
mic ro
лан дия</w>
собствен ные</w>
конфлик та</w>
m y
работа х</w>
дивизи оне</w>
с лы
це ле
конфлик т</w>
вклю чены</w>
ци к</w>
це ли
ше ль
плат формы</w>
г ности
рован ная</w>
си на
ка ла
в вед
ниж ний</w>
по страда
соб ственно</w>
на ших</w>
ч о</w>
распростран ения</w>
ве к</w>
жан ре</w>
посе тил</w>
дири жё
ч ьи</w>
пере шли</w>
переда л</w>
политиче ские</w>
ак ций</w>
специали зирован
при клю
при казу</w>
ме зо
обр ёл</w>
ма я
персона жа</w>
пример у</w>
треть ем</w>
ща ли</w>
фоль кло
ро валась</w>
ви зу
га у
рабо чего</w>
про ро
северо- востоке</w>
ка зи
- 1</w>
en ter
испыт ания</w>
ры б
изобре т
ней тра
кафед ре</w>
ру я</w>
простран ства</w>
чи сто
гор ных</w>
рын ка</w>
оста лось</w>
ска ми</w>
ли це
верх не
фа н</w>
у на</w>
студи йный</w>
ни кает</w>
лагер я</w>
сооб щает</w>
объек ты</w>
мн ения</w>
« се
бы ше
пригла ш
по казывает</w>
г ё
вы рос
получи ло</w>
похо рон
найте д»</w>
откры тый</w>
жи ли
ра ди</w>
включа ют</w>
появ ления</w>
ья н</w>
ар мя
секретар ём</w>
обще ственный</w>
продю сер</w>
запад ных</w>
восполь зо
вой н</w>
стро ения</w>
голо ва</w>
ро вались</w>
у тром</w>
ви чем</w>
баскет бо
st or
тру б
управ лению</w>
отличи лся</w>
автодоро ге</w>
деву шка</w>
универ са
бе жать</w>
га р</w>
ко к
дру зей</w>
северо- востоку</w>
до пуска
гор но
ленинград ского</w>
w h
осно вы
установ лено</w>
наимено вание</w>
мел ких</w>
188 4</w>
запад ный</w>
со во
по купа
осуще стви
20 —
хо й</w>
по го
цы »</w>
пер ё
дивизи он</w>
лу ган
in see</w>
техни ческий</w>
поло жении</w>
на род</w>
от боро
еха ть</w>
6 .
g a</w>
при были</w>
186 3</w>
ри ф
ков -
чёр ного</w>
досту п</w>
вше му</w>
слу чи
ль ному</w>
сле н</w>
ля »</w>
год и
свя ти
ко вый</w>
сер де
назна чил</w>
ман у
ге раль
и ран
кре ста</w>
в ступа
ar t</w>
сте й
в зо
дже к
характер а</w>
неожидан но</w>
коло нии</w>
интер пре
ок си
клет ки</w>
м ба
выстав ке</w>
живу т</w>
с ани
специаль ных</w>
гвардей ского</w>
штей н</w>
ку бан
ро га
ки п
зам ка</w>
га ври
g r
значи тельные</w>
националь ную</w>
орке стро
ду э
пере бра
пра вой</w>
орг аны</w>
колле дж</w>
практи ке</w>
вра тар
ва е
фото графии</w>
подоб ных</w>
эксплуата цию</w>
уби ть</w>
/ ч</w>
ал кого
о ки
s ho
старо го</w>
ие ро
гота вли
пе ч
бела русь</w>
г р
за ка
ав стро
бор ту</w>
оле г</w>
пере во
th e
тан ка</w>
так у</w>
октябрь ской</w>
фе ро
па п
гре ческой</w>
щи на</w>
неф ти</w>
pla y
ро бо
ани ям</w>
дви жении</w>
ла до
учё ных</w>
со че
мо гло</w>
ле ́
кур ган
ф к</w>
бит ва</w>
то вые</w>
за ле</w>
участ ником</w>
коллек ции</w>
полу защитник</w>
нем цы</w>
коне чном</w>
за пол
приве ли</w>
числи лось</w>
познакоми лся</w>
« ви
вме ша
веще ств</w>
император ской</w>
188 8</w>
орен бург
ты р
су ди
смыс ле</w>
м вд</w>
вя т</w>
ад ъю
ска я»</w>
с прин
план ы</w>
сти ческие</w>
стю ар
ци ви
й е
кисло ты</w>
посвя щен
тан це
ров »</w>
короле вского</w>
щи йся</w>
куль тура</w>
в ного</w>
нен а
ш те
футболь ной</w>
случа й</w>
а ли</w>
мо ну
много м</w>
1- я</w>
кла ссе</w>
ис т</w>
ходи ть</w>
по бы
g re
лю дви
ми ссии</w>
вто ри
к ви
раст ение</w>
хи н</w>
художе ственной</w>
д ский</w>
ur e</w>
юго- восточной</w>
пере ход
мон те
а ма
федера льным</w>
в в</w>
воздуш ных</w>
эста фе
спортив ной</w>
до пусти
кур са</w>
наступ ления</w>
оп пози
источ ник</w>
маршру т</w>
подоб ные</w>
насе лением</w>
бомбарди ров
колхо з</w>
ва ющей</w>
кле ток</w>
входи ло</w>
мощ ностью</w>
тив ным</w>
выя сни
тин ского</w>
гу б
за фикси
звез да»</w>
крым ской</w>
а ча
ситуа ция</w>
л ков</w>
фаши ст
сер бии</w>
эксплуата ции</w>
город ском</w>
мы ми</w>
м ле
простран ство</w>
же б
раз гово
ко ва
гон ки</w>
аф гани
муниципалите та</w>
вологод ской</w>
отде лом</w>
испол нение</w>
гла в</w>
187 9</w>
функ ций</w>
н ба</w>
а гро
необходи мость</w>
ту ро
ли ри
причи н</w>
эф фици
ожи да
доби лся</w>
диф ферен
совет ское</w>
й цы</w>
испол нении</w>
бу ря
т т
великобрит ания</w>
а сса
пред почита
постоян ного</w>
симфо ни
крити к</w>
15 00</w>
на тура
сум му</w>
аб ха
al i
жени ями</w>
стан ет</w>
появи лось</w>
ков ская</w>
эффици ен
к рон
северо- западу</w>
вызыва ет</w>
оста лась</w>
188 0</w>
уча ствует</w>
у хода</w>
вспо мога
ад рес</w>
про чих</w>
станов ятся</w>
повы шен
it i
тиро ван</w>
3 /
в ные</w>
почё тный</w>
гит ле
про ник
пи се
бра ке</w>
топли ва</w>
слу жеб
formula_ 1</w>
компози ция</w>
выпол нения</w>
б лок</w>
носи ть</w>
ры бо
ма к</w>
за ре
север нее</w>
реш ению</w>
ре же</w>
ж да</w>
от би
дол ги
символи зи
ко эффициен
вой ско</w>
лич ный</w>
цик ла</w>
пре сти
пе н</w>
ш ли
тив ная</w>
го ра
кандида тов</w>
ва ти
следу ющего</w>
магази н</w>
александ ров
социаль но-
ру с</w>
х восто
медици нской</w>
васи лия</w>
вось ми</w>
механи з
ал тай
свед ениям</w>
миро вого</w>
информа ционной</w>
количе стве</w>
го -
пла ц
окружа ющей</w>
жен е
пребы вания</w>
y s</w>
три жды</w>
в кп(б)</w>
рим ский</w>
продо воль
л .
ада п
сра жения</w>
а ба
у ор
астро но
ро з
парти й
д ных</w>
восто чный</w>
парла мент</w>
сте рои
вер е</w>
прин ца</w>
музы ке</w>
вер ы</w>
це ва</w>
дан ное</w>
вра га</w>
сот ни</w>
проводи л</w>
эваку и
по гло
у про
множе ства</w>
комп ен
стату сом</w>
а бра
ша ф
из образи
по все
воз обнови
ле тов</w>
остро вах</w>
ви а
хо ждение</w>
на зем
бо с
бар село
зача стую</w>
утвержда ет</w>
изда н</w>
зим них</w>
с чет</w>
ма ха
пере числен
на бор</w>
шта тов</w>
при з</w>
с юр
аль но</w>
по ступ
каз ание</w>
чен ного</w>
красно дар
специаль ного</w>
фё дор</w>
телевид ения</w>
полу острова</w>
плане ты</w>
ж но</w>
отлича ются</w>
зе р</w>
услу г</w>
лиде ром</w>
мел кие</w>
при зы
соб ран
дз ю
188 2</w>
че ство</w>
совме сти
х ру
поста вля
инжен ер</w>
дет ства</w>
прин ц</w>
вс пы
про куро
пло хо</w>
сен тябр
фло рен
пи ани
ани ей</w>
воспитан ник</w>
до лине</w>
организа цией</w>
напис ана</w>
бес пла
жи теля</w>
член а</w>
разработ ка</w>
пер а</w>
д но</w>
види т</w>
сра жение</w>
тиче ском</w>
ко вая</w>
м ных</w>
борь ба</w>
аристо кра
фридри х</w>
ве »</w>
в м
ле д</w>
мюн хен
а три
187 0</w>
замен у</w>
ш ко</w>
верну вшись</w>
четвёр тый</w>
при мени
ко че
ти ями</w>
очеред ной</w>
учрежд ений</w>
требо вания</w>
си лой</w>
ле вому</w>
« до
че му</w>
сло вар
представ ления</w>
перво нача
сказа ть</w>
си н</w>
восто чных</w>
бер та</w>
объя сни
у ехал</w>
го но
выступ ление</w>
полити ку</w>
л ло</w>
во »</w>
шу юся</w>
s on</w>
по жертво
пи н</w>
и ван
город ская</w>
: 00</w>
те ма</w>
собствен ных</w>
в ку</w>
при шли</w>
пи тер</w>
при клад
восточ ная</w>
фран цию</w>
бе ско
испол нения</w>
полити ка</w>
фо ру
бое при
плац дар
деб ют</w>
п ана
тре х
стро я</w>
б э
то вого</w>
лёг кой</w>
клу бы</w>
моз га</w>
фе одо
про пусти
ста рой</w>
треть им</w>
при бо
am er
уль я
создан ный</w>
а ш
кар ло
пор та</w>
со ж
динами ка</w>
цо ва</w>
ке м
187 1</w>
бли же</w>
владимиро вич</w>
« ре
зву ч
у наследо
доктор скую</w>
187 6</w>
ш но</w>
пересе лен
ла ти
кана де</w>
статисти ческий</w>
нося т</w>
ст »</w>
аэрод ро
орке стра</w>
меда лей</w>
лабора тори
ричар д</w>
фрон тах</w>
робер та</w>
специаль ные</w>
культур ного</w>
к г
вы яв
афри ке</w>
5 /
изд аний</w>
p s</w>
следу ющее</w>
реа били
окру гов</w>
служи ть</w>
де с</w>
не достаточ
чемпион ка</w>
популяр ных</w>
гек та
отды ха</w>
сценари й</w>
раз ор
под гото
от ста
энер го
за крепи
сезо нов</w>
ми к
официаль ных</w>
развед ы
вла дел</w>
ба бу
гло ба
генри ха</w>
ре конструкции</w>
националь ная</w>
4 /
александ ро
гераль ди
це ло
публи ци
иллю стра
преодо ле
сер ги
она ми</w>
обо ло
воен ном</w>
маши на</w>
бер ё
туре цкой</w>
носи ли</w>
до ну</w>
важ ную</w>
турни рах</w>
отзы вы</w>
ленингра де</w>
ма лая</w>
лю к
188 1</w>
девя ть</w>
образо вана</w>
вя че
дебю тный</w>
ди ла</w>
аппара та</w>
ар гу
а том
до ля</w>
про мы
гон кон
1920- х</w>
мар ти
у мира
полити к</w>
он ер
француз ских</w>
занима лась</w>
i t</w>
отсут ствия</w>
де по</w>
немец кие</w>
игра ла</w>
ро ваться</w>
доби ться</w>
но ги</w>
кафе дра
ша ли</w>
ко »</w>
ке рами
раз ряде</w>
со ном</w>
носи л</w>
ры нок</w>
про вела</w>
футбо ла</w>
пан е
струк туре</w>
подвер г
золо то</w>
бу да
si on</w>
ль ская</w>
глав ное</w>
иоан н</w>
съез да</w>
бер и
расс каз</w>
пор т
ти ло</w>
до кла
основа телей</w>
на став
об услов
па лу
исполня л</w>
с ени
на ви
пле мен
мар тин</w>
ь ям</w>
ша ют</w>
пер у</w>
ле вых</w>
лу и</w>
лин ский</w>
особо го</w>
чис лу</w>
поез дов</w>
ком »</w>
точ ных</w>
ль ском</w>
при е
таль ные</w>
разведы ватель
пере хода</w>
пол ного</w>
ман да
голо с</w>
а зо
3, 5</w>
о станавли
игро ки</w>
боль ных</w>
ше б
обработ ки</w>
мона ше
ран га</w>
защит ника</w>
тяже ло</w>
зу р
высо ту</w>
анг лич
зо о
попыт ка</w>
си мо
по ва</w>
p p
эска дри
корре к
сово куп
установи ть</w>
производ ству</w>
в перё
ле бе
ро на</w>
п ани
област ях</w>
ки я</w>
ре ферен
колхо за</w>
административ ному</w>
лин ского</w>
суд но</w>
обеспечи вает</w>
принци п</w>
co m</w>
сай та</w>
а спек
кали нин
случай но</w>
распа да</w>
ли ши
аль ное</w>
фигу ри
ру к</w>
б р</w>
со се
в люб
творче ство</w>
обуча лся</w>
люд ям</w>
переда ч</w>
науч ным</w>
ва лю
дви ж
днепро петро
здравоохран ения</w>
производ стве</w>
у худ
изуч ение</w>
част ях</w>
там бо
расши рен
требу ется</w>
ност ям</w>
получа ют</w>
защи те</w>
са в
логи ю</w>
увиде ть</w>
с кла
род ного</w>
н .
собствен ности</w>
по пад
цион ном</w>
ря ду</w>
дет стве</w>
жен ской</w>
под клю
департа мен
называ ет</w>
кон вен
си ци
е вым</w>
штаб- кварти
са ди
ти ков</w>
но с</w>
б лей
ре пресси
источ ником</w>
те п
с /с</w>
с х
конкур с</w>
международ ным</w>
шта д
дерев ьев</w>
щ ин
австро -
вен е</w>
струк туру</w>
реги онов</w>
северо- западе</w>
сто к
те чёт</w>
заклю чается</w>
ре г
ленингра д</w>
высо ко</w>
ви л
ли га</w>
воен ача
млад шего</w>
воспи ты
синг ла</w>
раз решение</w>
дав ления</w>
поли т
граф ом</w>
област ной</w>
не известно</w>
т били
n a</w>
независи мо</w>
8 .
преду смо
пере даны</w>
5 0-
свое образ
пре крас
ён ную</w>
по- прежнему</w>
хри ста</w>
в лё
стра на</w>
экра ни
многи ми</w>
кн р</w>
чемпиона тах</w>
ии су
альбо ме</w>
шах мат
ро дом</w>
к вин
раз мера</w>
бронзо вый</w>
досто вер
ли дер
им пер
су э
обо рону</w>
бори со
алексе я</w>
обеспечи ть</w>
ж ском</w>
об мен</w>
край ней</w>
то рия</w>
« б
2 2
об лож
дочер ью</w>
влад ение</w>
мон та
пти цы</w>
са хар
ка сти
музыкан ты</w>
медици ны</w>
16 -
выступи ла</w>
гре ческого</w>
свобод у</w>
к рю
уничто жил</w>
f re
перво началь
отнош ениях</w>
от пу
бло ка</w>
ф ана
ру б</w>
з ме
веду щий</w>
на печа
истори ческие</w>
ма сса
заня тия</w>
188 3</w>
существо вала</w>
медицин ских</w>
то ни
куй быше
0 :
m it
аль ным</w>
10 ,
возник ла</w>
замет но</w>
локо мо
объя с
жен ский</w>
тру ды</w>
про смо
ван ным</w>
надца ти</w>
лли ву
моги лё
та ком</w>
при двор
рели гии</w>
заим ство
стары х</w>
с пар
ли ний</w>
on s</w>
186 7</w>
ог ня</w>
ма л
поло сы</w>
n o</w>
при ся
ли лись</w>
аф ана
эль -
восточ но-
ани ями</w>
провед ение</w>
же лу
бле стя
на груз
при ну
свя то
мини мум</w>
о пе
вол шеб
полно цен
ман че
музыкан тов</w>
ц ким</w>
официаль ной</w>
раз уме
ко ве</w>
испы ты
st er
из я
186 0</w>
ма нов</w>
полити ке</w>
t »</w>
преступ ления</w>
потен циа
юго- востоке</w>
ван ное</w>
бу ю</w>
распростран ены</w>
последу ющих</w>
де тек
дополни тельные</w>
раун да</w>
ре пер
хи щ
за бро
сочин ения</w>
ме м
т од
тра кто
ско пи
по влия
с мир
израи ль</w>
ди ску
би на</w>
го ви
иг на
ме т</w>
рабо чей</w>
зн ания</w>
называ лась</w>
ни с</w>
приня тия</w>
пре сс-
то ка</w>
над пись</w>
жи вых</w>
евре йской</w>
ты -
d an
ч ков</w>
до жд
о писан</w>
матер ью</w>
ниж нем</w>
187 7</w>
пре обра
ра сту
первен ства</w>
собствен ного</w>
пере пис
ма лых</w>
ком пак
адмира ла</w>
ля ли</w>
ба н</w>
квали фикации</w>
f in
ро зо
максима льная</w>
ни мом</w>
поэ зии</w>
рассмо тр
9 .
то кси
но выми</w>
фен о
ж ор
ве ках</w>
жо у</w>
б ёр
содерж ания</w>
я с
право му</w>
пред стоя
ar i
фортепи ано</w>
за ду
вы шло</w>
содер жи
ш кой</w>
и коно
возвра щении</w>
о пира
класси ческой</w>
присут ствует</w>
ля л</w>
2- м</w>
при держи
па р</w>
круп ным</w>
корот ко
изве сти
грани ца</w>
аппара т</w>
at e</w>
эк стра
уэ ль
я и
проводи ть</w>
раз работал</w>
ина че</w>
гумани тар
желез ная</w>
карти н</w>
кры ла</w>
уе фа</w>
буду щем</w>
мор фо
вече ром</w>
избе жать</w>
сим метри
взрос лых</w>
ска х</w>
переу лок</w>
показа ли</w>
не активных</w>
отря ды</w>
функ ция</w>
ши р</w>
организо ван</w>
действи ем</w>
ре »</w>
ф ов</w>
р к</w>
кру га</w>
п во</w>
молодо го</w>
зи й</w>
полё та</w>
ро у
преподава тель</w>
ма лый</w>
воору жения</w>
академи я</w>
пе щер
облада телем</w>
юри с
игра ли</w>
производи тся</w>
на сы
измен ение</w>
совет ник</w>
м .
повре жд
выз вало</w>
молодё жи</w>
u t</w>
el l</w>
па й
при вы
ю н
в ке</w>
185 6</w>
священ ника</w>
сред них</w>
а ки
e _
соб ственный</w>
на бере
п с</w>
п п</w>
митрополи т</w>
сест ры</w>
у держи
аван гар
служ ба</w>
з му</w>
5 -го</w>
вы чис
вынужд ены</w>
уез де</w>
кал мы
вось ми
l y</w>
образо вано</w>
нов ской</w>
« s
моби лизо
сто р
особо е</w>
криста ллы</w>
бо ёв</w>
1 10</w>
мощ ности</w>
ле »</w>
d i</w>
бело русского</w>
союз ников</w>
ки нского</w>
ло га</w>
не сен
ре т</w>
зна ком</w>
фёдоро вич</w>
двига телей</w>
метро м</w>
от туда</w>
коро б
за »</w>
t -
пенсионе рами</w>
ры цар
брас ы
поло вину</w>
о ча
о пять</w>
использо вании</w>
смолен ской</w>
пос ла
точ ной</w>
жи в</w>
st i
so ft</w>
в верх</w>
отправи л</w>
восстанов ления</w>
герцо г
лод ки</w>
раз меры</w>
име ло</w>
у ступа
император ского</w>
вс ём</w>
при да
кон чи
при бре
обра тился</w>
над ё
счита ли</w>
тель ному</w>
нан ес
реш ений</w>
наблюд ения</w>
г др</w>
по треби
образу ют</w>
х ав
ц кое</w>
ц ких</w>
екатери на</w>
а стерои
хо се</w>
фран су
186 8</w>
про д
co dic
ново -
филип п</w>
инду стри
вир ту
семина рии</w>
мы »</w>
состоя т</w>
ск лон
ско п
на падения</w>
ин до
за ве
ми д</w>
пу га
di a</w>
сто летия</w>
управ лении</w>
вы числи
собствен ную</w>
проходи ла</w>
про йти</w>
работ ки</w>
си с</w>
вер у
вперё д</w>
зна л</w>
ба лета</w>
стоя л</w>
погиб ших</w>
че хии</w>
п ленных</w>
сторо на</w>
смени л</w>
е й»</w>
са ти
дмитри я</w>
четы ре
от ступи
моде лей</w>
водохранили ща</w>
посмер тно</w>
агент ством</w>
m p
codic e_
воз обнов
е ю</w>
ссо н</w>
во пло
186 6</w>
ров ке</w>
за чё
лу из
призн ание</w>
раз мер
та ба
lo g
c -
по пере
ци я»</w>
сохрани ть</w>
гла з
соци ал-
опреде ление</w>
немед ленно</w>
населён ного</w>
иде ологи
де кла
вс лед</w>
1 30</w>
ше в</w>
раке ты</w>
гэ с</w>
n ig
церк вей</w>
с пла
валери й</w>
ры б</w>
диа гности
1 12
ха ба
оцен ку</w>
водя т</w>
свой ства</w>
не давно</w>
ал жи
k a
послед нем</w>
ти т</w>
высо ким</w>
st er</w>
британ ских</w>
ч ок</w>
попа ла</w>
ф фи
бе к
меда лями</w>
неза долго</w>
избира лся</w>
си »</w>
антони о</w>
проек ты</w>
подро ст
отправля ется</w>
ва р</w>
со чи
бер г
прояв ленные</w>
ду бли
ic s</w>
выбра н</w>
муж ского</w>
зо ну</w>
рекомен до
во н
stu di
go o
187 3</w>
тра ге
г ы
корреспонден т</w>
занима лись</w>
от чё
офице р</w>
са унд
техни ческой</w>
мо р</w>
спортсмен ов</w>
c la
металлур ги
а к</w>
ро т
коллек тива</w>
ликви дации</w>
бе жен
планиро валось</w>
f -
им пуль
мёр т
испан ский</w>
юго- западе</w>
ни ла</w>
преподава телем</w>
чика го</w>
h y
h ar
я х
анг л</w>
отде льный</w>
стол кну
государствен ную</w>
у т</w>
186 5</w>
под лин
сс ен
произо шёл</w>
тихо океан
не пода
го тов</w>
двор це</w>
а я</w>
во рон
согла шения</w>
ба за</w>
лич ной</w>
аэропор та</w>
ходи ли</w>
о хла
государствен ные</w>
ев ской</w>
вой ско
ди о
ма й</w>
сни зи
пер ви
зе н</w>
астро номи
жел ание</w>
десяти ле
захва тчи
r e</w>
чен ным</w>
за плани
кри мина
186 9</w>
зре ва
количе ством</w>
телевид ении</w>
до в
сочин ений</w>
распро страни
объяви ла</w>
сохрани лось</w>
религиоз ных</w>
мо тор
яро слав
значи тельную</w>
« да
3 6
разру ши
п лён
про вели</w>
me t
l y
дерев ень</w>
графи ческой</w>
ху н
мужчи на</w>
yo u</w>
вни з</w>
существо вало</w>
высо кая</w>
сторон ников</w>
зада чей</w>
предполага лось</w>
подтвер жд
ба я</w>
ар ка
ю ли
потен циаль
интенси в
отсут ствуют</w>
на ции</w>
важ ней
пьес ы</w>
бере мен
раз мно
азербайджан ской</w>
уда ётся</w>
рабочи й</w>
оль га</w>
каж ется</w>
сред ние</w>
захва тил</w>
выстав ка</w>
ти руется</w>
ти но</w>
а та</w>
упомин ание</w>
ны е»</w>
высо чай
цар ства</w>
мин не
при ви
посе лений</w>
жи телями</w>
за ди</w>
с му
установи л</w>
молод ые</w>
у влека
г ни
у страи
по падает</w>
руководи теля</w>
призна л</w>
фла га</w>
това ров</w>
баш ня</w>
коммуни стической</w>
слова ми</w>
по мест
сти н</w>
итальян ской</w>
геро ин
г род
ули цу</w>
сми т</w>
« ра
по хода</w>
оста вив</w>
государствен ная</w>
собра л</w>
оде жды</w>
о »</w>
евре йского</w>
сер ти
жа ми</w>
повы шения</w>
учи теля</w>
балти йского</w>
тек сте</w>
за ба
по пе
описы вает</w>
дру гую</w>
187 2</w>
bo o
использо валась</w>
ва ди
запа с</w>
гро б
струк тур
184 8</w>
арен ду</w>
художе ственного</w>
супру га</w>
подоб ного</w>
трак та
над пис
ч ье</w>
тран сли
ни будь</w>
ден а</w>
уз ла</w>
пры ж
богороди цы</w>
построи л</w>
поез д</w>
пред поч
в мс</w>
л лин
вру чением</w>
12 .
дере ва</w>
ж ными</w>
кален дар
ди ска</w>
иско па
цен тров</w>
де ть
гла з</w>
н с</w>
совет у</w>
l and</w>
ну л</w>
федера льной</w>
лег ко
располага лся</w>
герм анию</w>
посе ти
агре га
цион но-
до к
упраздн ён</w>
б ь
ходи л</w>
за труд
ос и</w>
опреде лить</w>
широ кое</w>
актё ра</w>
c re
ло гов</w>
геро и</w>
_ _
украин ская</w>
переимено вана</w>
не су
сегодняш ний</w>
in a</w>
с права</w>
окра и
сле ва</w>
ин фек
го рах</w>
вопро сов</w>
отличи ем</w>
про ведена</w>
род ном</w>
от ступ
предме ты</w>
солда ты</w>
ме га
ги на</w>
бака лав
отде льно</w>
ch i
соору жения</w>
город ское</w>
го лливу
вильгель м</w>
возмож ным</w>
ам стер
англи йской</w>
колле дже</w>
ти бе
проси т</w>
турни ров</w>
ству ющих</w>
ро ли
мате матики</w>
чу к</w>
секун д</w>
ланд шаф
верну лись</w>
древ него</w>
бе ле
си рии</w>
поме щения</w>
виде л</w>
бо б
200 0-х</w>
j u
утвержда л</w>
ль е</w>
вы йдя</w>
ход о
рай они
че лю
гра б
важ ных</w>
12 ,
тин ской</w>
протя жён
дру гу</w>
команду ющим</w>
бай каль
ч кой</w>
ус лы
м сти
н ская</w>
3 0-
ка ш
спи р
е два</w>
интере сов</w>
ю найтед»</w>
станови лся</w>
выступа ли</w>
реме с
эми гри
ус пен
тюрь ме</w>
w it
треть я</w>
инструмен тов</w>
представи телями</w>
медици нского</w>
музыкан т</w>
манд ри
си ти</w>
з о</w>
грани цей</w>
вра ч</w>
по гру
отвер сти
дея телей</w>
американ цы</w>
услу ги</w>
откры том</w>
круп ного</w>
обо б
кри тери
6 /
фини широ
зву ча
иде ю</w>
фар ма
баскет боль
«золо тая</w>
z e
эти ми</w>
певи цы</w>
об ру
да м
x vi
3 000</w>
d on
« ти
под писан
дей ствуют</w>
алексе евич</w>
фо л
а доль
ст эн
золо та</w>
короле вы</w>
l it
ду шу</w>
ар те
ста вший</w>
ль ников</w>
ду р
про р
рубе жом</w>
помощ ник</w>
чув стви
про пу
ле тию</w>
произо шед
власт ями</w>
патри о
тро н</w>
камен ь</w>
при мор
ви ни
адмира л</w>
построи ть</w>
обра щение</w>
ак ции</w>
супру ги</w>
граф ов</w>
th er
леони д</w>
суд на</w>
екатер ины</w>
4 5
за м</w>
сум ма</w>
ре ген
обра щения</w>
премьер- министра</w>
принадле жал</w>
0, 5</w>
ра ка</w>
ta in
тё мно-
националь ным</w>
лет няя</w>
кано ни
но ри
близо сти</w>
по вести</w>
отде льной</w>
из готавли
в начале</w>
иль и
профессиональ ного</w>
по п-
озна ча
санкт-петербург ской</w>
са мо</w>
мэ р</w>
леген дар
концеп ции</w>
по иска
о ку
поддержи вает</w>
ми д
граждан ского</w>
выступи ли</w>
за ря
произо шла</w>
представля ли</w>
en g
общи н</w>
о пол
ch e
с мы
ре м
выпущен ный</w>
тру дов</w>
симво лом</w>
а вари
пере ходит</w>
кол од
и коны</w>
раз решения</w>
назна чение</w>
187 5</w>
т ским</w>
соору жений</w>
хи ро
оружи ем</w>
ма ли</w>
оста вля
компози тора</w>
ти с</w>
перен ос
к ёр
ль ности</w>
ра со
пере дана</w>
един ственной</w>
ье ва</w>
чи слен</w>
сти хов</w>
ба ри
раз ы
раз мере</w>
предме тов</w>
способо м</w>
сравни тельно</w>
бе лая</w>
с вин
рус ское</w>
то чек</w>
за гово
сцен а
мест ность</w>
вет ви</w>
рабоче -
то ма</w>
кри сто
/ /
х мельни
каче ство</w>
вклю чена</w>
187 4</w>
представи телем</w>
на я»</w>
вы рос</w>
н ением</w>
моти вам</w>
види мому</w>
верси й</w>
фран к
и ми
от ыгра
им ми
за про
квали фици
у совершенство
он »</w>
бер лин</w>
архи мандри
количе ству</w>
фор мой</w>
кан це
ро лей</w>
го вых</w>
каза чь
деть ми</w>
гре й
муж ской</w>
каз ни</w>
сове щ
та й</w>
) )</w>
располо жение</w>
вен ства</w>
gro up</w>
похо жи
кан тон</w>
при город
крыль я</w>
от ро
представ ление</w>
заня ть</w>
ко вод
из ба
исследова телей</w>
воз никает</w>
про яви
вра ж
чё т
древ ней</w>
10 .
сти ческая</w>
финан сов</w>
м ла
встре че</w>
исто ка</w>
ч ному</w>
пос лан
пред ъ
дра ф
асса м
пред води
раз ре
настоя щий</w>
наблюда ется</w>
момен ту</w>
простран стве</w>
при вести</w>
по гре
мо лит
рейтин ге</w>
губерна тором</w>
ду бо
ви ктора</w>
ан ь
спа сти</w>
9 /
при писы
t p
изуч ению</w>
про кура
ди -
опис ания</w>
го ре</w>
священ ник</w>
повед ение</w>
филь му</w>
на вод
карти ну</w>
пра й
претен ден
зе ландии</w>
14 0</w>
про повед
про пор
мя ч</w>
под чер
m es</w>
прав да</w>
о пор
автори те
трав мы</w>
дра го
ко ла</w>
че в</w>
вол ны</w>
h u
ана ста
f ac
крестьян ских</w>
16 0</w>
лек си
архи пела
ен ос
емы ми</w>
воз ник</w>
опублико ван</w>
ль д</w>
позволя ют</w>
хран ения</w>
лин у</w>
предполага ется</w>
согла со
художе ств</w>
су ток</w>
ру сс
ь ей</w>
сред нее</w>
при готов
пи к</w>
лы »</w>
ориен тирован
соедин ений</w>
ap p
рас строй
капи ту
а таку</w>
при шла</w>
участ ки</w>
ли стов</w>
осман ской</w>
вои нов</w>
све то
го мель
от сюда</w>
американ ские</w>
рим ского</w>
ле то</w>
пи р
при лега
мю зи
найден ы</w>
антро по
золо тую</w>
ве се</w>
пози ций</w>
ь ем</w>
петербур ге</w>
таври ческой</w>
коми к
т ща
сдела ли</w>
ли м
го на</w>
высо кую</w>
сотрудниче ство</w>
з ла
тель ницей</w>
inter national</w>
чрезвычай но</w>
рабо тан
милли ар
характери стики</w>
мест ном</w>
ку ла
боль ницы</w>
во жд
ьё й</w>
те ран
существо вал</w>
си ло
недо воль
ин ци
дав ление</w>
x -
c u
ви чи</w>
те тра
ремон т</w>
кар бо
ви к</w>
е фи
тек сты</w>
оста вить</w>
беско не
l or
егип та</w>
федера ция</w>
безработ ных</w>
расс читы
ста л
подоб но</w>
ри к</w>
v en
18 0</w>
му р</w>
роман е</w>
на ла
на ши</w>
свобод ного</w>
широ ко
ткан и</w>
di s
точ ные</w>
ми т
ад ре
заня в</w>
ана м</w>
д нк</w>
g o</w>
называ емый</w>
заведу ющим</w>
ен ное</w>
дости гла</w>
ды »</w>
фигу р
нов ение</w>
расши ря
луч шая</w>
деву шки</w>
э л</w>
поль ша</w>
гор ный</w>
капита ном</w>
обеспе чение</w>
за жи
немец кая</w>
вое вал</w>
на та
со ф
а ми
ша х</w>
ки ност
об лег
запад но
ген на
7 /
лен ном</w>
j a
учё ные</w>
прозви ще</w>
st o
ар к
предло жения</w>
пре да
д ные</w>
домо хозяйств</w>
творче стве</w>
учре ждение</w>
характер изо
о ф
француз ском</w>
ду ш</w>
n or
вод ном</w>
россий ские</w>
ли пе
эн ди</w>
твер ской</w>
мест е
би т</w>
центра льном</w>
при обрёл</w>
вз вода</w>
предыду щих</w>
констру и
тюрь мы</w>
ча ются</w>
любо го</w>
промышлен ных</w>
орке стр</w>
« …
ри ма</w>
у щер
ти рует</w>
ра х
б анд
ку пе
по пытался</w>
ма тов</w>
двадца ть</w>
молеку ляр
изде лий</w>
ва ви
росси я»</w>
созвез дии</w>
буда пеш
моно графи
интер фей
украин ских</w>
лей п
га й</w>
тор у</w>
па тен
испыт аний</w>
фред ери
к ера</w>
ры ба
род у</w>
вла стью</w>
и .
пробле ма</w>
официаль ное</w>
л л
итальян ского</w>
бан ди
ва ющая</w>
альбо мом</w>
масте ров</w>
принадлежа т</w>
оран же
мыс ли</w>
ви с</w>
пле мени</w>
выпущен о</w>
опублико ваны</w>
г г
f er
ми ри
желез ных</w>
бата реи</w>
арен ды</w>
пи ро
ле ты</w>
вы ез
при ём
лу к
ор ы</w>
разме сти
ва с</w>
дебю тировала</w>
рован ным</w>
е мую</w>
э ля</w>
из ма</w>
мэ ри</w>
сла бы
фун тов</w>
органи з
ко стью</w>
до м
превы шает</w>
массо вой</w>
зи на</w>
пуш кина</w>
зем лет
полот ни
закры т</w>
на шли</w>
ков у</w>
t y
обсу жда
програм миро
королев ство</w>
сим феро
особ ня
стары е</w>
о писал</w>
b lu
сло вно</w>
с ского</w>
не большая</w>
нес ли</w>
испо вед
жи то
ти -
f u
кра е</w>
заме н</w>
американ ским</w>
и ла</w>
землет ряс
волей бо
кла ссу</w>
«с пар
те чения</w>
расс каза
воздуш ной</w>
и ной</w>
сель ской</w>
ие рар
р же
во з</w>
ци н</w>
ра фа
лейп ци
образ цо
вы год
выходи л</w>
бро са
un g</w>
подразде ление</w>
заканчи вается</w>
юще еся</w>
0, 0
сотрудниче ства</w>
« бу
форма льно</w>
разно образи
продолжа ли</w>
ны м»</w>
дет ских</w>
япо нский</w>
копи та
живо т
b ac
сти му
ги д
все ленной</w>
расположен ных</w>
пере кры
опублико вана</w>
ново к</w>
ня »</w>
импера тором</w>
та ган
смер тью</w>
ка спи
в лек
бы вает</w>
4 :
подчи ня
за ведо
учи лась</w>
ран него</w>
прожи вают</w>
шен ко</w>
современ ное</w>
грани цах</w>
ве ре
кол ё
каза ков</w>
зако нов</w>
я сно</w>
es »</w>
стрелко вая</w>
гар ри</w>
ш ени
я м
на бо
инци ден
извест ными</w>
совет ско-
1 15
сам ки</w>
помо гает</w>
нов городской</w>
води т</w>
сверх у</w>
серд це</w>
ле чеб
сти ке</w>
про ле
аль фре
обнару жил</w>
существо вали</w>
лён ных</w>
жю ри</w>
de n</w>
арми й</w>
сы ну</w>
по- видимому</w>
бра ть</w>
адъю тан
са ́н
разви тием</w>
оч ка</w>
куль тур</w>
эк ви
при роде</w>
пра вя
созда ли</w>
а ра</w>
к в</w>
счита лся</w>
лич ные</w>
у че
зелё ный</w>
на н</w>
а мур
за меня
бори са</w>
се т</w>
психо логии</w>
явля лось</w>
км /ч</w>
говор я</w>
ver s
свя зей</w>
за бе
региональ ного</w>
вене циан
столи цу</w>
пи я</w>
вин ни
c y
th o
те ме</w>
ст ь»</w>
о ’
социаль ного</w>
поли ция</w>
май ор</w>
чу до
успе л</w>
от рази
руко поло
крити ке</w>
т ками</w>
в ских</w>
ан и</w>
цион ер
мле копита
взаимодей ствия</w>
ба за
сто е</w>
мероприя тия</w>
подразде лений</w>
и дей</w>
ли ф
сотруд ником</w>
правитель стве</w>
ассам бле
ща лось</w>
у ходит</w>
немец кими</w>
на ре
глуби на</w>
ф ей</w>
стату са</w>
сери й
карти не</w>
доро гу</w>
an t
средне годо
под ход</w>
ж ская</w>
узна в</w>
ма лай
с ная</w>
а лю
механи зм</w>
ли дера</w>
чар те</w>
действо вать</w>
административно-территориаль ного</w>
гра ду
a -
ра но</w>
тюрь му</w>
я ков</w>
к лей
содержа т</w>
коль цо</w>
аль ян
хорва тии</w>
лет нем</w>
перечислен ных</w>
на кан
исполни л</w>
ис а</w>
увели чение</w>
аль пи
с право
сою зе</w>
сем ьёй</w>
хо ва</w>
спо кой
постоян ной</w>
молодё жной</w>
со во</w>
бла город
на пи
formula_ 2</w>
экономи ко-
мя чей</w>
пре зен
отличи я</w>
ч лени
ули цей</w>
плат форма</w>
бизне са</w>
игра ют</w>
строи ть</w>
ва ра</w>
предусмо трен
иг рой</w>
f e</w>
ве б-
уро жд
уилья ма</w>
коме дии</w>
перегово ров</w>
сухо пу
зна ет</w>
продол жение</w>
жд ению</w>
о ров</w>
глуби не</w>
ге ль</w>
интерес ы</w>
замен ы</w>
возмож ных</w>
13 -
18 -
ха ми</w>
ч -
це лый</w>
люк сем
кри ш
дво ю
чи не</w>
бе г
по куп
де »</w>
ба зу</w>
путеше ствие</w>
жан ра</w>
но ч
немец ком</w>
2- я</w>
ди стан
ai r</w>
st ation</w>
о ва
ле во
коль ца</w>
кана да</w>
мало го</w>
фил д</w>
сове том</w>
ми тин
едини цы</w>
бо г</w>
э в
превос ход
ира на</w>
го вари
поль ских</w>
доба вля
ры е</w>
на вы
ку х
ди нан
талан тли
у то
ст ского</w>
про бо
пен зен
кор мо
железнодорож ного</w>
ло вича</w>
го ли
сотрудни чал</w>
скоро стью</w>
p e</w>
от се
у кры
па ке
щ ину</w>
ц зин
би -
т ское</w>
гор ского</w>
тя м</w>
даль не
в ный</w>
ля ция</w>
э ски
инте гра
юж но-
x xi</w>
фло ти
жен ная</w>
бы вшая</w>
одино чном</w>
обвин ения</w>
значи тельный</w>
стра ш
проис ходя
владе лец</w>
по са
учё бы</w>
премьер- министр</w>
вм ф</w>
мину ты</w>
вещ и</w>
ев ском</w>
пале стин
на ста
хов ского</w>
сня л</w>
разме ров</w>
уси лия</w>
обы ча
s h</w>
ло на</w>
казан и</w>
уступи в</w>
d re
от ры
разработ ку</w>
став ки</w>
ва вшие</w>
су щ
мет ры</w>
государ ством</w>
постанов ление</w>
micro soft</w>
счита я</w>
анг ло
гра до
у ве
рай оном</w>
по воро
па но
ги п
фридри ха</w>
таун ши
ре визи
рее стре</w>
времен ного</w>
следова тельно</w>
ст ры</w>
с на
диа метром</w>
ве тера
ш ке
до ми
художе ственных</w>
кур ской</w>
за ха
верх ний</w>
михай лов
ма ри</w>
про ходя
рабо чие</w>
дер жать</w>
си ть</w>
мест ный</w>
воен ная</w>
общ ую</w>
кто ры</w>
напомина ет</w>
st ar
тек стов</w>
облада тель</w>
сери й</w>
па ки
d en
пе чен
го ни
ди в</w>
д ь</w>
американ цев</w>
лес ной</w>
мар к
8 /
труд но</w>
образу ется</w>
у йти</w>
набра л</w>
до рф</w>
цве тов</w>
самолё ты</w>
гда ш
« ха
фер динан
начина л</w>
мар гари
ман а
на пол
з вен
поддержи вал</w>
ag e</w>
уби вает</w>
щи т</w>
та мо
отме чается</w>
захва тили</w>
програм м
происходи л</w>
дру же
луч шую</w>
i l</w>
и ных</w>
серд ца</w>
подготов ленной</w>
автодоро ги</w>
отказа ться</w>
ваго нов</w>
ю рия</w>
допол нение</w>
enter tain
лен ными</w>
обслужи вания</w>
б лан
пе вец</w>
ня ет</w>
ч ка
освобожд ён</w>
александ ром</w>
пре р
ин вали
опы та</w>
лён ный</w>
ho t</w>
1 1,
dv d</w>
груп пами</w>
са ви
пенси ю</w>
авто мати
f il
про ло
вз лё
ри су
ше р</w>
само управления</w>
лоша дей</w>
ле сах</w>
верши ны</w>
re s</w>
тра вя
основан ный</w>
тех ника</w>
i d</w>
пере хва
захва тить</w>
очевид но</w>
физико- математиче
приме ром</w>
арген тины</w>
голо са</w>
ча лись</w>
тяжё лой</w>
сс »</w>
про игры
государствен ным</w>
чёр ная</w>
м ²</w>
ак ту
бой цов</w>
от каз</w>
ьё в</w>
сен ь
трам вай
гран тов</w>
му »</w>
с од
ко ни
рен а</w>
тать яна</w>
а ном</w>
восстанов ление</w>
о ро
москов ская</w>
группи ровки</w>
топо ним</w>
написан ы</w>
золо тые</w>
сток голь
деся тков</w>
насеком ых</w>
заклю чил</w>
т в</w>
ответствен ность</w>
со ли</w>
росто вской</w>
промышлен ность</w>
д ной</w>
публи ку
крупней ший</w>
w il
крас ные</w>
бо т
ми ше
ал б
ры бы</w>
сек ции</w>
о пыт
голосо вания</w>
руководи телей</w>
судь ба</w>
рейтин г</w>
райони рования</w>
су ти</w>
про демонстри
обра баты
отмеча л</w>
хро но
характеризу ется</w>
си ли</w>
пра ши
от кло
фин ской</w>
сфер ы</w>
октябр ь</w>
ж д</w>
у пор
су де</w>
называ лся</w>
чи сел</w>
куз ь
основ ную</w>
ал бан
« золотой</w>
- ри
спортив ных</w>
ше к
специали зи
вы ше
част ями</w>
от тен
отде льного</w>
лос-анджеле се</w>
дели тся</w>
ди с</w>
185 8</w>
попа ли</w>
ван е</w>
зад аний</w>
14 -
мене дже
продюсе ром</w>
3 7
об щих</w>
изг н
6 -го</w>
ли бер
виде ть</w>
18 29</w>
расположен ная</w>
по роды</w>
. r
ча тые</w>
совхо за</w>
вет в
би л</w>
ц зя
в ским</w>
серге евич</w>
до вери
попыт ку</w>
по греб
х та</w>
уничто жить</w>
встре чу</w>
с пер
по ведения</w>
от ва
выступа я</w>
немец ким</w>
ро вании</w>
пись ме</w>
стра ива
метод а</w>
боепри па
сибир ского</w>
дж ей</w>
дли не</w>
точ ного</w>
успе хи</w>
преобразо ван</w>
ль ю
жи ло</w>
поче му</w>
кар ьера</w>
ми ль</w>
тре во
хирур ги
рома нов</w>
по род</w>
b ar
пав лович</w>
яй це
ша сси</w>
токи о</w>
пре святой</w>
тра ги
политиче ская</w>
дере во</w>
и гу
бе ка</w>
« я
констан тина</w>
ри са</w>
про шло</w>
международ ная</w>
професси она
мо и
евг ения</w>
анг лия</w>
широ кий</w>
район у</w>
мар кси
ти м
би й</w>
шен ных</w>
2 5-
мет рии</w>
у ступил</w>
веду т</w>
нару шения</w>
принима ют</w>
185 7</w>
цен а</w>
аб ба
вше мся</w>
ад рес
засед ании</w>
взя ли</w>
учи ться</w>
ра ции</w>
наз вать</w>
спо ко
специаль ной</w>
с вод
исполни телей</w>
е т
пу сть</w>
ш лю
1 20
удо стои
рели з</w>
мень шей</w>
l on
че шу
ин ской</w>
ло моно
ро т</w>
ре пута
образо ванием</w>
ло у
крестья не</w>
вариан ты</w>
g ar
получи вший</w>
значи тельная</w>
ющи мися</w>
референ ду
ниж него</w>
ки ева</w>
ле су</w>
д ного</w>
продук ты</w>
ря дах</w>
про дли
худож ником</w>
а ги
на много</w>
митрополи та</w>
приве ла</w>
ры х</w>
накан уне</w>
коллек ти
фила р
сель ском</w>
лё в</w>
ин гу
француз ская</w>
раз ным</w>
о лен
торго вых</w>
облада ют</w>
ти пы</w>
андре евич</w>
« c
столи цей</w>
лу жи
верхов ный</w>
реги онах</w>
проз ра
ука з</w>
плани руется</w>
ти зма</w>
пу шки</w>
граждан ских</w>
кам ча
наи большее</w>
ви е</w>
даль него</w>
ht tp
съез де</w>
рак ет</w>
би ть</w>
ч но
о собой</w>
ев у</w>
теори ю</w>
алек са́н
устрой ств</w>
одноим ённого</w>
кар т</w>
эн до
ман уэ
пла ты</w>
тер пе
эле мент</w>
мероприя тий</w>
княз ей</w>
бе се
я чей
v a</w>
сло й</w>
пода л</w>
дне п
сверд ловской</w>
коле б
тель ницы</w>
выигра ть</w>
кад ров</w>
церков ью</w>
фигу ры</w>
an a</w>
чехослова кии</w>
располага лись</w>
отказа лись</w>
эр н
4, 5</w>
ч жоу</w>
бал лов</w>
экви вален
при вед
рав на</w>
занима ют</w>
крити ко
чен ная</w>
при ступи
опреде ляет</w>
э ро
пра ве</w>
на оборот</w>
й н</w>
значи т</w>
но чи</w>
сценари ст</w>
псевдо нимом</w>
прито ков</w>
объек том</w>
изобра жением</w>
so ci
су -
согласи лся</w>
гитле ров
всемир ного</w>
вен ти
проце ссы</w>
лу ка
ст -
д зи
диа метр</w>
нен о</w>
докумен тах</w>
переда ть</w>
у вен
созн ания</w>
ли цом</w>
п п
па ш
ж ье</w>
мар т</w>
учё том</w>
ру н
авиа ционной</w>
st re
юни ор
досто примеча
официаль ного</w>
международ ные</w>
ки нский</w>
горо док</w>
3 4
184 9</w>
настоя щего</w>
ко ш
= "
литов ского</w>
мекси ки</w>
пя тый</w>
ко ма
да у
до »</w>
бронзо вую</w>
18 50</w>
ше ст
ко ́
с жа
мухам ма
10 —
эс мин
b ra
пра вого</w>
заяв ление</w>
ма рок
сим пто
кон фи
четыр ь
и ри
ал тар
ск воз
за ть</w>
буква льно</w>
оборо не</w>
хреб та</w>
со вых</w>
с нг</w>
у полномо
ки ши
вра гов</w>
еди ной</w>
го на
ш вар
пересе ка
жерт в</w>
кафед ру</w>
фре га
нов »</w>
т ство</w>
зем лях</w>
те чении</w>
буду щий</w>
хло п
ры м</w>
прось бой</w>
элемен тами</w>
заболе вания</w>
2- е</w>
выс шую</w>
военнослужа щих</w>
до нского</w>
: //
бо гда
кра тера</w>
сро ка</w>
л лер
ба »</w>
полномо чия</w>
молда вии</w>
пу сто
t on</w>
шко лах</w>
четырь мя</w>
франсу а</w>
э но
ш »</w>
хими ческих</w>
офицер а</w>
поч вы</w>
чёр ной</w>
современ ном</w>
ро во</w>
не измен
град ского</w>
вело си
с ное</w>
закон ы</w>
штей на</w>
соче та
созда вать</w>
опа са
мет ре</w>
z i
о ки</w>
э стра
учё бу</w>
действо вал</w>
реши ла</w>
пли ка
мо нии</w>
на то</w>
ф -
серебря ную</w>
ви ру
не большое</w>
сты ми</w>
пес ней</w>
к ци
восстанови ть</w>
принци пи
псков ской</w>
профессиональ ной</w>
14 0
оши бо
возвра щение</w>
ду на
па ре</w>
народ ная</w>
консуль тан
n e</w>
у вле
яв ления</w>
у эй
пав лов
ка меры</w>
вклю чи
бал кан
ли це</w>
макси м</w>
теля х</w>
сохран ения</w>
са у
япо нского</w>
мат ве
север ных</w>
рудо ль
член -
лан да</w>
не которыми</w>
шев ченко</w>
дире кторов</w>
съез д</w>
журна лов</w>
фр г</w>
но ве
жан -
on »</w>
крей сера</w>
9 00</w>
боль нице</w>
ско та</w>
ок с
авиа ционного</w>
17 -
гу сени
го т
что -то</w>
ра к</w>
бо ги
актё ров</w>
вос прия
ка ме
то гдаш
д ра</w>
мили ции</w>
г ени
13 ,
вы вод</w>
при зыва
по спо
ла з
ви кари
юж ных</w>
росси ей</w>
из дана</w>
тера пии</w>
ль я
спо л
фа ра
ци та
диссер тации</w>
литератур ной</w>
поль ском</w>
на- дону</w>
ле чение</w>
сф ера</w>
вла ды
че ст
под чёр
под ве
лен о
сня лась</w>
ле он
зачё те</w>
бело русской</w>
« ан
от дал</w>
велоси пе
водохозяй ственного</w>
р ского</w>
до вер
про ведены</w>
ок ли
нор ман
уро жен
тран зи
администра ция</w>
вок зала</w>
взя т</w>
англи ю</w>
за строй
гео информационной</w>
учеб ного</w>
па пы</w>
н м</w>
« ру
b -
явля ться</w>
хро мо
d y</w>
владимир ской</w>
от то</w>
оп позиции</w>
to r</w>
присут ствуют</w>
обо значение</w>
entertain ment</w>
че стве</w>
рожде ствен
де ли</w>
ос лож
интеллек ту
пода вля
силь ным</w>
f ran
проек те</w>
ль ника</w>
га б
ру ку</w>
com pan
185 5</w>
бор ного</w>
эпизод ов</w>
ра т</w>
об ь</w>
гео метри
it e</w>
на бе
свед ений</w>
оцен ке</w>
убе ди
ни гер
кро во
sp or
не бес
наз вали</w>
таль но</w>
при способ
пол ёт</w>
сюже та</w>
точ ку</w>
имуще ства</w>
о ска
доли ны</w>
3 50</w>
состави ло</w>
ль ва</w>
имен у
вышед ший</w>
един ственная</w>
состоя лись</w>
относя т</w>
сотрудниче стве</w>
син га
по та
выполня ть</w>
коммен та
воз му
молод ым</w>
журна лах</w>
встре ча</w>
отрас ли</w>
мини ат
е м»</w>
шах ма
попа сть</w>
жи вой</w>
r en
пехот ной</w>
а пе
пер м
ок на</w>
при говор
со ко
ру ющих</w>
пол ном</w>
маши ну</w>
чи м</w>
с может</w>
стра нами</w>
гре ческий</w>
восстанов лен</w>
экономико- статистический</w>
широ кой</w>
христи ан</w>
на бира
концер тов</w>
дет ской</w>
популяр ной</w>
мастер ской</w>
конгре сса</w>
ст рия</w>
дека брь</w>
вы сад
алю мини
фрак ции</w>
зада чу</w>
про гно
тур не</w>
следу ющей</w>
аф ро
ли ста</w>
се ров</w>
про долж
минне со
техни ке</w>
останови ть</w>
ме му
18 00</w>
дире к
увели чения</w>
раз обра
сто ле
об мена</w>
находя ще
ни м
за мужем</w>
э лиза
ал у</w>
преде лы</w>
18 2
под разуме
де ля
у лу
захва та</w>
официаль ном</w>
ста »</w>
воспи т
лич ным</w>
располага лась</w>
луч шей</w>
разрабо тана</w>
американ ском</w>
магни то
лод ок</w>
особен ностью</w>
счаст ли
представи теля</w>
« от
с цени
ста лина</w>
рас ы</w>
лод ка</w>
древ нер
престо ла</w>
при ехал</w>
на шёл</w>
исп ания</w>
г рэ
григор ьевич</w>
до сро
генера льным</w>
разме ром</w>
пи к
наталь я</w>
кон ь
горь кого</w>
одноим ённой</w>
джор джа</w>
баро н</w>
дик та
сам цов</w>
различ ным</w>
поиска х</w>
н хл</w>
вене суэ
люби т</w>
g er
ло рен
город ские</w>
гор ной</w>
ц ла
контро лем</w>
эдуар д</w>
ли е</w>
« в
во все</w>
причи ны</w>
счита ются</w>
способ ны</w>
гомо сексу
представи л</w>
ч ны</w>
путеше ствен
про стой</w>
яй ца</w>
чарль з</w>
кризи са</w>
британ ская</w>
электрон ной</w>
част ной</w>
ба р</w>
f t
актив ность</w>
выигра в</w>
р п
ин ского</w>
дополни тельных</w>
прак тики</w>
сотруд ники</w>
зу н
за ра
баш ки
p er</w>
пе т</w>
р ь</w>
режисс ёр
ниче ства</w>
жен ным</w>
воз рождения</w>
бло ка
тан ковых</w>
пере клю
россий ском</w>
действи тельности</w>
t ur
у стран
оста вшиеся</w>
к рё
ниже городской</w>
проспек т</w>
джо ван
части ц</w>
« нового</w>
перевоз ки</w>
образ ца</w>
гри н
тель -
ти не</w>
li g
ль но
тыся че
пи тера</w>
реши ть</w>
b y</w>
з ная</w>
фили ал</w>
получа л</w>
ро ско
те сно</w>
сут ки</w>
графи ческих</w>
ива нов</w>
д ро</w>
c ap
объедин ены</w>
с бер
пове ство
дизай н</w>
те мати
вос станавли
ва ющего</w>
сса х</w>
герман ской</w>
буд то</w>
изобре та
дю й
за га
л кой</w>
обще образователь
приня ло</w>
ба бо
евро пу</w>
япон ских</w>
форма те</w>
раз ры
би ли</w>
ро вок</w>
кры му</w>
роди не</w>
раз ве
му ра</w>
филип па</w>
чита ть</w>
тон не
о но
повы шение</w>
войска м</w>
3- е</w>
увиде л</w>
поня тия</w>
зали в</w>
совет ника</w>
он лай
м эт
точ ное</w>
нача льной</w>
вороне жской</w>
продолжи тельность</w>
коро лю</w>
метал лов</w>
со фи
ли ей</w>
пове сть</w>
д зи</w>
пол ным</w>
мюзи к
поступи ла</w>
ста мбу
ir e</w>
зо в
бу ха
га ть</w>
се ль</w>
колумби и</w>
и ма
сохрани лась</w>
памят ники</w>
осла б
ть я
по ток</w>
на шего</w>
н э
18 —
соедин ённых</w>
литератур ный</w>
v al
ассоциа ция</w>
поспо ли
под семейства</w>
понима ет</w>
хи на</w>
уч ения</w>
у ти
чи тан
ха м</w>
закон у</w>
па рази
ne t
круп ной</w>
« ди
име ющих</w>
изготов ления</w>
капи тан
де д</w>
оста ться</w>
ки не</w>
генерал-май ора</w>
уро жа
кро ва
кол ы
проис ходят</w>
сове ты</w>
пра ж
полу финале</w>
тре й
слож ных</w>
особы й</w>
политиче скую</w>
мень шин
е ли
владель цем</w>
сентябр ь</w>
общи е</w>
прош лого</w>
орг ан
выделя ют</w>
и рак
е жене
полови на</w>
ста рая</w>
встре тился</w>
артиллери йского</w>
разли чия</w>
генерал- лейтенант</w>
вз ор
/ /</w>
яд ра</w>
гор ного</w>
титу ла</w>
дизе мно
un d
в щи
установ ка</w>
журнали стов</w>
ne w
располага ются</w>
моде ли
вильгель ма</w>
у и</w>
освобо ждении</w>
ну »</w>
расши рения</w>
сим па
концер ты</w>
архи епископа</w>
ф она</w>
называ ться</w>
лин г</w>
за писал</w>
при вёл</w>
ко жи</w>
фабри ки</w>
изда тельство</w>
18 30</w>
т ному</w>
ситуа цию</w>
сре диземно
но чных</w>
сти ка</w>
мо ра</w>
5 000</w>
француз ским</w>
а гра
3- м</w>
медици нский</w>
се мен
просве щения</w>
од ни</w>
киност у
чува ш
ке н</w>
граф ство</w>
ген ов</w>
тата р</w>
но кау
нару шение</w>
дви жи
юсти ции</w>
вы се
b ur
се »</w>
внутрен него</w>
види мо</w>
ков ка</w>
лиза ция</w>
использо ваны</w>
в ведения</w>
ну жда
при чем</w>
сан- франци
работ ник</w>
распростран ён</w>
кандида тскую</w>
бы вшие</w>
ска зан
по ходе</w>
жен ская</w>
вы тяну
секре та
эм п
филь мом</w>
запад но-
действо вали</w>
эми грации</w>
популяр ности</w>
бо ́ль
уби л</w>
па т
эмо циональ
вашинг тон</w>
з ора</w>
аль ную</w>
сти л</w>
185 2</w>
лагер е</w>
ж ке</w>
дне вной</w>
бро ни
к п</w>
сельскохозяй ственных</w>
политиче ским</w>
могу ще
опера цию</w>
укреп ления</w>
уг ля</w>
музыка льные</w>
д ёт</w>
технологи я</w>
ку ру
посвя тил</w>
отве чает</w>
транспор т</w>
и бра
ри »</w>
c ra
ти лось</w>
представля ла</w>
ло б
мене дж
ию ль</w>
метод ом</w>
вс ке</w>
p en
m -
ко выми</w>
три ум
фер нан
sh i
лейб ле</w>
воз рос
спосо бен</w>
ле в
аль ном</w>
измер ения</w>
купи л</w>
короле ва</w>
след ствие</w>
мо нет</w>
«спар так
расска зов</w>
дела л</w>
ч ник</w>
у фи
фру н
агент ства</w>
трам ва
профессиональ ную</w>
g n
м бо
пла з
о ско
3 00
ин струк
досту па</w>
кем бри
япо ния</w>
образо ванию</w>
отде лении</w>
лён ные</w>
« пи
4 8
r on
фо р</w>
пере йти</w>
са му
на па
ду -
j e
фабри ка</w>
мор ские</w>
ита лию</w>
тю мен
хими ческой</w>
профессиональ ных</w>
ак цен
точ ный</w>
лет нее</w>
оста валась</w>
ли зма</w>
механи зирован
избира телей</w>
га л</w>
ви дами</w>
эк спор
х то
ло к
ту лу
серебр о</w>
га ван
би е</w>
ба ва
at a</w>
ка бе
виде окли
сти ли
окраи не</w>
консер вато
play station</w>
шен ный</w>
откры того</w>
джей мса</w>
стату се</w>
маги стра</w>
184 2</w>
сме н</w>
ника кого</w>
ре форм</w>
актив ной</w>
та кую</w>
перен ес
за цией</w>
« ура
региональ ных</w>
сти ра
каса ется</w>
исследова тель</w>
социалисти ческой</w>
мест ным</w>
ба га
юни оров</w>
де лению</w>
выпол нил</w>
а ран
покрови телем</w>
сту дия</w>
ресто ра
португа ль
на казания</w>
комен дан
ото з
ван ную</w>
до пу
ано н
пы ток</w>
до наль
говори тся</w>
выз вал</w>
u g
раз ными</w>
же ст
анд ро
се гмен
откры тым</w>
ar e</w>
эк ва
мур ман
1 .0
прави телем</w>
мо ско
сбор ных</w>
зарубе жных</w>
фе до
десяти летия</w>
писа в</w>
бук вы</w>
отве тил</w>
опу хо
алма -а
явля ясь</w>
б ха
говори ли</w>
смыс л</w>
r a</w>
185 4</w>
яв но</w>
оз ё
излу чения</w>
1 10
отря дов</w>
искус ство
си льный</w>
бер н
« но
фак торов</w>
к ко</w>
b re
тор мо
обсер ватории</w>
уз лов</w>
р ной</w>
« f
бело русский</w>
изобра жа
га з</w>
завод ов</w>
ию нь</w>
о во
ко вом</w>
уда ра</w>
ру же
ин нова
за писан</w>
вариан тов</w>
револю ционной</w>
нави га
друз ья</w>
de l
оста ются</w>
тив ную</w>
спортив ный</w>
пес не</w>
канце ля
тури стов</w>
образ а</w>
in ae</w>
жа х</w>
ба лет
ю ар</w>
эксплу а
ука зани
в шуюся</w>
т ка
крупней шим</w>
ма д
символизи рует</w>
д нём</w>
фа са
тан к</w>
у те
жда ть</w>
« су
поезд ки</w>
же к</w>
е мом</w>
проек том</w>
свидетель ствует</w>
0 /
присут ствии</w>
пи на</w>
европе йский</w>
исполня ет</w>
у ще
посе щал</w>
автомоби ли</w>
глу бин
ад ы
жда л</w>
тер мо
с п</w>
вед ении</w>
про хождения</w>
ве са</w>
ст ских</w>
вопро су</w>
побе дой</w>
ща ла</w>
пере стро
о владе
метрополи тена</w>
разде л</w>
на имен
и лли
выпущен ы</w>
1 1-
многи м</w>
съё мок</w>
i dae</w>
дми тро
учи тель</w>
ци то
се ра
сня лся</w>
принадлежа ла</w>
ни т</w>
ству я</w>
ли то
ди е</w>
га ла
впечат ление</w>
те та</w>
заня лся</w>
тор гово
сво е</w>
по началу</w>
s an
бере гов</w>
ме да</w>
тя х</w>
пу р</w>
мер т
апре ль</w>
нен ави
7 -го</w>
ос ново
немец ко-
1 1.
вели кая</w>
учени к</w>
се те
хокке ю</w>
постро енный</w>
за кавказ
щен ко</w>
точ ная</w>
осуществ ляет</w>
ду ши</w>
деревян ная</w>
опас ности</w>
ли ем</w>
ата ку
ch an
последова тельно</w>
вар ьи
3 »</w>
ка кой</w>
ме к
публика ций</w>
вели ким</w>
d ra
с бли
юрис дик
дет ского</w>
тирован ы</w>
разви вается</w>
помощ ника</w>
ок ла
литератур ного</w>
собствен ное</w>
ка и
прода ж</w>
участ ков</w>
мино мё
сино да</w>
под писан</w>
ко ве
ди ско
др ю</w>
зна коми
доцен т</w>
awar ds</w>
современ ная</w>
шири ны</w>
биз нес
при хо
культур ных</w>
серебря ным</w>
разно гла
от цу</w>
промышлен ного</w>
c er
ка р</w>
авиа ционный</w>
дю с
юго- западной</w>
посе лен
био логии</w>
случа и</w>
анг ло-
« ла
ид ти</w>
ран ние</w>
ж ана</w>
зву к</w>
т то</w>
скульп туры</w>
руковод я
дне пр</w>
t re
дву м</w>
гу н</w>
си ти»</w>
обще ством</w>
фор т</w>
пользова телей</w>
в р</w>
узбе кистана</w>
реа ги
н рав
обо зрева
водо ё
я ну
си дя
наличи и</w>
хот ь</w>
огром ное</w>
убе жи
влад ений</w>
st ri
пациен тов</w>
дав лением</w>
ви й</w>
каждо е</w>
вин тов
сосед них</w>
ем ле
ак т</w>
каки х
изде лия</w>
против ников</w>
во зи
ар тур</w>
продол жить</w>
́ евич</w>
при ори
ре гла
чёр ные</w>
ни ка»</w>
месторо ждения</w>
зи ровать</w>
по дар
13 0
само к</w>
от ступа
ку ля
скан дина
и а
сезо н
мусуль ман</w>
sp e
ни ях</w>
к т</w>
верши не</w>
тель ству</w>
ви »</w>
интер нет</w>
стро го</w>
спи ра
ограни чения</w>
д ё
раз ло
с ну
крей сер</w>
армян ской</w>
стрель бы</w>
k s</w>
сер ь
па тру
де пор
чи слом</w>
то вым</w>
зна ки</w>
пропаган ди
форма ции</w>
боле ль
су дей</w>
освобо ждение</w>
о по
основа телем</w>
вра ча</w>
марша ла</w>
то ном</w>
« та
amer ic
остан ки</w>
природ ных</w>
183 4</w>
па м</w>
приобре ла</w>
еха ли</w>
дета ли</w>
матиче ских</w>
чер ка
танко вого</w>
пер мского</w>
сделан о</w>
покину ли</w>
лен ко</w>
сами м</w>
приня ты</w>
ан у</w>
e -
гитари ст</w>
ак ционер
bo x</w>
коне чно</w>
танце ва
вши мися</w>
ше стой</w>
участ никами</w>
голо вой</w>
ne t</w>
b en
темпера туре</w>
сторон ники</w>
д зер
k a</w>
цвет ки</w>
разгро ми
драго цен
ф ана</w>
мест у</w>
во лод
стан цией</w>
прав у</w>
жен у</w>
ад ри
дра мы</w>
спо ры</w>
хи м
показа н</w>
ло гом</w>
ли с</w>
тур ке
подготов ка</w>
ма кро
da y</w>
пыта ясь</w>
не прави
ответствен ности</w>
консу льта
золо тых</w>
хо рео
скор б
а г
чё в</w>
наз ваны</w>
музы кой</w>
ме та</w>
тра пе
мета лла</w>
по сти
не достаточно</w>
ан тон</w>
уч ение</w>
на гре
мла ден
нало го
ду н
называ емые</w>
не а
дже к</w>
веду щим</w>
уго л</w>
ло ги</w>
встре чает</w>
всемир ной</w>
северо- западной</w>
да вид</w>
бур гун
посвя щена</w>
пере дней</w>
жи лой</w>
ген е</w>
полу чение</w>
элиза бет</w>
мен ко</w>
кня ги
па виль
архи е
крыль ев</w>
гру ди</w>
созда ёт</w>
собы тиях</w>
компози ций</w>
г ка</w>
стать ю</w>
ша ри
за бы
d ar
ща лась</w>
обще ств</w>
за мы
тель ской</w>
вы ру
ры бин
олимпи ады</w>
обита ют</w>
18 31</w>
ман ьч
ско тт</w>
лос-анджеле с</w>
ж ья</w>
город ке</w>
с ский</w>
рекомен ду
бер нар
академи ка</w>
сле жи
лей б-
ж ников</w>
проводи лся</w>
оркестро м</w>
владель ца</w>
завед ений</w>
мей стер</w>
эпизод е</w>
саратов ской</w>
v an
бар ба
бок с
то ро
съ е
вы ходят</w>
д ря
e p</w>
деся тки</w>
c ent
з вер
ствен но-
ск »</w>
пре ссии</w>
ха »</w>
дре веси
и ду
варшав е</w>
ма тро
колле джа</w>
январ ь</w>
нау ке</w>
испан ской</w>
то »</w>
по ку
12 5</w>
бассей ны</w>
сул тан</w>
в ведена</w>
выда ющиеся</w>
внезап но</w>
свобод но</w>
за байкаль
компен са
« ме
ж »</w>
ассо ции
ic al</w>
ва вшего</w>
гимна зию</w>
ч на</w>
ё й</w>
ше ствия</w>
b e</w>
член- корреспондент</w>
жд ением</w>
яв ление</w>
погиб ло</w>
исполни тельного</w>
вос т</w>
хи т-
шен ные</w>
раство ри
э ры</w>
княз ем</w>
образ ных</w>
пол ком</w>
кра ю</w>
сосредото чи
рей х
18 40</w>
националь ные</w>
под ходя
источ ника</w>
го ст
183 8</w>
вели ких</w>
получа ть</w>
до вич</w>
c d</w>
установ ления</w>
di e</w>
суд ья</w>
жи лые</w>
концеп ция</w>
верх него</w>
центра льных</w>
от части</w>
о го</w>
ско ро</w>
рассказ ы</w>
водя тся</w>
поли то
в ход</w>
ль и</w>
корот кий</w>
жен ских</w>
шта б
вос ста
рабо в</w>
ра у
изя щ
ту »</w>
ок та
раз у
по шёл</w>
жи р
выбо ра</w>
лю теран
возду хе</w>
создан ная</w>
кли п</w>
внутрен ние</w>
точ ке</w>
пье р</w>
трудоспособ ного</w>
ров ском</w>
ро ждение</w>
ми лан
им ение</w>
за числен</w>
гло мера
пере ди</w>
n er</w>
под но
применя ются</w>
актри сы</w>
ансамб ль</w>
тиче скими</w>
ни ей</w>
фе ли
и рина</w>
строитель ных</w>
ду х</w>
ли в</w>
присоедин ения</w>
уль тра
мин ск</w>
вдох нов
« ва
со лов
у к</w>
ле сов</w>
гео графии</w>
ха ри
оз ёр</w>
ре в</w>
собра нии</w>
об ещ
княже ство</w>
церков ной</w>
ход а
су хи
евро вид
па лом
прави теля</w>
одно имен
дума л</w>
технику м</w>
принци пы</w>
пре ссе</w>
да ра</w>
образо вании</w>
ра ци
надпис ью</w>
с про
18 14</w>
пара шю
постро ек</w>
организо вать</w>
заболе ваний</w>
у тра</w>
популяр ным</w>
аб бат
провед ении</w>
п к</w>
экономи ческий</w>
иоси ф</w>
кну л</w>
14 ,
шах мати
озву чи
ни ц
нан е
калифор нии</w>
с ли</w>
мир »</w>
получа ли</w>
«о ска
a f
о жесто
d y
сле гка</w>
пол ков</w>
ми сс</w>
ch e</w>
та р</w>
провин циаль
позволи ли</w>
г ский</w>
lo ve</w>
ла т</w>
ча сы</w>
мече ть</w>
ди ми
преми й</w>
воз ведён</w>
сан а</w>
бер ку
показа ть</w>
выска зыва
пар ном</w>
изд ании</w>
3 3
ш кин</w>
педагоги ческого</w>
по лю
коллек ция</w>
закончи лся</w>
5 5
при ход</w>
еди ного</w>
м эн
вер хо
и я</w>
джа н</w>
m en
телекана ле</w>
лод е
ри о</w>
манче стер</w>
финансо вых</w>
действу ющей</w>
куль ту
иллю стри
е вых</w>
п ёр
не большим</w>
b ri
кавказ е</w>
гви не
чен ное</w>
м ёт</w>
да вы
колле ги
9 -го</w>
с клады
ков ское</w>
воспи та
сохрани лся</w>
ф »</w>
ис прав
счита лось</w>
сла бо</w>
распреде ление</w>
государствен ное</w>
таль ная</w>
лу ны</w>
вы двига
периоди чески</w>
олимпиа де</w>
не ром</w>
рас ста
ль ность</w>
двига телем</w>
под водных</w>
учиты вая</w>
дмитри евич</w>
бе ля
́ р</w>
убий стве</w>
включа л</w>
ё нок</w>
совет ским</w>
осно вание</w>
проте ка
поня ть</w>
га бри
кни гах</w>
спектак ль</w>
дипло м</w>
физи ческих</w>
ро вой</w>
е мости</w>
оста вались</w>
ка то</w>
и дут</w>
культур ной</w>
сла н</w>
корпу се</w>
три я</w>
взгля ды</w>
гре ческих</w>
рус ско
за писей</w>
бук в</w>
в ход
уби ты</w>
втор жения</w>
пере вода</w>
переда че</w>
ён ному</w>
мону мен
вы бран
сена та</w>
полномо чий</w>
се строй</w>
миро вых</w>
фила дель
поддер жал</w>
слу жения</w>
узбе ки
север ную</w>
сня ть</w>
узна ёт</w>
сигна л</w>
н ских</w>
окрас ка</w>
заяви ла</w>
пожа ра</w>
филосо фи
ти м</w>
длин ные</w>
бизне с-
i —
собы тие</w>
ги л
дела ют</w>
реш ё
иль я</w>
боль ница</w>
атле ти
усадь ба</w>
вы дер
вре мен</w>
конструк цию</w>
гну т</w>
табли це</w>
важ но</w>
тиро вали</w>
при соединя
он у</w>
геро и
исто к</w>
ня м</w>
эффектив ность</w>
музыка льное</w>
имуще ство</w>
называ ются</w>
ва емые</w>
ша ла</w>
бал ла
за пусти
го сте
пар у</w>
b or
черно мор
мин ской</w>
ло р</w>
при вя
у гло
просве ти
ви лен
работа ми</w>
e lec
о з</w>
компози торов</w>
и дет</w>
ри -
олимпи йский</w>
ос мо
выс шая</w>
ро ванием</w>
ме стами</w>
иска ть</w>
. com</w>
пригла сил</w>
ха я</w>
распоря жение</w>
пользо вался</w>
му ся</w>
сцен у</w>
девя ти</w>
приговор ён</w>
во льной</w>
хи я</w>
9 0-х</w>
у длин
подо зре
расшир ение</w>
националь ное</w>
вы воду</w>
силь ное</w>
особен ностей</w>
ленингра да</w>
до стой
дисло ци
административ ных</w>
правитель ству</w>
ко р</w>
194 1—
шта тах</w>
formula_ 3</w>
почто вых</w>
моди фика
д ском</w>
ко реи</w>
футболь ного</w>
пла ти
с пло
t y</w>
ор ле
персона жи</w>
ra di
посвящ ён</w>
объяв лен</w>
eu ro
орг ана</w>
зн аний</w>
и да</w>
ду ю</w>
ti me</w>
попыт ке</w>
сан-франци ско</w>
поддерж ка</w>
инжен ера</w>
крае вед
се кто
инду стрии</w>
тру ди
судь и</w>
наро до
ли п
самы ми</w>
от мени
бур жу
о провер
вид но</w>
психи атри
к са
te le
вступ ления</w>
хол дин
л ля
за боло
серьёз но</w>
ле ром</w>
заби в</w>
си т</w>
с бор</w>
о лог</w>
сбор ника</w>
мифо логии</w>
ла п
кав каза</w>
положи тельные</w>
косми ческих</w>
вещ ание</w>
маши н
поис ка</w>
совершен но
подчёр ки
откры ты</w>
ле м
раун д</w>
реда ктора</w>
посвя щены</w>
в ло
солн це</w>
созн ание</w>
полу фина
обнару жено</w>
ев ская</w>
защи щать</w>
ка фе</w>
« ку
собира ется</w>
пос л
бо ну
работа я</w>
wa y</w>
17 0</w>
уголов ного</w>
с- ай
тбили си</w>
ба у
био графии</w>
4 6
лё ку</w>
м эй
раз ное</w>
защи та</w>
библиоте ке</w>
c a</w>
ве т</w>
учё ного</w>
у воль
моди фикации</w>
да л
рязан ской</w>
умень ши
северо- восточной</w>
на дея
источ никам</w>
и ор
та ций</w>
выра жение</w>
сли яния</w>
ко ми</w>
ниче ство</w>
систе мах</w>
се ба
пре ссо
пада ют</w>
резо лю
фё доров
млад ше</w>
столи ца</w>
китай ский</w>
пропа ганд
ин ский</w>
́ т</w>
логи ческая</w>
совет ском</w>
значи тельных</w>
пол ную</w>
ме лко
доро гой</w>
вин ского</w>
ал ге
« по</w>
па л
административно-территориаль ная</w>
окончи в</w>
истори ки</w>
уд мур
оста ется</w>
прось бе</w>
ли к</w>
архите ктором</w>
ре ктор</w>
машиност ро
ссы ла
пере прави
ги бри
теле ско
под креп
специали сты</w>
185 3</w>
15— 64</w>
ху ан</w>
дж оном</w>
en ce</w>
джон с</w>
пру ссии</w>
ви о
- таки</w>
то во</w>
эстафе те</w>
r us
про чие</w>
бер а</w>
ко опера
n in
озер е</w>
бург ского</w>
яз ви
тома са</w>
дви жением</w>
ме тео
башкорто стан</w>
с пря
футбо л</w>
х вост</w>
автоно мной</w>
инте лли
сти на</w>
административ но</w>
собствен ным</w>
космо нав
двор цо
водос борного</w>
я ние</w>
фор си
сле ды</w>
ро ванию</w>
посе лился</w>
взгля д</w>
людови ка</w>
основан ная</w>
ча ли</w>
ве сом</w>
патриар ха</w>
проспек та</w>
красно армей
эн деми
э ги
са ду</w>
л лера</w>
луч шее</w>
инженер -
изда тельства</w>
жи н</w>
служи ли</w>
рус скими</w>
ян ь</w>
миро вом</w>
колхо з
рыбо лов
ка ба
ря дов</w>
ро жда
ли чин
эно с-ай
инжен ером</w>
нов город
а фина
на писан</w>
лео поль
д эй
прави тель</w>
обита ет</w>
лет ние</w>
вёр ну
автомоби льной</w>
тру дом</w>
против ник</w>
зе фа</w>
экономи ческие</w>
бор т</w>
сыгра в</w>
когда -то</w>
х эн
трудо вого</w>
роди ла</w>
ник -
калифор ни
выс ший</w>
с бора</w>
ан тен
фили а
се т
в ная</w>
безу спе
хар д</w>
согла сия</w>
бед ности</w>
оцен ка</w>
напря мую</w>
игро ку</w>
« w
из оли
опти ми
клу бу</w>
православ ных</w>
бас -
х т</w>
пере смо
до чере
от а</w>
обо га
во шло</w>
владе ет</w>
бу энос-ай
аспиран туру</w>
ью »</w>
сня тый</w>
не вского</w>
супру же
а бу</w>
сё ла</w>
органи зу
кризи с</w>
и д</w>
у точ
бе т
ц ска</w>
столкнов ения</w>
низ кой</w>
кли н</w>
ви ю</w>
име ющие</w>
ива новича</w>
потерпе л</w>
монго лии</w>
угро зой</w>
сул тан
серебря ные</w>
лу ис</w>
из ы
жито мир
не лега
посо л</w>
кор руп
выпуска ет</w>
си лах</w>
дж ули
ребён ком</w>
не мало</w>
от рядом</w>
дзер жин
хра бро
пен га
он то
а ля
вы бро
al e</w>
б ё
ch ar
у крепи
команд ном</w>
за ет</w>
таган ро
тра ссы</w>
опера тор</w>
двер и</w>
меня ется</w>
з доро
высо кое</w>
эк зо
во шед
« лучший</w>
социал- демокра
ск ром
граждани н</w>
лёг ких</w>
ани ме</w>
четвёр того</w>
м ³</w>
подъ ё
ро та</w>
тради ционной</w>
поддерж кой</w>
де в</w>
лю дми
казан ского</w>
арен е</w>
́ нович</w>
от о</w>
оч ки</w>
цион ными</w>
содержи тся</w>
вну к</w>
евре и</w>
вс ка</w>
рубе же</w>
нов ском</w>
мин ского</w>
э ше
фа у
со чи</w>
обо соб
схе мы</w>
встре тил</w>
повре ждения</w>
бое вого</w>
шар ло
ща ми</w>
хит- пара
з ины</w>
ди »</w>
ал »</w>
сс ан
пес чан
compan y</w>
180 2</w>
уничто жения</w>
репер туа
почё тного</w>
я бло
перевод чик</w>
хов ский</w>
интелли ген
инжен еров</w>
вели чай
направ лений</w>
за казу</w>
нов на</w>
испан ского</w>
кан ц
ш вили</w>
парти ей</w>
масса чу
у от
провед я</w>
п ения</w>
- 2</w>
' s</w>
живот новод
храни тся</w>
кам ня</w>
кри пто
ну р
истори чески</w>
млад шим</w>
непода лёку</w>
оцен кам</w>
посполи той</w>
пад ение</w>
казан о</w>
ch o
лист ка</w>
рабочи м</w>
англи йским</w>
техни ческие</w>
священ но
ни ке
крас ных</w>
дочере й</w>
ва х
бакалав ра</w>
ор на
вед ётся</w>
экономи ке</w>
швед ский</w>
п э
кандида том</w>
са ра</w>
л ком</w>
бы стре
10 5</w>
клад ки</w>
жи х</w>
примы кает</w>
4 0-
сум ме</w>
гер це
бран ден
бела руси</w>
дан ными</w>
вок зал</w>
симво лов</w>
воз действия</w>
нидерланд ы</w>
написан ная</w>
кров ь</w>
провин ций</w>
перен оси
пу ше
возник новения</w>
му ха
du c
успе хов</w>
тов ский</w>
сни жение</w>
лондо на</w>
ди стри
« мы</w>
сти пен
д .
внеш ний</w>
х аль
о щ
li ve</w>
чи »</w>
тради ционных</w>
священ ной</w>
ть я</w>
со -
круп ными</w>
1, 2</w>
си льные</w>
попе чи
со ль</w>
экспеди ция</w>
сул тана</w>
пара метры</w>
спор ту</w>
m is
занима ла</w>
u x</w>
тра ссе</w>
сто на</w>
чт ения</w>
ен ными</w>
uni vers
ье »</w>
на зывать</w>
широ кую</w>
ре конструи
в ведён</w>
против ником</w>
крити ка</w>
р с
поль ская</w>
ван ном</w>
би ат
3- я</w>
ти ку</w>
ня ть</w>
стои мости</w>
криста лли
ве совой</w>
хра мов</w>
w er
часов ня</w>
к ли</w>
взры ва</w>
под полковник</w>
f a
фи н</w>
но вей
пира ми
тя ги
националь ности</w>
г лин
« ри
па ли
дол ю</w>
двига тели</w>
всесоюз ной</w>
корпора ции</w>
фо ку
пластин ки</w>
состоя щий</w>
люби телей</w>
киев ский</w>
п ья
корот кие</w>
ва сса
чер той</w>
телекана ла</w>
спис ку</w>
ле ду
ки ше
v ic
регистра ции</w>
вероя т
комбина т</w>
8 -го</w>
ноя брь</w>
институ том</w>
произ раста
« история</w>
джован ни</w>
де ление</w>
вой ной</w>
воспомин ания</w>
сигна ла</w>
род ным</w>
коротко метра
се ктора</w>
рио -де-
вы мышлен
и п
возду х</w>
актив ным</w>
адрес у</w>
продолжа ла</w>
заме тил</w>
y or
нес ко</w>
кур сов</w>
из ъя
предме том</w>
индоне зии</w>
су ды</w>
постав лен</w>
ле ви
с лан
су ри
степен ью</w>
эфи р</w>
особы х</w>
ан тар
184 7</w>
шен ной</w>
предполага ет</w>
п шени
b at
контрак та</w>
бронзо вым</w>
та у
с фе
но чной</w>
лени я»</w>
велико леп
принце сса</w>
рассматри вается</w>
сре ди
малень кий</w>
4 »</w>
ч ками</w>
ни чь
объяви ли</w>
еписко п
относи лась</w>
де лом</w>
стра дал</w>
соб люд
геро изм</w>
препода ватель
183 7</w>
перво май
да ты</w>
дивизи й</w>
собствен ность</w>
« ш
15 ,
тимо фе
теа тров</w>
ру ющие</w>
ирку т
струк тур</w>
дополни тельно</w>
дивизи ю</w>
благо ве
пол ковод
то п-
рован ное</w>
ха х</w>
от ча
плоско сти</w>
агент ство</w>
зи ей</w>
фор а</w>
деся тин</w>
го вая</w>
дости жение</w>
185 1</w>
бо н</w>
швед ской</w>
филь м»</w>
аппара тов</w>
сою зом</w>
религиоз ной</w>
ing s</w>
запад ную</w>
выполня л</w>
8 0-х</w>
созд анием</w>
на пар
млекопита ющих</w>
вен ство</w>
функ цию</w>
россий ским</w>
компьютер ных</w>
учени ком</w>
производ ством</w>
де ва</w>
в стро
ха та</w>
ревизи и</w>
близ лежа
у ин
т ком</w>
пред поло
примы ка
возник ли</w>
а фин
ти пом</w>
жиз нью</w>
ссо м</w>
абсолю тно</w>
мед ленно</w>
ac e</w>
стади она</w>
закры тия</w>
со фии</w>
при ми
олимпи йские</w>
мо ли
вступи ла</w>
в юр
ша »</w>
серь ез
на т</w>
р ский</w>
путеше ствия</w>
парти йной</w>
ко ста
бер лина</w>
у бы
свя то-
« h
полу острове</w>
по садо
измени ть</w>
4- м</w>
зна ть</w>
эфи ре</w>
у л
де в
па н</w>
ма ро
виль ню
« k
по по
тов ского</w>
студи ю</w>
чув ства</w>
проти вод
москов ских</w>
выпусти ли</w>
ч »</w>
су вер
су дом</w>
раз бира
произ веден</w>
глав ными</w>
обнару жен</w>
не органи
же лая</w>
установи ли</w>
мы ше
в э
киши нё
изд аниях</w>
ч ж
п нев
фир ма</w>
постоян ным</w>
при вет
выя сня
я л
си на</w>
равно мер
при вер
преем ником</w>
бен еди
форма т</w>
находя т</w>
u -
ра ду
экра не</w>
мон реа
г лю
цве то
фи оле
доне цкой</w>
ф ле
организа торов</w>
реали зу
под ра
важ ные</w>
дирижё р</w>
по бо
не ров</w>
до ло
184 6</w>
поме щении</w>
пере шел</w>
ми ны</w>
и сте
дальней шего</w>
зам кну
внес ён</w>
пере веден</w>
здоров ье</w>
19 -
озна мено
логи чески</w>
продолжа ется</w>
i »</w>
от кров
пле мён</w>
стал ки
со т</w>
галак тика</w>
авиа компании</w>
хо тели</w>
рим ля
нов у</w>
иг ру
сред ствами</w>
еги пет</w>
го ф
шу ль
оби тания</w>
механи ки</w>
тури зма</w>
.r u</w>
щен ных</w>
собра ть</w>
при ём</w>
охва ты
ли ка</w>
эта же</w>
у со
та ин
заме ча
установ лении</w>
оде ссе</w>
б ины</w>
француз ские</w>
кру гло
пред положение</w>
доступ ны</w>
c lu
вра чей</w>
низ ко
да ло</w>
баро на</w>
аль фон
ционе ров</w>
уг лу</w>
верх нем</w>
раз ворачи
обяза тельно</w>
воро ши
бере гах</w>
травя ни
суд я</w>
иоган н</w>
сопер ника</w>
за лож
резо нан
глубо ко</w>
анд ре</w>
техни ческим</w>
эк раны</w>
кру ж
ер е</w>
18 13</w>
враж деб
величи ны</w>
мест ными</w>
маршру ты</w>
де тям</w>
доку мент</w>
перебра лся</w>
город ка</w>
зу и
расс казал</w>
низ мен
еха ла</w>
та лли
си к
ремон та</w>
ричар да</w>
прекра тил</w>
лист ьев</w>
графи ческие</w>
владель цев</w>
фран че
свобод ной</w>
гу т</w>
машиност рои
сформиро ван</w>
ра циональ
s co
ч ани
спис ка</w>
воевод ства</w>
последователь ности</w>
ошиб ки</w>
16 ,
ке вич</w>
катастро фы</w>
име лись</w>
гру зов</w>
17 ,
ла с</w>
аэрод ром</w>
в л
се лу</w>
со жа
и сс
образ цы</w>
закры та</w>
предыду щего</w>
лет нюю</w>
обстоя тель
н ским</w>
тан ки</w>
пос мо
выясни лось</w>
ь о</w>
у год
об ряд
свой ств</w>
но н</w>
ти пу</w>
жени ям</w>
северо- восток</w>
поз н
китай ского</w>
vo l
оз ёр
r it
гор ский</w>
st ar</w>
стре мя
g -
отли чался</w>
правос ла
зам ке</w>
увеличи ть</w>
обнару жили</w>
друго му</w>
бе зы
s en
ров на</w>
183 9</w>
катало га»</w>
эффектив ности</w>
шо к</w>
ту ман
средневе ков
указан о</w>
пери фер
184 4</w>
род ных</w>
дета лей</w>
раз верну
божи ей</w>
цар ство</w>
стро ение</w>
александ ри
ка ра</w>
a .</w>
о зе
сюр -
беспо ряд
us e</w>
6 0-
над писи</w>
k »</w>
сынов ья</w>
состоя ли</w>
х ну
камен ный</w>
австра лия</w>
строитель ству</w>
сани тар
ба ха</w>
золо том</w>
част ные</w>
а ́
откры тых</w>
цен тру</w>
л с
а пол
7, 5</w>
то нов</w>
р эй
гу ль
в в
за дней</w>
ти рована</w>
л эн
добы чи</w>
автоматиче ски</w>
зна м
ск ле
п »</w>
огром ный</w>
te n</w>
сти в</w>
фра г
« с</w>
чер кас
о хо
важ ное</w>
ш ной</w>
сере бра</w>
при це
раз реша
призн ания</w>
прода жу</w>
дальней шее</w>
са удо
эм бле
- па
киносту дии</w>
противоре чи
мэ ра</w>
юж ную</w>
се ление</w>
пла то</w>
комму на
театра льный</w>
нов ан
гре ко-
по год
ва вшись</w>
ба б
ж ание</w>
гра ви
древ ние</w>
сред ство</w>
разо ча
ва мпи
c as
про двига
у ме</w>
во ри
компози цию</w>
действо вала</w>
поис ки</w>
«спартак »</w>
про чего</w>
железнодорож ный</w>
ста ци
латин ской</w>
184 5</w>
переда ча</w>
пон рави
возмож ностей</w>
я щихся</w>
мар тина</w>
показан о</w>
« это</w>
де ш</w>
воз ло
ча м</w>
и т
выгля дит</w>
вер мах
характер но</w>
роди телями</w>
поги ба
кри с</w>
пере води
ству ющие</w>
но р</w>
кладби ща</w>
социаль ные</w>
монографи й</w>
3 9
инте гри
эта пов</w>
эн то
комбина та</w>
артиллери йской</w>
w o
противод ей
g le</w>
проводя т</w>
179 6</w>
расположен ные</w>
культур но-
зи мо
снаб жения</w>
де мобилизо
наполе она</w>
за вя
us d</w>
тив ши
маль чик</w>
c ro
за ново</w>
скульп тор</w>
реб ёнок</w>
ю неско</w>
само му</w>
кири л
18 26</w>
1 200</w>
соору жение</w>
знамени тый</w>
слу ши
три н</w>
православ ный</w>
ле́ ние</w>
ко ко
поя са</w>
обвин ению</w>
элли п
гу »</w>
слова кии</w>
свет ло-
проез д</w>
вспомина л</w>
ва емый</w>
би блей
жа ются</w>
ги х</w>
ши но</w>
не кро
брон енос
преимуще ство</w>
пи рене
замени л</w>
ли тур
ш па
по чи
сдела н</w>
це зар
показыва ют</w>
па рус
за су
фами лию</w>
ос а</w>
lin e</w>
патриар х</w>
ди ло</w>
в цик</w>
финансо вой</w>
осен и</w>
« сер
при вез
дер и
кар т
га лли
г вая</w>
r y
жиз не
буду щее</w>
императри цы</w>
ва ре
дра ма</w>
ав стрия</w>
франк фур
рим ско-
мя ча</w>
вынужд ена</w>
рекор д
лич ном</w>
ие зуи
цели ком</w>
пере бро
любо м</w>
за ведения</w>
з оди
b a</w>
поддержи вать</w>
горо дами</w>
бе жа
язы ками</w>
про бу
n ic
успеш ным</w>
ле он</w>
кора бе
амстер да
расследо вание</w>
запре т</w>
ап те
прави лам</w>
каби нет</w>
« как</w>
и ные</w>
вар д</w>
со сло
l ar
футболи ста</w>
про ры
com p
оне ров</w>
ре кой</w>
литератур ных</w>
в хода</w>
p ic
от сы
у а
с най
транспор тных</w>
раст ёт</w>
по ход
поверх ност
миннесо та</w>
коали ции</w>
r ic
ь я»</w>
б ени
ма лы
ше ва</w>
ре ю</w>
дне вно</w>
сло вен
вне др
реаль ности</w>
« ф
выде лены</w>
ран ней</w>
по просил</w>
ко й»</w>
ви ло</w>
сум мар
ды х
победи ла</w>
пере чис
тяжё лых</w>
име лось</w>
l s</w>
ге ля</w>
ев ское</w>
объё ма</w>
хими ческого</w>
откры ть</w>
о й
иису са</w>
возник ло</w>
педагоги ческий</w>
охра не</w>
каких -либо</w>
вока л</w>
бюдже та</w>
сро ком</w>
ирты ша</w>
жан ей
6 8
вол ги</w>
узна л</w>
re d</w>
елизаве та</w>
поис к</w>
с жи
популяр ностью</w>
церемо ния</w>
от клон
сража лся</w>
ха у
подтвер дил</w>
откры ли</w>
скон чалась</w>
ги р
выполнен ы</w>
по вер
ди но
ш ор
точ кой</w>
офицер ы</w>
написан о</w>
мест ное</w>
аргу мен
выс шие</w>
спортсмен ы</w>
мар га
коммен тари
лён ной</w>
сыгра ли</w>
пи щи</w>
нов ская</w>
чи сто</w>
че р</w>
наста и
оста ваться</w>
н ь»</w>
голу бой</w>
ар но
сте б
раз да
независи мых</w>
o t
организо вы
tr an
проте ста</w>
промышлен ной</w>
опер а</w>
хода тай
сси ю</w>
соба к</w>
общ ину</w>
колхо зе</w>
крас ное</w>
значи тельным</w>
тира жом</w>
4- е</w>
« лу
еже дневно</w>
гу ан
у праж
гри гория</w>
анти о
4 7
двух эта
вод ах</w>
бан кно
p lan
со бор
массо вых</w>
чудо твор
пен силь
фор да</w>
актив ный</w>
руко писи</w>
ст р
по кор
искус стве</w>
ма лые</w>
привер жен
от клады
болез нь</w>
викто рия</w>
актё ром</w>
спол кома</w>
18 17</w>
посе лении</w>
занима ли</w>
за о</w>
создан ной</w>
мюнхен е</w>
кавалери и</w>
сбор ные</w>
же ли</w>
уро ки</w>
кана лов</w>
право вой</w>
ло сти</w>
гастро ли
современ ным</w>
независи мой</w>
183 2</w>
образ цов</w>
тан цо
нос цев</w>
и ро
га гари
в нёс</w>
19 —
ву д</w>
язы чных</w>
гон ках</w>
чу де
концер та</w>
дворя н</w>
ко ра</w>
официаль ные</w>
масте ром</w>
u e</w>
ч ников</w>
годо вой</w>
вариан та</w>
пробле мам</w>
жи е</w>
учи телей</w>
берё зо
энциклопе ди
ко вое</w>
тиро вания</w>
с вар
рен т
уров ней</w>
рио-де- жаней
сла ву</w>
ре зан
про стых</w>
соответству ющих</w>
отме чен</w>
враже ских</w>
ба вар
ту рок</w>
город ским</w>
ш не
называ емой</w>
на коп
ю лия</w>
штра ф
183 5</w>
ц кие</w>
торго вые</w>
дела ми</w>
гра фин
колон ны</w>
алгорит м</w>
ск -
выс шем</w>
насчиты вается</w>
тр »</w>
популя ри
экс -
реш ении</w>
заверши ть</w>
эн ь</w>
ющ у
ско го»</w>
выигра ли</w>
ти ям</w>
не движи
3 2
lo o
февра ль</w>
де м</w>
выпол нен</w>
воору жении</w>
юго- восток</w>
цеп и</w>
со тен</w>
прин ёс</w>
носи ла</w>
схе ма</w>
среди зем
тро фе
произо шли</w>
и бо</w>
физи ческого</w>
ком -
македо нии</w>
но г</w>
i -
косми ческого</w>
серебря ной</w>
происходи ло</w>
мор ф
двадца ти</w>
сан а
преследо вания</w>
ду гла
площад ки</w>
слу хи</w>
рон то</w>
действи тельный</w>
бежен цев</w>
сою зов</w>
обы чных</w>
актив ную</w>
то сти</w>
прото ие
лейб лом</w>
многочислен ными</w>
но м»</w>
у й
эн н</w>
уда ров</w>
ло та
брать ями</w>
l t
ша н</w>
ста били
ров кой</w>
ль ских</w>
183 6</w>
сан ти
пти ца</w>
круп но
водохранили ще</w>
сочет ание</w>
расстоя ния</w>
ся т</w>
по прав
вер -
нача то</w>
w .
опера циях</w>
че ч
ни е
унаследо вал</w>
подроб но</w>
ко да</w>
p ub
то вич</w>
похорон ена</w>
пет р</w>
косми ческой</w>
дости чь</w>
бизне с</w>
yo ut
ордина р
воз несен
величи не</w>
форму лой</w>
конгре сс</w>
«оска р»</w>
зани й</w>
хер со
ля лись</w>
ро ка</w>
венг рия</w>
k ing</w>
суб бо
и ли
разработан ы</w>
се ссии</w>
зелё ные</w>
производи т</w>
от бы
выполня ет</w>
ub e</w>
мекси ке</w>
есте ственных</w>
церков но-
организо вана</w>
не большого</w>
литера тура</w>
про шел</w>
подгото вил</w>
эри к</w>
систе матиче
северо- запад</w>
послед нюю</w>
коль це
18 28</w>
рио-де-жаней ро</w>
ли лась</w>
стани слава</w>
рас пу
ке ме
вос принима
хо р</w>
й ные</w>
про й
му дро
набра в</w>
какой- то</w>
пол ная</w>
жен скую</w>
те с
т ры</w>
дивизи ей</w>
истори ков</w>
вери ть</w>
по ощ
на ём
деву шек</w>
реак ция</w>
логи ческом</w>
« кар
0 1</w>
у о
ка ка
18 15</w>
физи ологи
про ко
констру ктор
экономи ка</w>
сти ли</w>
д рей
пото ка</w>
экспо на
те зи
ли ны</w>
ущер б</w>
турк мен
на зывал</w>
га ра
ан е
отказыва ется</w>
смо три
разде ла</w>
п л</w>
граф стве</w>
запа сы</w>
пере сы
u p
посе ле́ние</w>
по жизнен
кор ни</w>
ш риф
прекра тить</w>
му т</w>
180 5</w>
це во</w>
с ской</w>
с д
случа ю</w>
территори ях</w>
вер у</w>
гор но-
распреде ления</w>
на правил</w>
зна ков</w>
статисти ки</w>
квадра тных</w>
гу ста
прин ципа
министер стве</w>
соответству ющие</w>
кп( б</w>
железнодорож ных</w>
у к
кали бра</w>
хо ль
друз ьями</w>
ско е»</w>
короле вский</w>
быстре е</w>
а трибу
же р</w>
отсут ствием</w>
бун де
м- то</w>
смен у</w>
дела х</w>
пав ло
заключ ённых</w>
церков ных</w>
выде лить</w>
повтор но</w>
обнаружи вает</w>
в ным</w>
серб ской</w>
отра жает</w>
клю ч</w>
сте ром</w>
показа тели</w>
ро -
ку би
со зна
ку муля
кораб ле</w>
домаш него</w>
« ки
тяжё лые</w>
охва тывает</w>
заклю чение</w>
башкорто стана</w>
а я
китай ских</w>
жёл тый</w>
в ведение</w>
ст ный</w>
ри туа
хе н</w>
управля ть</w>
обществен ности</w>
органи зма</w>
на ва
заво ё
н ка</w>
ле вые</w>
вяче слав</w>
схе ме</w>
ар тери
ша г</w>
воздуш ного</w>
слож ные</w>
корреспонден том</w>
у сы
по хва
кы р
бос нии</w>
пле мена</w>
па роди
во за</w>
ph i
сро ки</w>
близ ко</w>
максима льно</w>
до ходов</w>
ду »</w>
ини ции
бы вшим</w>
жиз ни»</w>
ж ному</w>
позволи л</w>
за ранее</w>
одер жа
заклю чении</w>
эваку ации</w>
находя щихся</w>
мои се
вещ ания</w>
актив ного</w>
ti mes</w>
радио станции</w>
l ic
18 25</w>
це ха</w>
за держа
теха с</w>
истори ка</w>
нор мы</w>
нью-йор ка</w>
вариан те</w>
образцо вое</w>
пример ы</w>
голо ве</w>
я л</w>
си ле</w>
дости гли</w>
пехот ного</w>
до мом</w>
ш ос
3 60</w>
фер мен
маль чика</w>
бург -
е горо
ш ского</w>
к ском</w>
кре стом</w>
криста л
бра л</w>
у ло
за действо
харь ковской</w>
г к</w>
внеш них</w>
бл эк
граждан е</w>
w al
це »</w>
тив ными</w>
ни в</w>
тр ю
само ход
производи телей</w>
по ду
люби л</w>
знамени того</w>
1- е</w>
музыка льная</w>
буду щей</w>
ви но</w>
18 ,
приглаш ён</w>
подоб ный</w>
« вол
расследо вания</w>
купи ть</w>
ти р
лан дию</w>
кг б</w>
ран ения</w>
итальян ских</w>
юго- запад</w>
про ни
духов ную</w>
bla ck</w>
ch a
ор ловской</w>
воору женных</w>
хи лл</w>
таль ное</w>
проигра ла</w>
класси фици
1 13
представи ть</w>
учеб но-
г т</w>
марок ко</w>
кавказ ского</w>
возглавля ет</w>
бронзо вые</w>
улуч шения</w>
ющу юся</w>
дви жу
архе оло
се тей</w>
разру шения</w>
пригово р</w>
с формули
надца ти
исполни ла</w>
запад ные</w>
представ лено</w>
протяжён ность</w>
за стройки</w>
кварти ре</w>
гну ть</w>
телекана л</w>
стен е</w>
ра ко
себа ст
мер ного</w>
исход я</w>
не известна</w>
ви лл</w>
располо жи
ли ди
ансамб ля</w>
раз дра
музыка льном</w>
ре конструкция</w>
ро вых</w>
леген да</w>
восточ ную</w>
эскад ры</w>
хель син
ско й»</w>
влади ми
пыта ются</w>
пере ворота</w>
четвер о</w>
сти ческую</w>
с горе
ком пи
казан ской</w>
го вые</w>
я ни
лу и
ку р</w>
ду ха</w>
l d
па ла</w>
п фаль
10 0-
джон ни</w>
ветера нов</w>
о ти
на но
ши ре</w>
старо обряд
кла ссы</w>
z z
нен ского</w>
лан ы</w>
вс кры
поступа ет</w>
орг анами</w>
болез ней</w>
184 1</w>
17 —
санкт-петербург ского</w>
изобра жён</w>
возвышен ности</w>
5 :
народ ные</w>
фран си
желе за</w>
повстан цев</w>
образ ец</w>
вероя тность</w>
ле я</w>
вра щения</w>
продолжа ть</w>
оруди е</w>
москов ское</w>
профессиональ ном</w>
аре ал</w>
юриди ческий</w>
стер и
любо е</w>
si a</w>
194 0-х</w>
оста валось</w>
лен ты</w>
s ci
про ви
переда чу</w>
го стей</w>
formula_ 4</w>
израи ле</w>
к сен
раз влека
ка ло
ден е</w>
четвёр той</w>
под москов
при год
вооруж ённые</w>
184 3</w>
разде лена</w>
услови ям</w>
логи ческое</w>
егип те</w>
вита лий</w>
испол кома</w>
де кре
реставра ции</w>
по рази
ве сен
м бер
рису нок</w>
насчиты вает</w>
ма л</w>
старо му</w>
спортив ного</w>
монар хи
доро го
служ б</w>
заверши лся</w>
восточ но
филип пи
участ ках</w>
наде жды</w>
лу ка</w>
каж дую</w>
из гото
цилин дри
посы ла
комплек то
10 1</w>
про ду
ступен и</w>
за гру
джер си</w>
дж ин
дви жению</w>
сцен а</w>
чув ство</w>
ба м</w>
студен ты</w>
сод руже
дэ вида</w>
синте за</w>
сдела ла</w>
пред ан
живо тные</w>
аб стра
te l</w>
юби лей
ro ll
саль ва
древ ности</w>
co un
т я</w>
побы вал</w>
е мость</w>
попу ляции</w>
литера туро
gen er
щ ённых</w>
тив но-
ру »</w>
пол ки</w>
зали ве</w>
петербур г</w>
ди но</w>
хле бо
общи не</w>
афина х</w>
пор ту</w>
кро ви
торго вый</w>
стри т</w>
вод ов</w>
ви ́
казах ской</w>
пере чень</w>
ради а
а гломера
я ть</w>
важ ной</w>
александ ру</w>
эта пах</w>
не т
зву ка</w>
присоедини лись</w>
взя ла</w>
кава лер</w>
гар мони
программиро вания</w>
яросла вской</w>
про двину
мира »</w>
те сти
ма ссу</w>
гарни зон</w>
пре ки</w>
пере ведены</w>
ма с</w>
шек спи
пересе кает</w>
узе л</w>
не ко
кон ра
бра ун</w>
эн дрю</w>
сцена рия</w>
ря ется</w>
ру ющий</w>
пьес е</w>
ни ков»</w>
челове ку</w>
близ ких</w>
окру жения</w>
из- под</w>
важ нейших</w>
эпизод а</w>
сти вен</w>
ч ника</w>
техни ческом</w>
ль вов</w>
крым ского</w>
в ста
состав ная</w>
синг лом</w>
поста вить</w>
до лина</w>
вод ство</w>
спон со
носи телей</w>
кы зы
до ска</w>
при ближа
се ления</w>
англи йских</w>
́ль ское</w>
потом ки</w>
лич ность</w>
посла л</w>
разме щения</w>
под готови
уди ви
ко пенга
ин ве
полови ной</w>
озна чать</w>
об ло
нов ское</w>
« т
183 3</w>
me »</w>
ко вую</w>
австри йской</w>
аэ с</w>
пре образования</w>
вра чом</w>
ш то
университе тов</w>
пра ге</w>
на писала</w>
t al
камп анию</w>
автор стве</w>
пор но
ча тый</w>
нен ской</w>
че ва</w>
уро чи
обла сти»</w>
истори о
вес ё
4 50</w>
се п
ча к</w>
любы е</w>
сочин ение</w>
син ь
полно метра
откры лся</w>
худож ники</w>
при ступил</w>
краснодар ского</w>
защи тить</w>
ва емой</w>
ши нского</w>
ть ев</w>
от стран
мон д</w>
мани фе
ки ным</w>
б ью
ш тор
ма кс</w>
мари на</w>
луч шего</w>
пла вания</w>
б я
тру бо
гет то</w>
екатери но
дерев ья</w>
а де
тив е</w>
окру г
магази нов</w>
служа т</w>
необходи мые</w>
соб раны</w>
объясня ется</w>
ле ди</w>
г тон</w>
атле тике</w>
тя ми</w>
19 ,
сами х</w>
под хода</w>
обществен но-
портре ты</w>
то вар
си ю</w>
поме щение</w>
из би
стани слав</w>
призна ть</w>
казах стане</w>
« к
c am
о форми
об мен
драматиче ского</w>
францу зов</w>
фо не
площад ке</w>
аре ста</w>
тро фи
муниципа льный</w>
граф ства</w>
гер ман</w>
в ю
li fe</w>
рас формиро
вани я»</w>
w n</w>
убе жд
театра льной</w>
пе й</w>
конферен ция</w>
брига ду</w>
у кло
усадь бы</w>
золо тая</w>
добы ча</w>
воз дви
эволю ции</w>
l -
кабине та</w>
ф эн
мун д</w>
прогре сси
1 14
сен е
поло са</w>
кан за
симво личе
мыс ль</w>
кё ль
оста вшихся</w>
наимен ь
americ an</w>
называ емых</w>
ин дия</w>
гло бу
веду щие</w>
те ли
не хва
вид ных</w>
« манчестер</w>
судо ход
пита ются</w>
откры той</w>
же м
провер ки</w>
захватчи ками</w>
отме чено</w>
времен ное</w>
чё ва</w>
рей сы</w>
пари жской</w>
адмира л
отказа лась</w>
действу ющий</w>
постро или</w>
при креп
вну тр
эдвар д</w>
тай ван
твор ческой</w>
дж ет</w>
в ье</w>
18 20</w>
определён ных</w>
газ ет</w>
ф лей
тё п
стандар т</w>
энерги ю</w>
зр ение</w>
освобожд ена</w>
оказа л</w>
сен о</w>
са р</w>
истори ей</w>
око ло
кен не
эм ми»</w>
хло ри
т ре</w>
сте фан</w>
религиоз ные</w>
мо заи
h or
подчин ения</w>
зад ания</w>
сформи рована</w>
p in
учё ны
предло жили</w>
обли к</w>
ди не</w>
p ac
сла во
музыкан та</w>
эскадри льи</w>
украин ском</w>
удо воль
сель ские</w>
поя с</w>
труд ности</w>
строитель ного</w>
http ://
шан ха
чи на</w>
разработ чиков</w>
ен ном</w>
дет ство</w>
да ма
ствен ному</w>
пе ше
маль чи
к ки</w>
g ir
ца рей</w>
запу ска</w>
христиан ской</w>
трибу на
5 »</w>
ло кали
ле л</w>
яковле вич</w>
про ход
18 21</w>
лен да</w>
инструмен ты</w>
10- й</w>
b s</w>
каза р
дву сторон
отстав ке</w>
во преки</w>
то лко
яи ц</w>
един ственное</w>
ко стей</w>
на со
уча ствуют</w>
р ю</w>
t in
нес част
ен ную</w>
поэ тов</w>
е ро
бу хар
раз ум
метал ло
каждо му</w>
евре йских</w>
хле б
физи ке</w>
подня лся</w>
роди лись</w>
де фици
и за
про работал</w>
харь ковского</w>
сче ту</w>
силь ней
ро зен
разы гры
ра ма</w>
трав му</w>
ко рея</w>
и ды</w>
завод ы</w>
сим п
парламен тских</w>
молоде жи</w>
заба сто
ц ке</w>
са ма
внутр ь</w>
отда н</w>
кон фе
ис лам</w>
га ли</w>
an g
эдуар да</w>
из вле
административ ном</w>
сф аль
н р</w>
яд ро</w>
призна ки</w>
организа тор</w>
парти зан</w>
мече ти</w>
програм много</w>
хи м</w>
практи ку</w>
находи ться</w>
вратар ь</w>
тер -
ми та
жан р</w>
qu e</w>
гита ра</w>
священ ного</w>
напад ение</w>
использо ван</w>
вме сти
ан ского</w>
по пыток</w>
лю к</w>
тель »</w>
но са</w>
про явил</w>
вопро са</w>
появ лением</w>
посе лок</w>
псевдо ним</w>
гвардей ский</w>
совет ником</w>
разру шен</w>
ско то
полу ченные</w>
в ведены</w>
челове ческого</w>
вы стро
постоян ное</w>
потребо вал</w>
территори ей</w>
круп ная</w>
команди рован</w>
вро де</w>
ци зма</w>
ст ины</w>
сделан ы</w>
родствен ников</w>
награ да</w>
иоси фа</w>
ска р
долж ност
джа зо
ава рии</w>
груп пах</w>
класси фика
на р</w>
m »</w>
лин ской</w>
сум мы</w>
ани я»</w>
2 20</w>
ме ров</w>
твёр ды
силь нее</w>
до бле
га -
до ход
ко марки</w>
ди спе
ди его</w>
любы х</w>
не многих</w>
магистра ли</w>
фа ми</w>
хи ко</w>
ти зм</w>
m o</w>
ро вало</w>
май ора</w>
завер шении</w>
а бу
располо жения</w>
зе ль</w>
жид кости</w>
ц ка</w>
направ лению</w>
вос хи
во вле
спи ри
авто рами</w>
рассматри вать</w>
президен тских</w>
выста вля
жда ют</w>
постав лена</w>
вет ра</w>
ф т</w>
ме »</w>
ауди тории</w>
стоя ли</w>
b o</w>
4 3
стро ений</w>
ки бер
па пой</w>
го го
джек сон</w>
не вер
молод ая</w>
выходи ть</w>
ar i</w>
про даже</w>
времен ной</w>
тель ского</w>
контроли ру
чёр ных</w>
джей н</w>
компонен тов</w>
счё те</w>
при ду
почё тным</w>
н ных</w>
степ ной</w>
цен тро
опублико вано</w>
за ле
би л
отве ча
но го»</w>
s i</w>
спа си
потер ь</w>
посоль ства</w>
показа ла</w>
инфра структуры</w>
роди нами
выходи ли</w>
фель д</w>
тель стве</w>
рен ы</w>
опас ность</w>
180 7</w>
камп ания</w>
инстру мент</w>
ча со
отде льным</w>
аген та</w>
ки нской</w>
ви ль</w>
то п
ш ла
н ёр
f la
ле пе
г ской</w>
а дам</w>
тек сти
британ ские</w>
алб ании</w>
указыва ют</w>
пило т</w>
ха т
фрун зе</w>
серьёз ные</w>
ро лях</w>
иг нори
ибра ги
нен е
полу ченных</w>
секун ды</w>
ку ляр
вер ху
раз ъ
постоян ных</w>
ду хе</w>
существо вать</w>
кон ден
строитель ством</w>
ка пу
эпи деми
секрета рем</w>
цен ы</w>
продук т</w>
до про
то вая</w>
рован ными</w>
орга ном</w>
континен тальный</w>
vi r
положи тельно</w>
ирку тской</w>
военача льник</w>
ne y</w>
ко рее</w>
d or
мин ске</w>
голу бо
православ ная</w>
елизаве ты</w>
ассистен том</w>
f ig
первен ство</w>
за тво
внеш него</w>
ван ными</w>
б рей
требо ваний</w>
пробле му</w>
лов »</w>
зало жен</w>
ни как</w>
кры ло</w>
ка л</w>
опер е</w>
сло вом</w>
броси ть</w>
солне чной</w>
плот ности</w>
мин ан
торгов ля</w>
бере говой</w>
по де
плод ы</w>
наз ваний</w>
административ ная</w>
хокке йной</w>
олимпи йского</w>
кин г</w>
разви ва
серти фика
ра ды</w>
пользо вались</w>
культур у</w>
деревян ный</w>
про мо
принес ла</w>
ш ов</w>
ди ск
г с</w>
за ведение</w>
обозна ча
ро ждении</w>
заяви ли</w>
ев рази
но беле
дви жений</w>
га ра</w>
вул кани
бер ге</w>
иск рен
действу ющих</w>
трудо вой</w>
с б</w>
пред принял</w>
из даны</w>
холод ной</w>
торго вой</w>
лейб- гвардии</w>
ар е</w>
га с</w>
25 ,
отра жа
горо до
рин г</w>
финанси рования</w>
филосо ф</w>
за ль
ва вшей</w>
пи щу</w>
рей с</w>
произвед ениях</w>
из учи
cor por
сквоз ь</w>
пере ры
кило метра</w>
ги тар
вступи ли</w>
се ́льское</w>
g s</w>
то вый</w>
выда ющихся</w>
кар та</w>
ра вен</w>
кон ди
ка ту
щ ав
ком про
ков ы</w>
s .
ro ck</w>
основа теля</w>
выде ляется</w>
рен е</w>
стар шей</w>
вы ходе</w>
цвет ные</w>
бро сил</w>
экспер ти
ст ной</w>
оп понен
r y</w>
присут ствие</w>
пол тора</w>
мед вед
вы сказа
характер ны</w>
принадлежа ли</w>
n -
b bc</w>
требо ваниям</w>
какой- либо</w>
эфи о
стюар т</w>
дя дя</w>
д ка</w>
с р»</w>
перво му</w>
герман ского</w>
духов ного</w>
lin es</w>
пра пор
расши ри
по вич</w>
парламен те</w>
ар ы</w>
шер и
четвер ти</w>
180 6</w>
ну кле
зву чит</w>
потеря ли</w>
посети телей</w>
по бу
пожа р</w>
сериа лах</w>
рес е</w>
по чет
э на</w>
цен ности</w>
воло ко
in st
снаря дов</w>
сель хо
множе ством</w>
вол га</w>
ва ла
ре ду
хельсин ки</w>
наси лия</w>
лота рин
выступа ют</w>
хран ятся</w>
1 16
приня в</w>
ме ло
пала те</w>
пен а</w>
оса ды</w>
способ ствовало</w>
кварти ры</w>
истори ческом</w>
c al
техни ку</w>
об следо
свидетель ствуют</w>
р нк</w>
м ми</w>
за о
е л
до мен
упомина ет</w>
уби ли</w>
челове ческой</w>
род ри
боро ться</w>
брига ди
а за
ца ре
свобод ное</w>
массачу се
сохран ение</w>
ман си
игро вых</w>
постоян ный</w>
не пре
18 10</w>
празд ни
пере дано</w>
костро мской</w>
генна дий</w>
большеви ков</w>
ху тора</w>
театра льного</w>
победи в</w>
п .
до шёл</w>
бу ты
зем ной</w>
ба й</w>
це в
спортив ные</w>
пыта лась</w>
форма х</w>
самар ской</w>
выпу ске</w>
кали ни
2 3,
и ди
выс шим</w>
ан ской</w>
отме чены</w>
мя »</w>
и л-
выста во
осо бей</w>
релье ф</w>
пит ание</w>
вол н</w>
6, 5</w>
узна ть</w>
постанов ки</w>
наме ре
массо й</w>
об на
театра х</w>
краснояр ского</w>
фла г
жа к</w>
шве ция</w>
вы сади
энер гия</w>
че кан
у ́
теле н</w>
больш его</w>
боль ницу</w>
приобре та
0 8
числен ностью</w>
са ли
л ками</w>
стиму ли
пример е</w>
кон не
чинов ников</w>
разде лены</w>
пен аль
логи ческим</w>
ко бе
абстра к
щ ённый</w>
истори ческое</w>
m ent
ту берку
призн ана</w>
линей ных</w>
графи ческий</w>
ф юр
ство ла</w>
сс о</w>
дела ли</w>
европе йские</w>
араб ского</w>
ш ками</w>
про м
вечер а</w>
чар ли</w>
« пере
спис ки</w>
еди ный</w>
брай ан</w>
силь нейших</w>
миро вую</w>
яр ко</w>
скло нах</w>
спу ска
сам цы</w>
бе ге</w>
ло »</w>
ву ль
предоста вляет</w>
ви с
ч ко</w>
сочет ании</w>
при влек
во ли</w>
учеб ное</w>
досту пен</w>
it al</w>
ii —
харь ков</w>
кон вер
на клон
граждан ство</w>
вице- президент</w>
совер ша
ро стом</w>
корпу сом</w>
конструк ций</w>
k i</w>
10 2</w>
фак ты</w>
пев ца</w>
маршру тов</w>
ло я
ран нем</w>
об кома</w>
баро кко</w>
ну н
успеш ных</w>
жен е</w>
фрагмен ты</w>
постанов лению</w>
180 9</w>
преподава телей</w>
у лан
ка сте
за гряз
тропи ческих</w>
н рави
амери ку</w>
по лей</w>
рожде ства</w>
кас се
er »</w>
ши л</w>
це в»</w>
рекомен дации</w>
по сты</w>
пла тить</w>
ата ка</w>
м ки</w>
гале рея</w>
во шел</w>
20 ,
напря жения</w>
сыгра ть</w>
поко ление</w>
ника кой</w>
месторо ждений</w>
како е
1, 3</w>
тре ка</w>
микро регион</w>
дж ун
заведо вал</w>
язы ку</w>
республи кой</w>
ц юри
сказ ки</w>
достоин ства</w>
фир мой</w>
создан ного</w>
упомин ания</w>
подоб ное</w>
кё ни
кон фигу
добра ться</w>
лауреа том</w>
император у</w>
во ле</w>
еди ная</w>
вырос ла</w>
по являться</w>
наде жда</w>
аран жи
е ль</w>
ста ре
ди ей</w>
прожи вания</w>
танко вая</w>
окс фор
награжд ена</w>
ло с</w>
закончи лась</w>
g lo
рецен зен
ве ща
ви са</w>
de l</w>
коммуни стов</w>
тиру ются</w>
yor k</w>
ст ская</w>
стар т</w>
литов ской</w>
казан ь</w>
в сад
прину ди
литератур у</w>
пе сен
до говори
раз гром
прило жения</w>
кре а
исполни тель</w>
« ни
18 11</w>
фигу р</w>
гон ка</w>
вене ции</w>
тради ционные</w>
мульти плика
мэ ри
ди ни
ц кому</w>
недоволь ство</w>
ма з
лё й</w>
ру чей</w>
писе ц</w>
жен ском</w>
ве тери
но со
лет ним</w>
ан ри</w>
шта ты</w>
ма да
ле вым</w>
ж ания</w>
вид ный</w>
k er</w>
тол щи
теле сериала</w>
c t
ру ка
сохрани л</w>
примен ением</w>
пере вез
вы р
б сср</w>
2 2,
g er</w>
армя н</w>
an t</w>
лич ное</w>
кор енных</w>
герм анией</w>
поме щений</w>
биат ло
то м»</w>
стрелко вый</w>
от рав
лич ная</w>
ve l</w>
на ве
́ к</w>
послед ствия</w>
5 6
ша ро
откры тии</w>
револю ционного</w>
полу финал</w>
ла ри
зи он
бал ло
азиат ских</w>
фло том</w>
со авторстве</w>
мас ла</w>
гале реи</w>
миро вая</w>
розыгры ш</w>
медици не</w>
за то</w>
179 2</w>
178 4</w>
ле вая</w>
цен зу
петро завод
вер фи</w>
н ское</w>
выпол нить</w>
for d</w>
поч ты</w>
от клю
nin ten
ши ны</w>
пор т-
ву зов</w>
« e
h on
нов город</w>
ба ев</w>
сина го
рас ходы</w>
диск вали
дель -
3- х</w>
смер тной</w>
след ствием</w>
пози ция</w>
обнару жения</w>
лё ва</w>
кар тин
умира ет</w>
не большую</w>
концер тах</w>
ки рова</w>
фо нов</w>
соста вной</w>
про хо
179 3</w>
экспози ции</w>
техни ческое</w>
со рат
магази на</w>
199 0-е</w>
ч жу
si l
постанов ке</w>
казахстан ской</w>
выра жения</w>
pre ss</w>
способ ствовал</w>
боеприпа сов</w>
ску р
отнош ением</w>
внутрен ний</w>
p l
0 3</w>
последователь ность</w>
не дав
верх у</w>
фо ри
гекта ров</w>
зи рован</w>
волго градской</w>
сен ко</w>
пеналь ти</w>
м вт</w>
про вода</w>
расо вый</w>
объясня ет</w>
сер ы</w>
общ ения</w>
майк ла</w>
предпоч т
р ных</w>
продол жения</w>
ман н</w>
изуч ением</w>
ь ё</w>
воен ными</w>
око не
тель ны</w>
тан и</w>
кёр лин
выбра ть</w>
бомбарди ром</w>
стрем ление</w>
седь мой</w>
оренбург ской</w>
ман у</w>
по стри
науч ная</w>
рас форми
послед ствий</w>
обе щал</w>
со общество</w>
о характеризо
меди а
причи на</w>
мо с
ве щей</w>
пла нов</w>
ранен ых</w>
ленинград ский</w>
штаб-кварти ра</w>
ту ни
от нес
выска зы
18 27</w>
ка кие</w>
участ ника</w>
про дано</w>
по ворачи
пе кине</w>
моги ле</w>
марке тин
еписко пов</w>
1 15</w>
определён ной</w>
запре щено</w>
воевод ство</w>
догово ру</w>
мише ль</w>
эн тони</w>
созда тель</w>
к лана</w>
пя тер
им ения</w>
выз вала</w>
ка с</w>
жен ными</w>
смешан ных</w>
под лежа
восто чные</w>
бе сса
длин ный</w>
диспе т
черно морского</w>
глав ном</w>
бер и</w>
сельскохозяй ственной</w>
отмеча ют</w>
оде жду</w>
2- х</w>
179 5</w>
мор физ
ва вшийся</w>
кла виш
ка ска
воз рожд
принци пу</w>
политиче ское</w>
кило метр</w>
цар ство
т тин
м ском</w>
двой ной</w>
альбер т</w>
гово е</w>
сы »</w>
победи тели</w>
ли сса
изобра жений</w>
зна чений</w>
практи ка</w>
из бы
ар т
отде ле</w>
пол года</w>
д эн
граф ы</w>
второ степен
ка зна
втор г
ресур сы</w>
про голосо
кристи ан</w>
д ание</w>
оцени л</w>
атако вать</w>
состоя ло</w>
кило грам
золо того</w>
гу а</w>
военно- мор
раз вле
утвер ждение</w>
пе л</w>
памя тной</w>
гор ные</w>
концентра ции</w>
комеди я</w>
депута ты</w>
по не
мину ту</w>
ман ё
st a
про заи
постро ения</w>
армян ского</w>
4 4
те -
с ью
предме т</w>
води ть</w>
перево зок</w>
т ря
швейца рия</w>
за стре
ре ктором</w>
оцени вается</w>
долж ностях</w>
тща тельно</w>
офице ром</w>
не большими</w>
лов ская</w>
b er</w>
ствен ности</w>
ninten do</w>
c c
стэн ли</w>
напис ания</w>
массо вые</w>
контр -
цент ры</w>
крас ным</w>
в вёл</w>
административ ной</w>
включа ла</w>
те рак
му ста
жи й</w>
5 9
ф ок
соб лю
расстре лян</w>
не жели</w>
герман ских</w>
goo gle</w>
не вро
карто фе
завое вания</w>
вс ё
́ в</w>
у глуб
т юри
новосибир ской</w>
за ез
« интер
s al
таль ном</w>
комби ни
альбо мы</w>
по рой</w>
стро ки</w>
при шед
обер -
духо венства</w>
заповед ника</w>
ред ких</w>
ма у
име ющий</w>
m il
настоя телем</w>
все российского</w>
бан кро
b el
франче ско</w>
выбра л</w>
19 0</w>
про стые</w>
на сколько</w>
кон федерации</w>
те мно
инве сто
ше во</w>
ломоно сова</w>
гор ба
1, 8</w>
продолжа ют</w>
законода тельства</w>
ко лен
пу зы
ph y
спас ения</w>
су к
ш ков</w>
това ры</w>
в замен</w>
́ на</w>
я р</w>
эн гель
6 0-х</w>
облада л</w>
ля я</w>
бы вают</w>
- ба
гла зами</w>
бра ту</w>
посоль ство</w>
военно- морской</w>
моби лизации</w>
лю бли
зи ма</w>
лидер ы</w>
взгля дов</w>
бар нау
op en</w>
больши й</w>
уэ р</w>
диапа зоне</w>
с ёл</w>
индей цев</w>
бы та</w>
пригла шение</w>
на казание</w>
га ют</w>
чен ными</w>
матиче ские</w>
ла ге
шта бе</w>
ве дет</w>
уча щихся</w>
ту зи
таунши па</w>
проигра в</w>
гар вар
кири лл</w>
gam e</w>
хокке ист</w>
канад ский</w>
автомоби льная</w>
ткан ей</w>
1, 6</w>
насе ленных</w>
поля ков</w>
по зади</w>
нау ка</w>
ха -
тради ций</w>
продю си
отра жение</w>
еди нок</w>
пере ведена</w>
воспомин аниям</w>
бур го
фло те</w>
сен ат</w>
про гу
дж у</w>
уилья мс</w>
при ведены</w>
ма сс</w>
лени е»</w>
сход ство</w>
сто ло
ш ти
маршру та</w>
па »</w>
фран ко</w>
n at
отсут ствии</w>
3 80</w>
па сто
ба си
а так</w>
« му
lin ux</w>
тира ж</w>
лиш ения</w>
граду сов</w>
су воро
провед ён</w>
o »</w>
у став</w>
при сту
модерни зации</w>
та ра</w>
ли хо
воро б
ве лось</w>
то боль
со обра
осново поло
вклю чен</w>
y e
д ских</w>
o t</w>
фа зы</w>
от каза</w>
важ ный</w>
зе й
точ ности</w>
объ явля
выделя ются</w>
ви дам</w>
выступа ющий</w>
тя н</w>
пило тов</w>
камен ная</w>
исс леду
и к
бли зок</w>
ма м
использо валось</w>
ту рах</w>
рас че
препара тов</w>
шос сей
уста ре
при бе
преоблада ют</w>
народ ным</w>
разработ кой</w>
при балти
ли зм</w>
ви ков</w>
дет ские</w>
го сти</w>
по шли</w>
во зов</w>
эффек ты</w>
ре д</w>
при сва
18 16</w>
у ша
продолжа лась</w>
отправи лись</w>
нидерлан дах</w>
выполнен а</w>
ur n
производи ть</w>
б ана</w>
музыка льную</w>
тур бо
тай но</w>
по единок</w>
архи в</w>
х эт
тон »</w>
« жи
я ны</w>
формиро вании</w>
науч ную</w>
ан ский</w>
свиде тельства</w>
безы мян
публи ки</w>
преступ лений</w>
ни ки»</w>
мет одо
стра ной</w>
пере работ
ти фли
види мости</w>
ва ющим</w>
сни жения</w>
возмож ностью</w>
деву шку</w>
разработан ная</w>
бума ги</w>
компью теров</w>
з лоде
воспи тания</w>
б »</w>
а ка</w>
сти вен
ль ское</w>
замени ть</w>
бере гам</w>
я не</w>
т ников</w>
нуж д</w>
7 0-х</w>
ра до</w>
сухопу тных</w>
f ro
христиан ство</w>
очеред и</w>
ко лю
вален тин</w>
щен ный</w>
хозяй стве</w>
отправи лась</w>
концер те</w>
ar y</w>
хор а</w>
ти ну</w>
созы вов</w>
интерне те</w>
безопас ность</w>
бе лыми</w>
сти лем</w>
спут ник</w>
коэффициен т</w>
извест ня
груз ки</w>
аку шер
p gc</w>
учеб ные</w>
пользо ватель
комисси ю</w>
ро я
5, 5</w>
чи ли
строитель ной</w>
согласи е</w>
корот кое</w>
широ кого</w>
си ли
под писали</w>
is h</w>
фран ц</w>
18 24</w>
пере шло</w>
коммер ческих</w>
чемпион кой</w>
присут ствовал</w>
крон штад
га вай
венгер ской</w>
мыс ли
дан ную</w>
г ана
ён ности</w>
сан- пау
сте рео
гале рее</w>
совет скими</w>
to p</w>
та ла
марша л</w>
ла зер
зна ка</w>
графи ческого</w>
соци ологи
продю сера</w>
на ра
титу лом</w>
фе хто
ч ениями</w>
теле сериале</w>
ли за</w>
жи на</w>
желу до
туре цкий</w>
парт нёр
архангель ской</w>
« красный</w>
сибир ь</w>
ду му</w>
благо полу
сти лю</w>
лоша ди</w>
архе ологии</w>
v -
f c</w>
к б</w>
утвержда ют</w>
кур си
я х»</w>
ч ностью</w>
заведу ющего</w>
относи лся</w>
австри йский</w>
цве та
ге »</w>
ар би
хоро шие</w>
турк мени
регла мен
аль ными</w>
оказа ли</w>
го вого</w>
ша ло</w>
бло ков</w>
тера пев
маши ни
ман ы</w>
извест ное</w>
гла зах</w>
в ное</w>
h an
ходи ла</w>
угро зы</w>
у бор
ров ская</w>
пя той</w>
га миль
се мена</w>
кра тная</w>
ья на</w>
хи ль
кисло т</w>
дипло мат</w>
памят ником</w>
вы би
пла ка
на лё
комисса р</w>
ка ми
ти зации</w>
соверши ли</w>
лов ском</w>
пехот ный</w>
обще ственные</w>
вален тина</w>
бух гал
к в
вторы х</w>
верну л</w>
веду щей</w>
киргиз ии</w>
c .</w>
по кон
пи й</w>
позд них</w>
разработ чики</w>
про вали
ван ку
а це
« p
v e»</w>
специали зиру
встре ч</w>
африкан ских</w>
193 0-е</w>
све те</w>
ва ле</w>
ба лли
хреб ет</w>
разработан ный</w>
тя ж
регули рования</w>
а са
ma g
уезд ного</w>
од у
зи г
геор г</w>
в д
1 17
пере де
дуэ т</w>
выде лен</w>
бе лым</w>
гор ск</w>
со крови
прибо ров</w>
высо ком</w>
меня ть</w>
ко с</w>
ш ты
тол стого</w>
тер но
станови лись</w>
сокра щение</w>
ль ники</w>
« зени
сера фи
игор я</w>
gam es</w>
кли мата</w>
био логических</w>
та у</w>
при каз
крат ко
восто р
харь кове</w>
вок за
взаимодей ствие</w>
б эн
эле мента</w>
употреб ления</w>
ми ря
чер ке
стен ах</w>
воз люб
le y</w>
ти п
ди ен
пя того</w>
ячей ки</w>
необ скому</w>
кла р
эй н
ри ск</w>
и т</w>
вы яви
услови и</w>
поль ским</w>
до вой</w>
тер ы</w>
внеш не</w>
эска дро
не большом</w>
поз нан
грен а
дву кратный</w>
юриди ческих</w>
корот кой</w>
геро ем</w>
выстав ках</w>
применя ют</w>
помога л</w>
щ ённые</w>
писе м</w>
носи тся</w>
пере ло
п пе</w>
челябин ской</w>
спек тра
пре с
зад ание</w>
2 4,
расположен ной</w>
лицен зии</w>
доста вля
оки с
крупней шие</w>
выпол нении</w>
en s</w>
сообщ ений</w>
подъ ём
началь ная</w>
мало е</w>
изобра жены</w>
т ты</w>
тур ки</w>
спорт смен</w>
m tv</w>
региональ ной</w>
май к</w>
y -
уда ры</w>
сси й</w>
происходи ли</w>
нен ных</w>
на хождения</w>
захорон ения</w>
за работ
за каз</w>
ма ́
гре ков</w>
на писать</w>
i es</w>
син дро
по иско
ц цо</w>
чёр но-
процен тов</w>
d ro
не по
локомо тив
тради ция</w>
сопер ников</w>
заяв ку</w>
c ur
осно вали</w>
кто ру</w>
занима ются</w>
би ль
авто биографи
позволи ла</w>
европе йском</w>
10 4</w>
ча тых</w>
отыгра л</w>
го ня
вин ский</w>
пред ска
направ лены</w>
4- я</w>
и же
те од
про стира
победи ть</w>
па ́
ма ту
мезо региона</w>
жем чу
слож ной</w>
призна ков</w>
находя щийся</w>
деревян ные</w>
д рез
ше вский</w>
рок- группы</w>
на всегда</w>
цен е</w>
ст ные</w>
ра са</w>
пропор циональ
стар ших</w>
издатель стве</w>
0 7</w>
тихо го</w>
со отношение</w>
республи к</w>
потеря ла</w>
ре ф
совмест ной</w>
снима лся</w>
войска х</w>
профи лак
опреде ли
ва лли
принадле жности</w>
моно графии</w>
захва т</w>
st a</w>
мо сто
тур ция</w>
рован ную</w>
ключе вых</w>
з ма»</w>
департамен те</w>
электрон ных</w>
племян ник</w>
о казывает</w>
мра мор
маши не</w>
претен до
от мет
шам пан
пу шек</w>
пря мого</w>
главно командующего</w>
вой »</w>
бо сни
торго вого</w>
земле дели
дли тся</w>
воз действие</w>
са по
массо вого</w>
ка ма</w>
зелё ного</w>
ва лов</w>
« чел
учрежд ена</w>
изуча ть</w>
бассей не</w>
най ден</w>
а д</w>
титу ляр
народ ное</w>
всесоюз ного</w>
три ни
мас ло</w>
й ная</w>
ми г-
сси он
норве ж
нало гов</w>
академи ческой</w>
ра на</w>
прово ци
подразде ляется</w>
артиллери йских</w>
с цен</w>
влади слав</w>
сухо й</w>
знакоми тся</w>
эффек та</w>
кру ге</w>
дне стро
сме сь</w>
нью- джерси</w>
кав каз</w>
джо зеф</w>
пере водится</w>
про веден
одер жала</w>
обязан ностей</w>
увеличи вается</w>
об зор
культур ные</w>
актив ные</w>
выста вок</w>
воз ме
мульт фильм</w>
офи с</w>
o s
утвер ждения</w>
. -
лати но
зем лёй</w>
даге стан
« ор
ch ri
о ́
ло ву
воздуш но-
бо ж
e a</w>
сня ты</w>
с д</w>
автодоро га</w>
и ран</w>
180 3</w>
сторон ником</w>
ре га
да вал</w>
распоря жении</w>
красно знам
влади ́
япон ская</w>
и они
рос ли</w>
h ms</w>
f a</w>
ку с</w>
заста вля
следу ющими</w>
мир ного</w>
ма ври
пос лом</w>
изда тельством</w>
d ri
иванов на</w>
пунк тах</w>
отправи ться</w>
се лом</w>
5- м</w>
хе р</w>
шта дт</w>
та цией</w>
библи и</w>
м ный</w>
заня тий</w>
ти х
грузин ской</w>
крым ских</w>
федера льный</w>
упа л</w>
ров -
пунк том</w>
одес ской</w>
обо рон
« аль
рай центра</w>
кино фестивале</w>
скульп тур
регуляр ные</w>
гра ни</w>
газе тах</w>
te ch
х вой
поле м</w>
по волж
лу че
домаш нем</w>
гвардей ская</w>
179 7</w>
части цы</w>
се лек
обра щается</w>
гро сс
c d
разде ле</w>
контак ты</w>
уничто жены</w>
како го
жи тель</w>
стреми лся</w>
мани пу
го не</w>
а сфаль
уступи ла</w>
пара метров</w>
qu e
1 18
ю ности</w>
свобод ных</w>
посвящ ённый</w>
1, 4</w>
тре ти</w>
ото жде
цы н</w>
пе дро</w>
ен ность</w>
волоко лам
ве стер
bo e
фигу ра</w>
пре терпе
сельскохозяй ственного</w>
организ мов</w>
обы чной</w>
wit h</w>
ли си
университе тах</w>
леген де</w>
кар ло</w>
избра ния</w>
моди фици
ло бо
кари б
тата ры</w>
ленинград ском</w>
губер нского</w>
архи епископом</w>
широ кие</w>
угро зу</w>
отде лением</w>
княз ю</w>
не долго</w>
из вер
ви рус
б л</w>
l ’
хо к
ми мо</w>
де м
генера лом</w>
завое вать</w>
тель ских</w>
театра льных</w>
особы м</w>
красо ты</w>
и си
ря ет</w>
пла та</w>
бул га
сто не</w>
le t</w>
на ч
ви ка</w>
почто вой</w>
хозяй ственной</w>
поло м</w>
наз ванный</w>
им ён</w>
ак ро
1 1-й</w>
россий ское</w>
ме ч</w>
кафед ра</w>
дизай на</w>
« во
под ходит</w>
18 23</w>
четвёр тое</w>
до ров</w>
ге теро
та ль</w>
науч ное</w>
газе ту</w>
комик сов</w>
каза ки</w>
интере са</w>
друж бы</w>
абсолю тная</w>
сти ческим</w>
ре к
отступи ть</w>
определён ные</w>
гиль дии</w>
сказан о</w>
возника ют</w>
кор ни
е те</w>
вое вода</w>
миниат ю
до му</w>
поним ания</w>
ло рд</w>
фран ко
уси ления</w>
« тай
2 40</w>
тиро вался</w>
согла шается</w>
пе хо
ке лли</w>
привле чь</w>
a .
цифро вой</w>
с клад
ри ка</w>
прока т</w>
и у
употреб ля
иностран ные</w>
2: 1</w>
поним ание</w>
к эр
де вы</w>
ссы лки</w>
сверд ло
осо зна
мя н</w>
кто -то</w>
е кто
ы -
до г
ви кон
обла стью</w>
флоти лии</w>
инди йского</w>
заклю чён</w>
взры в</w>
с ци
ща ясь</w>
пе тен
ве -
благове щен
электро магни
и ти</w>
с проек
il l</w>
наз ванию</w>
таль ным</w>
следу я</w>
ко вича</w>
класси ческого</w>
джор джи
арти стов</w>
араб ских</w>
ch am
6 :
ку ту
vi sion</w>
древнер ус
каза лось</w>
настоя щему</w>
удовлетво ри
се к</w>
б ани
торгов ле</w>
сте фана</w>
ро й
ны -
ли х
ан ту
180 8</w>
револю ционных</w>
у язви
тре ков</w>
республикан ской</w>
план ет</w>
выступа вший</w>
w at
хо ло
ра стор
подчин ение</w>
началь ное</w>
ла заре
двига ться</w>
18 22</w>
шле ма</w>
нем цами</w>
энерге тики</w>
тран скрип
пря мым</w>
поки дает</w>
особы е</w>
завод ом</w>
от зыва
мар ко</w>
исследо ваниях</w>
ж ник</w>
formula_ 5</w>
случа я</w>
пере ходе</w>
мен ом</w>
гидро узла</w>
1 12</w>
хирур гии</w>
немецко- фашист
« шах
g »</w>
ре чи
не когда</w>
называ емая</w>
из гна
ча тая</w>
отече ствен
ки рово
k ar
ро »</w>
вы ходя
влади миром</w>
то ронто</w>
га нов</w>
ах ма
сопрово ждении</w>
орган ах</w>
из ме
m er</w>
180 1</w>
фина льном</w>
туре цкого</w>
страте гии</w>
вырази л</w>
бомбарди рово
ри ей</w>
дет ская</w>
ту льской</w>
сра жениях</w>
в ские</w>
лен ности</w>
при м
лу »</w>
герцо ги
библи о
выз ван</w>
пору чено</w>
мо й
став ри
губер ний</w>
7 50</w>
эк скур
свобод ный</w>
джей м
вод ства</w>
величи на</w>
воло сы</w>
астро нав
удовлет вор
смен ы</w>
набере жной</w>
выход ом</w>
при лага
круп ное</w>
анон си
эги дой</w>
ки пе
строитель ный</w>
граждан ская</w>
хо п
t an
побе де</w>
приготов ления</w>
относи лись</w>
ля цию</w>
кавказ ской</w>
джи н</w>
разде ления</w>
м п</w>
vi l
ф ени
цело ст
локо моти
ве лась</w>
успеш ной</w>
теря ет</w>
француз ы</w>
кос вен
i e
фа вори
си т
план у</w>
мага зины</w>
би лли</w>
б ло</w>
я ма</w>
п гт</w>
ю вели
и /
посе щения</w>
номе ров</w>
на са</w>
6- м</w>
0 7
ра ска
оккупи рована</w>
анато ль
10 8</w>
синг лов</w>
объё мом</w>
покры ты</w>
коне ч
лето пис
b al
эми гран
чай ковского</w>
стви ю</w>
d on</w>
освободи ть</w>
моско вскую</w>
нынеш него</w>
род ный</w>
работа ло</w>
st ra
хо во</w>
зависи мость</w>
съ ем
програм ми
ис ма
старто вал</w>
организа циями</w>
мемори альная</w>
дальней шей</w>
ядер ного</w>
стаци онар
потенциа л</w>
исто в</w>
виде ли</w>
ва ции</w>
yo u
ча й</w>
сти не</w>
ме ди</w>
бр о</w>
шах ты</w>
сем ён</w>
аэропор ту</w>
дево чка</w>
ази а
электро энергии</w>
р я</w>
к лич
18 18</w>
стек лян
конститу ция</w>
да т
форму ла</w>
ре форма
одо р</w>
кла в
ш ён</w>
стоя ла</w>
семё нович</w>
кон тей
двер ь</w>
о храни
взя в</w>
комплек сов</w>
ч ком</w>
от нести</w>
йо хан
информа ционных</w>
доказа тельства</w>
госу да
прода н</w>
револю ция</w>
приори те
е фре
фина льный</w>
брази лия</w>
ре ва</w>
тив ном</w>
с пен
республикан ского</w>
отстав ки</w>
истори ческая</w>
ви дах</w>
« го
х об
точ ным</w>
по станови
мо я</w>
драматиче ский</w>
средиземно мор
образу ются</w>
выз вать</w>
ав ра
li n</w>
по сту
ле вую</w>
стра х</w>
прави телей</w>
кандида туру</w>
« лучшая</w>
p c</w>
оке ан</w>
координа ты</w>
ga z
уда чно</w>
скри па
t i</w>
флори да</w>
щи та</w>
осо бую</w>
захва ты
дифферен циаль
бом бы</w>
т ках</w>
ев »</w>
благо слов
log y</w>
17 6
10 9</w>
эн тузи
хи й</w>
т с
пи тер
способ ствует</w>
рас су
ядер ной</w>
ф раз
кило метро
со стя
пре ссы</w>
существу ющих</w>
пензен ской</w>
сде лана</w>
запу ск</w>
в кп(б</w>
британ ским</w>
спортсмен а</w>
ха т</w>
пропусти л</w>
чи ками</w>
христиан ства</w>
дли тельное</w>
e k
5 8
инженер но-
десятиле тий</w>
ца -
ма зо
действи ями</w>
финлян дия</w>
со фия</w>
к ей</w>
драматур г</w>
s .</w>
фили ала</w>
финансо вые</w>
москов ским</w>
лен та</w>
днеп ра</w>
c in
часто ты</w>
принце ссы</w>
ли т</w>
й н
де лия</w>
s am
констру ктор</w>
l l</w>
эмигри ровал</w>
черниго вской</w>
слож но</w>
лод о
ча той</w>
ся н</w>
еже меся
бо гов</w>
тамбо вской</w>
стрель бе</w>
тро ну
пла те
гита ре</w>
эр не
по и
га ции</w>
разде ление</w>
выступи ть</w>
табли цы</w>
пропаганд ы</w>
обра щении</w>
дополни тельный</w>
ме ц</w>
леги она</w>
вне д
присут ствовали</w>
вклю чили</w>
та в
повто ри
она »</w>
коллек цию</w>
епархи ю</w>
церков ного</w>
пу эр
л ль</w>
кор са
колумби я</w>
живо пись</w>
18 19</w>
парти йный</w>
жили щ
́ я</w>
су лей
приё ма</w>
женщи ной</w>
бу кси
со отечествен
опти ма
искус ству</w>
вол на</w>
пригла шению</w>
так си</w>
оборо ня
деля тся</w>
вес ны</w>
защит ников</w>
руко пис
ши нский</w>
ту и
степа н</w>
архие рей
ян ка</w>
образ ы</w>
тюр к
«а »</w>
щи мся</w>
сало не</w>
про б
тю ре
подав ления</w>
даль нем</w>
центра льную</w>
окру ж
ме ле
боеви ков</w>
философ ских</w>
министер ством</w>
соверши ть</w>
мощ и</w>
ж ь</w>
me dia</w>
ши т</w>
c ri
существова вшая</w>
ро го
прило жений</w>
сам ка</w>
le »</w>
сторо же
замени в</w>
продолжа лось</w>
неуда чно</w>
пят ни
направ лена</w>
молодо сти</w>
ком петен
госпита ль</w>
ков ским</w>
а бо
4- х</w>
ст ных</w>
смолен ск</w>
кур сан
ав ен
пересе чения</w>
дет ском</w>
месторо ждение</w>
замен ён</w>
артиллери йский</w>
принес ли</w>
ки ровской</w>
уста новок</w>
клу бах</w>
центра льным</w>
сло вес
ожесто ч
на ше</w>
кон тексте</w>
хан ства</w>
происхо ждении</w>
проводи ли</w>
заме чает</w>
кам ней</w>
ча »</w>
ха ра</w>
степ и</w>
рус скому</w>
оста вили</w>
кон го</w>
республи ку</w>
ми ю</w>
бю джет</w>
ду н</w>
выясня ется</w>
со цве
са мую</w>
пере рыва</w>
кора бле
водо изме
пе ту
городи ще</w>
ба ти
останов ки</w>
10 3</w>
за пи
словар ь</w>
н ра
e p
фор мат
млад ших</w>
вади м</w>
рейтин га</w>
эн ри
с мар
верхов ной</w>
st y
199 4—
не избе
даге стана</w>
аф ган
« ак
fo x</w>
юри ст</w>
у ла
nig ht</w>
к см</w>
бу ро
ш ных</w>
уби тых</w>
судеб ной</w>
син д
по каз</w>
war e</w>
стандар та</w>
у казу</w>
титу лы</w>
компью тер</w>
веще ство</w>
пла ту</w>
закончи ла</w>
опреде лён</w>
f f</w>
cr y
ха нов</w>
продолж ением</w>
моде лью</w>
тра сса</w>
си льных</w>
н юр
дя т</w>
насчиты вала</w>
мун да</w>
телевизион ных</w>
талан т</w>
премьер- министром</w>
отправи ли</w>
ги по
вид ной</w>
венгер ский</w>
у дер
рен о</w>
полков ники</w>
националь но-
су ть</w>
реаль ного</w>
цен ность</w>
христиан ских</w>
полу остров</w>
верх ние</w>
« торпе
бан ков</w>
s ing
стихотвор ение</w>
соста ву</w>
по но
пере рабаты
крас ном</w>
утвер дил</w>
мон т</w>
цар ской</w>
одно зна
водо рода</w>
l er</w>
художе ственном</w>
уру гва
ген дер
на ш</w>
з ю
ев ы</w>
o b
у целе
габ с
си ний</w>
ри ге</w>
период ы</w>
w er</w>
ро сту</w>
пье са</w>
при шло</w>
драф те</w>
хо у
необходи мых</w>
жда ли</w>
до у
а мино
оке ане</w>
й ном</w>
ва вшихся</w>
t us</w>
си льного</w>
рав нин
разви ваться</w>
ло у</w>
при ю
граф е</w>
веру ющих</w>
13 5</w>
су ро
пи шу
онлай н-
покину ла</w>
n u
19 20—
st one</w>
ч ка»</w>
бело е</w>
уничто жение</w>
ге мо
5 3
о гай
интерес но</w>
едино гла
ран ение</w>
пожало ван</w>
петербург ского</w>
возра ста
ам фи
существо вании</w>
представля ть</w>
лон че
вермах та</w>
турке стан
подверг ся</w>
пересе чении</w>
щи ками</w>
пробле мой</w>
военно- морского</w>
в стал</w>
ко б
жиз нь»</w>
дипломатиче ские</w>
д ная</w>
прош ло
л тон</w>
бе лка</w>
компьютер ной</w>
направ лениях</w>
пассажир ских</w>
консервато рию</w>
есте ственной</w>
r o</w>
x box</w>
швед ского</w>
зву ки</w>
ban k</w>
яв лений</w>
квадра тный</w>
рен ко</w>
архите кторов</w>
у су
ре пети
равно ве
упразд нена</w>
на сто
голов ной</w>
« вы
на га
д зе
гра вита
хва та
специаль ным</w>
мо ль
мо ей</w>
сбор нике</w>
приез жает</w>
п че
продолжи ла</w>
поэ мы</w>
жен ное</w>
воин ское</w>
создан ные</w>
плат форме</w>
пере воды</w>
л з</w>
звез дой</w>
« локомотив
оши бок</w>
им пор
ж ре
ва вшая</w>
природ ного</w>
поль шу</w>
мар ты
« ин
старо е</w>
разновид ность</w>
х лад
прожи вающих</w>
маршру ту</w>
« новый</w>
страни цах</w>
непосред ственной</w>
кры лых</w>
де ле
сом нен
он тари
урав нения</w>
тан ца</w>
ф рен
тан о</w>
созда ла</w>
сибир ской</w>
номини рован</w>
зем ской</w>
энциклопе дии</w>
чрез мер
челове чества</w>
пора жений</w>
до хода</w>
госпита ле</w>
брит ании</w>
трудо вую</w>
обра тной</w>
0 2</w>
автобу сов</w>
фран цией</w>
период у</w>
п- хо
актё ры</w>
179 9</w>
результа та</w>
уда ром</w>
зн ание</w>
0- м</w>
си льной</w>
за ряд
д од
док три
грам мати
а ль</w>
с прави
преми ей</w>
горно лы
по пов</w>
ман е</w>
ору же
сни зу</w>
комна те</w>
ка ции</w>
игро вого</w>
гон ча
бо яр
ша р</w>
товарище ском</w>
много кратно</w>
кин г
трени рово
то пони
ка ран
ка й</w>
показан а</w>
ку зо
те ми</w>
вар да</w>
копи и</w>
древ ний</w>
ски »</w>
рабоче- крестьян
мастер ская</w>
отправля ются</w>
на кло
стоя т</w>
« олимпи
h al
япон ские</w>
эд ди</w>
молодё жную</w>
ме хико</w>
жу рав
вио лонче
бога тых</w>
последо вали</w>
о мской</w>
но е»</w>
много е</w>
делега ции</w>
x —
boo k</w>
0 9</w>
рубе ж</w>
стек ла</w>
иденти фици
демонстра ции</w>
ров но</w>
12 8</w>
наход ки</w>
мо жа
вари а
z o
di g
от цо
наступа тельной</w>
корпу сов</w>
ка лли
полу чается</w>
за ри
ен е</w>
заяви в</w>
чере па
съё мо
продолжа я</w>
откры вает</w>
ба гда
ще йся</w>
фру к
х э</w>
осуществ ления</w>
мэ н</w>
и ши
p u
со иск
с ю</w>
t le</w>
реак цию</w>
воло к
гра вю
ак кумуля
позд него</w>
ко ров</w>
се пара
при зо
нали чия</w>
из ви
ш тан
пак ет</w>
льво вской</w>
ев до
ст ский</w>
циви лизации</w>
ре ше
от ъез
к р</w>
судь бе</w>
при стан
ти г
спосо бы</w>
правитель ственных</w>
патри к</w>
герце гови
чер ны
толщи ной</w>
з ной</w>
у а</w>
студен том</w>
ма ла</w>
посад ки</w>
in i</w>
ш кина</w>
ш кам</w>
стихотвор ения</w>
специаль ное</w>
сотруд ника</w>
про йдя</w>
па с</w>
откры тое</w>
эк спорт</w>
тер пи
дан ь</w>
рован ном</w>
говори лось</w>
i de
жен ность</w>
бо г
ec t</w>
ха ра
сыр ья</w>
публици ст</w>
празд ника</w>
ни и»</w>
son y</w>
да вать</w>
app le</w>
ужа сов</w>
наблюд ений</w>
моги ла</w>
графи ки</w>
ti c</w>
про слави
вер стах</w>
ми гра
ма ч
лу ки</w>
ло чной</w>
выз вали</w>
m .</w>
ша ха</w>
принадлежа ло</w>
использо вана</w>
проро ка</w>
достига ют</w>
2 6,
фин ский</w>
на бора</w>
льво ве</w>
брю с
си ма</w>
ве ге
ю ань</w>
журна лист
докумен тальный</w>
крас но-
г ском</w>
ч ках</w>
фор та</w>
ти я»</w>
дворян ства</w>
ва емого</w>
эн ь
про лё
у р</w>
ва тые</w>
ру ющей</w>
ра ти
джи мми</w>
лер ы</w>
ауди тори
моло же</w>
кра тным</w>
встре тить</w>
фрэн к</w>
ан та
спут ника</w>
собствен ному</w>
прибы тия</w>
агре ссив
вра ща
ближай ший</w>
с м
v ent
отлича лись</w>
про слуши
уг лом</w>
домаш ней</w>
вы мер
ac e
продолжа лись</w>
при уро
при ста
опера тора</w>
звуч ание</w>
джон сон</w>
вод ной</w>
boe ing</w>
тен и</w>
предотвра тить</w>
масси в</w>
неодно зна
кар лом</w>
vi e
пря мые</w>
мах му
еже днев
пер у
удостои лся</w>
пода чи</w>
ж дей</w>
бра ун
s ur
air lines</w>
2 7,
гро зи
близ не
цы ган
пользо ваться</w>
ко ли
звёзд ы</w>
степа нович</w>
домаш ние</w>
фи на</w>
ло вым</w>
особен ность</w>
сло я</w>
кур сах</w>
е лены</w>
алтай ского</w>
« металлур
эк замен
управля л</w>
прокуро ра</w>
мин ский</w>
е лен
4 000</w>
чен ную</w>
род ные</w>
ре р</w>
латин ского</w>
захва чен</w>
судь бы</w>
за ру
финанси рование</w>
преобразо вана</w>
гомель ской</w>
фина льной</w>
стани цы</w>
ac ti
эта жа</w>
ин три
до ли</w>
компани ями</w>
са ды</w>
печ ор
ива нова</w>
автобу сы</w>
be at
прави ть</w>
по проси
гарни зона</w>
то ми
ры ча
сред у</w>
реаль ной</w>
" -
недоста тки</w>
конден са
комна ты</w>
прекра тила</w>
бр э
corpor ation</w>
щен ные</w>
сдела в</w>
жу ков</w>
двенадца ть</w>
теле ви
на вар
ка кие
й ско-
as t</w>
179 4</w>
да вида</w>
орна мен
лы к</w>
z a</w>
фё дора</w>
александров на</w>
команди ров</w>
труд ящихся</w>
ро б
разли чают</w>
шири ну</w>
от вор
много зна
к вт</w>
за готов
так си
но ю</w>
из ог
запу щен</w>
учен ых</w>
работа ющих</w>
ал та
машиностро ения</w>
коммуника ции</w>
.0 3.
эм бри
онтари о</w>
домини кан
тек сто
священ ником</w>
географи ческих</w>
у казания</w>
произ во
прода л</w>
жи ль
всё -таки</w>
безуспе шно</w>
све ти
о скорб
людви г</w>
слобод а</w>
описы вается</w>
28 ,
профе ссии</w>
поло се</w>
до нос
че сти</w>
печен и</w>
украин у</w>
су з
соиск ание</w>
ев па
ше вского</w>
мета л</w>
ле ва</w>
ка ким</w>
тер мина</w>
о гра
бого служения</w>
clu b</w>
ш ми
ству ющего</w>
осуществля ть</w>
ну мера
мин ь
алек с</w>
траге дии</w>
ру кой</w>
полу финала</w>
концеп цию</w>
заверши лась</w>
живо тного</w>
ба зой</w>
трудоспособ ном</w>
разме щены</w>
про ститу
принци пов</w>
га бари
ча ше
« ду
татар стан</w>
совет скую</w>
вюр тем
1, 7</w>
метео ро
фин ского</w>
скан да
репута цию</w>
диа метре</w>
теб я</w>
да ри
прав да»</w>
ча т</w>
ред ка</w>
класси ческих</w>
вино гра
образо вы
игра я</w>
се ктор</w>
ни но</w>
да тчи
г нё
мисси онер
механиз мов</w>
спор том</w>
роман у</w>
актри сой</w>
спе ран
союз ных</w>
ведом ства</w>
10 6</w>
суворо ва</w>
про ван
откры вается</w>
пресси они
сме си</w>
рай онами</w>
хозя ина</w>
завер шено</w>
про ведено</w>
гон щик</w>
ста й
ра та</w>
лек ций</w>
ар тура</w>
studi os</w>
учени ки</w>
мона х</w>
« фи
материа лам</w>
личин ки</w>
автобу с</w>
авиа компания</w>
сати ри
но шения</w>
ископа емых</w>
ци на</w>
у шли</w>
вир ги
про бе
лу га</w>
древ ней
употреб ление</w>
транспор тные</w>
саунд трек</w>
ко ры</w>
выле тов</w>
вы падает</w>
встре тились</w>
коро ны</w>
ге ли
и ш
пря мых</w>
откры лась</w>
ген ери
бе ли
ка сси
никола евна</w>
пи ка
дже ф
в ъез
упомина ются</w>
си не
[...]
